/features/features.0/Conv_param_0 222.114426 662.243164 241.052826 259.318054 343.587860 685.364929 441.589142 405.449738 481.659271 237.530594 299.822479 327.989899 218.384552 262.855988 338.006500 609.838196 197.341431 592.473816 197.942154 445.751495 300.341797 179.872757 282.406067 591.799744 211.632217 182.780045 337.348907 291.914703 261.403015 373.164978 319.724640 135.749481 383.622406 184.073608 286.291687 663.087341 768.378113 191.669861 382.775574 162.458466 653.507507 183.166199 321.901001 711.130554 374.508270 200.691360 368.930511 739.434265 241.949768 203.041367 405.133942 830.977661 477.678619 928.085632 220.420334 251.300476 505.040771 275.525421 512.252075 386.759857 307.442078 427.087036 597.921814 154.819046 
/features/features.3/Conv_param_0 331.121582 240.162506 380.535492 368.669037 543.565308 376.677765 235.380997 566.966736 420.867310 173.628845 665.207153 57.038597 389.074036 424.300171 360.243774 463.629242 669.918884 500.666016 1087.130615 317.965759 674.697815 375.048309 149.223175 365.047028 696.841248 453.919708 472.472290 390.827942 857.694946 353.391296 410.894165 461.572327 614.158203 463.629242 401.073242 347.954529 720.986816 294.726349 864.106323 663.933655 176.575699 383.622406 309.822510 291.587433 551.635193 791.768616 284.724670 402.313995 229.361557 319.136200 395.282684 632.836975 274.218231 778.148071 266.355347 472.043549 380.257324 1020.985291 329.027191 663.087341 221.358292 327.783234 504.062012 863.389221 410.569855 282.713043 335.824402 357.766174 379.148682 262.590607 312.615387 366.590546 500.184601 650.646667 479.439636 612.350769 170.666672 510.743256 741.542419 788.169678 537.388428 389.074036 573.846680 152.281036 550.176636 366.332397 239.940964 657.223022 452.340881 758.850464 403.562439 269.250519 319.921265 363.770630 185.650253 306.536255 420.527069 587.124146 263.789032 606.284363 398.309357 321.701904 358.258942 594.505127 273.353638 643.802002 354.595764 177.056503 265.268738 761.070984 408.955963 487.071167 234.743683 406.399994 264.325195 491.210571 303.495911 444.228851 593.149353 331.755096 353.151398 764.988220 286.765167 557.547668 693.127258 381.932465 806.499207 346.794678 486.615540 534.626953 507.504395 442.340149 883.928650 589.786865 395.583282 265.946838 279.522827 469.064026 353.631531 864.106323 363.516418 253.258026 649.428223 634.767517 787.573059 652.687561 272.351837 357.520264 521.234497 522.543457 417.154785 678.216431 454.713287 312.615387 279.522827 322.900055 567.895203 391.121796 242.400742 271.498962 562.065918 294.893433 468.641449 335.607727 585.801819 1097.451416 500.666016 332.603577 327.370667 282.406067 335.391357 633.222168 494.949585 938.128052 857.694946 475.495422 403.562439 541.584595 627.115112 681.325500 63.130096 1029.064331 363.516418 615.976318 437.872040 852.075378 374.778107 642.609009 289.800568 478.557495 444.608551 457.512756 
/features/features.6/Conv_param_0 222.764908 120.015121 138.999451 182.962540 202.191086 167.514511 124.547325 114.806511 97.225113 99.122559 209.704376 182.567932 170.437576 194.004578 137.568802 129.699692 105.989983 163.628860 85.276024 315.468323 149.383530 206.801300 135.875870 138.017395 220.062393 147.389435 170.896362 141.635254 226.137131 202.030228 186.866821 156.374390 249.461685 152.067062 135.513336 165.441040 148.336441 112.667259 50.790401 188.671616 274.691193 137.197189 185.637421 203.487183 113.371429 188.112595 217.052994 219.491791 159.617844 130.432465 36.237442 90.117813 152.983139 190.368820 162.581299 240.484848 46.173092 113.982048 172.054199 178.086960 202.999207 112.767319 245.364258 128.975113 126.596214 147.133255 245.127411 111.774651 58.086002 140.849701 103.653877 285.981995 182.305817 158.521851 142.429611 145.032547 216.313461 133.658951 125.594460 242.320618 131.786194 271.897217 200.119781 154.190643 228.991882 172.404617 233.411758 188.252045 115.642990 161.239365 161.649902 132.473663 146.033356 109.085907 231.075516 122.327553 215.945572 153.167679 255.613495 205.296692 126.281448 142.031326 149.207993 223.352676 234.273056 202.837067 166.307800 197.936081 138.999451 182.436783 263.572388 212.334442 115.748405 170.209122 132.266663 171.473328 144.784500 186.592209 124.669609 145.781860 177.962158 211.450455 223.746262 177.713089 125.284660 165.118332 220.827820 136.975189 215.396103 186.181824 130.970596 108.992271 207.986893 161.341797 196.557281 127.935516 105.813332 105.112579 143.882156 179.980148 146.962967 188.531555 123.397476 75.625969 56.584671 213.046982 231.496811 192.242233 96.854309 67.254234 155.512558 210.399338 113.675919 217.424652 55.545055 238.228897 131.513199 192.533737 208.157379 120.470589 156.857315 178.462402 96.048409 222.180222 197.014740 184.156631 244.419632 168.180130 162.477280 164.476685 187.556870 100.455696 192.533737 132.681290 67.756668 188.252045 184.692368 130.700974 238.228897 174.417587 228.991882 136.533340 175.623795 90.374374 121.975021 168.626831 73.354134 146.454437 172.756470 107.515663 71.015663 142.190369 136.386688 203.324265 86.378235 83.427071 225.134750 232.769943 98.507370 179.091675 252.562897 197.628021 200.752563 197.167709 117.136528 205.130859 129.106247 169.301331 204.634979 190.797897 93.640121 152.983139 97.673843 60.007561 118.337372 151.522675 185.096207 181.006409 84.820305 266.476379 178.086960 175.745331 203.650360 193.266357 206.297318 129.633484 179.091675 101.906898 102.897896 193.560974 209.013992 107.424706 122.209816 87.089165 205.795792 182.962540 235.140747 269.874603 139.995590 64.454819 169.075897 131.513199 131.581345 148.336441 62.766190 176.970032 215.031326 141.793411 93.090912 255.099945 173.227829 212.868393 158.819260 252.061539 219.871857 155.798767 202.999207 110.896072 152.432175 118.007439 237.338318 149.824188 239.577362 181.523941 166.307800 158.918655 202.999207 144.455063 182.962540 77.708687 202.837067 169.640610 253.318710 206.969849 248.728699 146.117371 243.715927 149.207993 159.718246 142.190369 147.389435 186.045425 182.175034 127.166748 178.713577 125.408394 237.782776 141.398666 240.941177 206.129868 99.122559 194.748459 215.762100 209.877686 147.389435 143.232941 79.260925 99.045242 210.748550 172.521744 170.209122 121.276024 160.424515 177.093445 97.448967 95.470680 174.657501 148.423141 221.986008 175.623795 182.699280 102.648346 176.355560 73.780357 161.034882 187.834320 105.901588 213.225861 158.127029 173.820663 197.014740 159.818756 202.030228 126.155983 145.281464 153.817078 112.268791 155.322327 128.193848 138.695801 191.951630 131.377136 234.057144 153.260101 118.337372 172.991821 165.118332 190.226212 159.617844 104.164070 191.517349 123.158096 196.557281 120.584991 235.358658 91.283966 224.339218 231.285980 232.983490 103.908348 121.276024 143.556808 248.485321 120.929527 150.267456 210.051285 226.540588 108.805481 72.022690 256.646790 98.278641 99.667191 233.411758 194.897934 228.168915 95.758675 206.297318 154.566040 188.952377 178.839432 126.155983 235.576996 199.647797 217.610962 139.075577 115.642990 88.918770 231.285980 159.417450 209.358612 87.208794 105.112579 218.924133 111.382454 
/features/features.8/Conv_param_0 229.820816 282.797333 243.950043 315.272491 107.333900 168.626831 141.635254 249.952759 249.339218 269.874603 290.895752 202.191086 223.746262 188.391693 132.197815 208.157379 170.552048 178.587906 232.556778 97.002289 223.156418 225.134750 207.816696 171.011444 213.225861 269.588104 160.830902 234.706100 220.444443 210.573792 183.226547 196.862015 256.000000 306.705322 177.962158 256.258331 200.593994 232.769943 246.316193 270.018066 240.712799 164.157730 213.944397 255.742203 261.401947 177.340775 160.121063 246.555344 215.762100 285.821045 165.333328 236.234421 184.023193 153.910309 194.301453 117.028572 290.065094 192.679825 203.487183 236.674744 132.129028 289.734161 177.464706 157.148514 280.609955 305.414307 219.871857 334.587616 268.164734 248.485321 201.389374 252.688553 261.133148 193.856491 320.646454 229.613022 128.975113 254.206207 241.628922 335.250153 244.184616 234.923218 228.991882 229.820816 233.411758 255.099945 201.389374 226.137131 240.484848 265.224030 166.307800 244.655106 233.841614 177.340775 206.129868 168.626831 318.834900 159.617844 189.657959 164.476685 215.031326 260.330078 261.941193 243.249039 187.834320 232.769943 284.540070 148.509949 285.821045 181.264816 288.417938 191.806641 187.418457 272.188629 346.692139 326.416443 268.874542 194.599228 257.950226 275.436005 211.626663 272.042847 298.415985 329.380035 303.045349 210.225159 202.513550 135.730621 265.224030 261.401947 227.759644 230.237534 164.476685 272.334595 182.962540 287.276031 117.028572 210.399338 218.924133 237.116714 227.964096 270.449402 301.605713 177.340775 157.734161 125.968254 269.874603 233.197433 272.188629 195.347687 173.227829 261.941193 209.358612 294.437103 194.897934 194.897934 173.939728 168.963409 283.745239 207.986893 239.577362 305.966278 244.419632 207.477127 256.646790 282.012207 199.021942 192.826126 238.228897 206.969849 294.950073 201.070465 144.537277 241.399246 219.871857 236.895523 185.909225 223.156418 145.032547 173.346069 165.981705 180.363632 259.930389 283.270508 212.512131 152.432175 96.413063 170.896362 274.691193 266.896484 222.569672 149.120377 124.000000 301.069366 287.113617 216.682587 316.451080 93.778435 184.558136 180.235626 273.213562 225.935944 225.935944 262.347107 285.339325 289.403992 251.188919 275.735077 194.450226 165.225769 198.555115 106.792259 215.762100 234.273056 79.808922 198.866089 224.935349 157.832199 99.823898 224.339218 221.212540 247.516571 250.940704 182.699280 154.003632 237.560333 219.871857 207.816696 162.166031 195.648697 224.537582 276.034790 204.470215 234.489380 134.651108 254.333496 222.960495 314.881592 231.285980 221.212540 227.759644 263.572388 245.601547 205.629150 214.849411 294.778870 294.096130 265.362579 137.942429 287.276031 218.924133 266.616272 168.291580 297.890900 251.437622 176.970032 
/features/features.10/Conv_param_0 241.859055 348.356659 200.277603 254.588470 256.517181 210.748550 298.767059 259.664612 147.560715 288.745880 276.937836 267.317902 213.944397 276.636169 194.152908 192.972641 260.864929 187.556870 322.683594 330.022095 292.740051 233.841614 279.068146 260.063507 265.362579 243.482269 342.484161 209.877686 238.452576 318.435120 256.387695 306.705322 239.577362 282.012207 281.075806 323.505737 281.231445 279.221558 264.120636 182.305817 238.901230 185.909225 276.636169 340.190216 353.447449 322.478729 194.897934 363.567657 262.482697 266.476379 224.736282 301.247925 338.151794 261.536560 309.886505 242.320618 331.097778 256.129089 273.507812 137.123108 197.936081 317.440002 341.792725 258.870544 239.577362 241.169983 297.890900 314.686493 195.950623 309.697571 251.313217 168.180130 294.778870 252.814331 190.511627 290.562927 189.233978 194.599228 344.108398 280.920349 298.415985 240.257339 294.607880 302.143951 205.629150 254.843948 250.816788 318.834900 287.601349 327.257721 276.937836 223.549301 309.132080 327.046997 226.137131 262.890259 308.381287 187.280243 238.901230 258.475311 143.882156 233.841614 183.358841 254.716156 239.803589 248.363815 296.153931 310.834747 261.806183 208.328140 270.449402 302.684143 290.895752 267.881866 264.258057 149.912628 323.711914 313.134399 254.716156 188.391693 192.387878 194.152908 304.498810 186.866821 170.095108 299.471710 282.012207 195.047623 220.253250 262.076355 197.628021 234.057144 260.597229 239.577362 290.396790 218.924133 246.794952 267.740631 270.161713 243.482269 207.986893 250.569321 178.713577 225.334518 269.445099 322.478729 280.920349 262.211670 255.484909 290.729248 233.197433 318.036316 281.387268 273.802704 242.783936 283.745239 312.172089 206.465042 359.705383 223.352676 189.233978 264.947327 216.129364 291.229370 263.299133 228.991882 319.637512 273.802704 263.709229 290.562927 249.094650 245.127411 331.530029 285.821045 195.347687 256.646790 229.405594 282.012207 282.954865 230.237534 256.776550 272.626953 270.593506 174.777695 207.477127 310.644653 271.606415 158.324188 268.590149 192.972641 250.199020 231.708023 200.911392 233.411758 195.047623 239.577362 249.829803 193.266357 336.806366 247.516571 249.952759 386.827118 172.639023 212.512131 276.335144 239.351562 276.184875 301.784912 298.767059 261.536560 195.950623 202.513550 215.213562 215.945572 348.356659 305.230774 294.950073 344.108398 274.988617 317.043701 208.499176 247.758041 227.351837 321.661804 275.585449 268.306396 259.266968 265.362579 328.740448 346.219482 334.367340 308.756226 210.225159 304.134125 272.188629 225.334518 167.625076 289.074554 244.891037 265.779175 178.713577 197.781937 294.266510 292.740051 279.991180 264.258057 345.748138 221.598602 297.716309 341.333344 338.377075 325.788330 296.153931 246.077515 215.396103 268.164734 
/classifier/classifier.1/Gemm_param_0 3162.261475 2998.224854 2508.460449 2757.810547 3017.792725 3810.930420 3433.610596 3955.832764 3297.572021 3550.798584 3634.529297 3302.806396 2572.024658 3553.830811 3606.183594 3084.904297 3686.037109 3473.736328 3566.011963 2483.016602 4182.448242 3974.723877 3292.354492 3686.037109 3136.048340 2503.932617 3019.982666 2819.468750 3251.199951 3000.386475 3526.725342 3193.811279 3276.800049 3302.806396 2873.989014 3009.064453 3258.837891 3612.444336 3776.348389 3405.512207 3145.529785 3276.800049 2848.416260 3006.890137 3310.688965 3110.266113 3817.922852 3529.716797 3091.780029 2850.367188 3308.057129 3581.356201 3196.264160 3281.968506 3050.979492 3377.870117 3279.382080 2691.808594 3266.511719 2852.320801 3361.499268 3174.321777 3110.266113 3669.784912 3196.264160 3465.059082 2439.352783 3892.924316 3305.429688 3772.924805 3436.445801 2981.042969 3098.686523 3578.276855 3553.830811 3394.401367 3350.673096 3361.499268 3535.714600 3167.074463 3399.947754 3686.037109 3258.837891 2755.984131 2654.040771 3266.511719 3411.094971 3276.800049 3450.693115 2584.804932 3532.713135 3621.876465 3024.372070 3218.511963 3386.115479 3447.834229 3462.176270 3321.257812 4048.186768 3266.511719 3105.623779 3593.727051 2968.285400 3593.727051 3526.725342 3578.276855 3035.401855 3896.569336 3439.285889 2759.639160 2406.903320 2987.463135 3399.947754 4312.472656 2660.828613 2705.810059 3098.686523 3903.879883 2589.630371 3140.781982 3084.904297 2759.639160 3609.311279 3112.592285 3206.114014 3491.221436 3323.910645 3000.386475 3797.021973 3556.868408 3689.304932 2908.131348 3258.837891 2900.025146 3223.498047 3112.592285 2970.404053 2983.179932 3228.499512 3603.061523 3167.074463 3044.283936 3266.511719 2883.947266 2079.728027 3517.781982 3436.445801 3467.946777 3053.218018 2993.910889 3206.114014 3925.977295 2796.731201 3465.059082 3269.077881 3193.811279 2996.066162 3107.943359 3028.774414 3538.721191 3117.255371 3347.977539 2916.283203 2529.809082 3256.287842 2875.975098 3243.597900 3712.342529 3386.115479 4093.985352 3198.720947 3755.898926 2840.638916 3042.058594 3078.059082 3874.800781 3179.171875 3292.354492 2872.005615 3216.024658 3019.982666 3066.717773 3147.909180 3184.036621 3587.531006 3369.664795 3517.781982 3660.102051 3476.638184 3450.693115 3502.976318 3828.459961 3263.949707 2912.201660 3024.372070 3080.337646 3321.257812 3287.153320 3386.115479 3377.870117 3439.285889 3502.976318 3042.058594 2746.888428 3089.484863 3456.425293 3084.904297 3612.444336 3279.382080 3814.423584 3800.489502 3030.980225 3228.499512 3722.304199 2970.404053 3427.953857 3138.413330 3502.976318 3091.780029 2605.845947 3473.736328 2719.958252 2906.100586 3211.061768 3587.531006 3225.996826 3566.011963 3361.499268 2904.072510 3391.634766 3375.130615 2453.735840 3821.428955 3369.664795 3786.656982 3251.199951 3596.833252 2672.791260 3695.857910 2895.988770 3218.511963 3442.130615 3269.077881 3388.873047 2763.304199 3476.638184 3692.578613 3026.571533 3911.218018 3436.445801 2632.217529 3699.143066 3011.241699 2519.089600 3124.276367 3213.541260 3640.888916 3416.696289 2941.014893 3218.511963 3169.486572 3526.725342 3593.727051 3167.074463 3039.836426 3107.943359 3422.315674 2829.052246 3625.031250 3803.963379 2579.997559 3203.645996 3155.069092 3828.459961 3037.617432 3356.077393 3167.074463 3442.130615 3071.244385 3315.964844 3211.061768 3849.709473 3238.549316 3342.599121 3238.549316 3566.011963 3196.264160 3807.443848 3864.007324 3315.964844 2452.290039 3538.721191 3287.153320 3276.800049 3297.572021 3157.462891 2662.531006 3022.175781 2829.052246 2976.778320 3676.268555 2553.089600 2981.042969 3096.380859 2829.052246 3628.191895 3488.295166 3071.244385 3572.133789 2778.061523 3413.893311 3300.187256 3682.775146 3292.354492 3208.585938 2875.975098 3728.974854 3666.551514 3011.241699 3465.059082 2500.923096 3243.597900 3955.832764 3874.800781 3433.610596 2516.043457 3006.890137 3066.717773 3223.498047 3783.214600 3676.268555 3615.583008 3553.830811 3331.894287 2926.537354 2702.296143 3231.006104 3584.440918 2941.014893 4052.128418 3535.714600 3251.199951 3350.673096 3103.307861 3388.873047 3514.810791 3508.883545 3358.786133 3508.883545 3433.610596 3634.529297 2914.240967 2972.525635 3050.979492 3621.876465 3035.401855 3673.023926 3419.503662 3599.944580 2983.179932 2972.525635 3181.602539 3556.868408 3339.916504 3334.564209 3046.512451 2798.612061 3117.255371 2465.364990 3206.114014 3535.714600 3569.070312 3157.462891 2852.320801 3640.888916 4960.114258 3470.839111 3339.916504 2922.427002 2586.411377 3682.775146 3653.675049 3206.114014 3695.857910 2718.181641 3749.131592 3547.771484 2934.792725 3456.425293 2677.951172 3482.456787 3181.602539 3152.678711 3462.176270 3155.069092 3159.860352 3631.357666 3419.503662 2700.542480 3269.077881 2114.601562 3709.033936 3057.704590 3119.592285 3078.059082 2667.651367 2955.636475 3013.422119 2763.304199 3447.834229 3179.171875 3002.551270 2804.269531 3637.706299 3269.077881 2834.833740 2953.538574 3535.714600 3544.749512 3169.486572 3663.323975 3050.979492 2755.984131 3138.413330 3073.512451 2654.040771 3465.059082 3397.172363 3179.171875 2422.314209 3300.187256 4020.807617 3722.304199 3488.295166 3162.261475 3271.647705 3502.976318 2716.407227 3399.947754 3112.592285 4163.617676 3068.979248 2439.352783 3599.944580 4756.041016 3526.725342 3048.744385 4281.415527 3679.519043 3305.429688 2916.283203 3243.597900 4116.257324 3167.074463 3276.800049 3162.261475 3425.132568 3068.979248 3313.324951 3705.730957 3578.276855 3444.980225 2829.052246 2804.269531 3218.511963 2864.099121 3350.673096 3078.059082 3167.074463 3544.749512 3246.127930 2791.104004 3169.486572 3653.675049 3425.132568 3433.610596 3112.592285 2879.955811 3347.977539 3408.301514 3329.228760 3107.943359 3225.996826 3702.434082 2570.436035 3253.741943 2949.352295 3152.678711 3251.199951 3689.304932 3821.428955 3241.071533 3356.077393 3615.583008 3297.572021 3575.202637 3650.470215 2991.758545 3019.982666 2981.042969 3372.395508 3256.287842 3284.558838 3281.968506 3702.434082 3094.078857 3138.413330 3017.792725 3329.228760 3353.373047 3842.600098 2930.659180 2741.459717 3494.152832 3361.499268 3476.638184 3867.598633 3606.183594 3572.133789 1957.448730 3042.058594 3164.666260 2976.778320 3261.391846 3347.977539 3562.958984 2716.407227 3342.599121 3326.567627 3491.221436 3035.401855 3225.996826 3553.830811 3143.154053 3302.806396 3266.511719 2560.945312 3188.916504 3297.572021 3331.894287 3353.373047 3006.890137 3287.153320 3599.944580 3256.287842 2885.947266 4169.875977 3422.315674 3523.739258 2382.104248 3048.744385 3411.094971 3246.127930 3181.602539 3331.894287 3297.572021 3427.953857 2920.376221 3476.638184 3364.216553 3089.484863 3329.228760 3419.503662 2972.525635 2759.639160 2785.499268 3231.006104 3073.512451 3305.429688 3253.741943 3098.686523 3853.274170 3191.362061 3391.634766 3442.130615 3064.459473 4316.946289 3593.727051 3712.342529 2785.499268 3578.276855 3369.664795 3024.372070 3621.876465 3692.578613 3022.175781 2858.197754 2508.460449 3318.609131 2811.848633 3329.228760 2991.758545 2981.042969 2823.294434 3450.693115 3321.257812 3439.285889 3640.888916 3402.727783 3388.873047 3302.806396 3305.429688 2889.955566 2920.376221 3628.191895 3413.893311 2690.068604 3494.152832 3553.830811 3171.902344 3669.784912 3615.583008 3394.401367 3878.411865 3231.006104 2707.570557 3155.069092 3004.719238 3399.947754 3263.949707 3735.669678 3419.503662 3575.202637 2910.165039 3459.298340 3004.719238 2961.947266 2993.910889 3456.425293 2852.320801 3411.094971 2920.376221 3553.830811 3276.800049 2736.052490 2426.551514 3523.739258 3408.301514 3037.617432 3634.529297 3261.391846 3128.974365 2471.220947 3712.342529 2891.963867 3243.597900 3238.549316 3479.545166 3184.036621 3728.974854 3532.713135 3057.704590 2213.583008 3218.511963 3022.175781 3411.094971 3369.664795 3625.031250 2813.749756 3650.470215 3323.910645 3702.434082 3218.511963 3621.876465 2743.267090 2964.056885 3640.888916 3416.696289 3572.133789 2918.328125 3140.781982 3669.784912 2930.659180 3578.276855 2858.197754 3581.356201 3201.181641 3159.860352 3258.837891 2554.656738 3096.380859 2834.833740 3673.023926 2704.052002 3218.511963 2959.840576 3644.077148 3238.549316 2998.224854 3413.893311 3514.810791 2955.636475 3171.902344 2926.537354 3391.634766 2829.052246 3456.425293 3274.221924 3967.145752 3213.541260 3689.304932 2902.047363 2671.075684 3345.286133 2811.848633 3786.656982 2728.875977 3075.784180 3269.077881 3550.798584 2471.220947 2728.875977 3450.693115 3062.204590 3394.401367 3004.719238 2891.963867 2542.172363 3358.786133 2655.734619 3126.623535 3993.796631 3831.985352 2542.172363 2955.636475 3350.673096 3599.944580 2433.646729 3425.132568 2334.007812 2683.130859 3171.902344 2951.444092 3308.057129 3940.848389 3842.600098 3037.617432 2497.920654 2809.949951 3361.499268 3231.006104 3261.391846 3497.089111 2864.099121 2972.525635 2124.316406 3258.837891 2456.632812 3124.276367 3562.958984 3725.636475 3397.172363 3009.064453 2800.495361 3358.786133 3547.771484 3889.285889 3497.089111 3413.893311 3779.778320 3653.675049 3647.270752 3425.132568 2914.240967 2928.596680 2450.845703 3100.995605 3263.949707 3289.751709 3391.634766 44037.417969 2811.848633 3308.057129 3413.893311 3136.048340 3640.888916 2355.142090 3500.030273 3094.078857 2755.984131 3422.315674 2991.758545 2987.463135 3315.964844 3578.276855 3590.626465 3666.551514 3162.261475 3380.614014 2642.245117 3394.401367 3353.373047 3408.301514 2978.909180 3152.678711 2978.909180 3300.187256 2877.964111 3505.927490 3152.678711 3138.413330 3140.781982 3323.910645 3479.545166 3087.192871 3117.255371 3587.531006 3206.114014 3107.943359 2870.024902 3241.071533 3566.011963 3439.285889 3266.511719 3647.270752 3133.686768 3383.362549 3433.610596 3203.645996 2844.522217 3394.401367 3216.024658 3578.276855 3019.982666 2998.224854 3669.784912 2951.444092 3133.686768 3669.784912 3248.661865 3050.979492 3223.498047 3634.529297 2440.783691 3925.977295 3300.187256 3119.592285 2959.840576 3511.844727 3096.380859 3053.218018 3184.036621 3009.064453 3508.883545 3145.529785 3889.285889 3228.499512 3274.221924 2846.467773 3529.716797 3532.713135 2785.499268 2110.312256 2612.389160 2402.734375 3203.645996 3181.602539 3358.786133 3669.784912 2778.061523 4506.265137 2714.635254 3269.077881 2591.242920 3647.270752 3676.268555 3136.048340 3121.932373 3294.961182 3705.730957 3080.337646 3323.910645 3110.266113 3162.261475 3849.709473 2702.296143 3572.133789 3131.328857 3080.337646 3253.741943 2951.444092 3100.995605 48601.878906 2783.636230 3529.716797 3584.440918 3305.429688 3342.599121 3578.276855 3281.968506 3128.974365 3206.114014 2904.072510 3287.153320 3427.953857 3276.800049 3157.462891 3413.893311 2721.737061 3505.927490 3807.443848 3526.725342 3535.714600 2827.130371 3035.401855 3593.727051 3903.879883 3035.401855 3188.916504 3238.549316 3666.551514 3157.462891 3233.516602 2987.463135 3637.706299 3128.974365 3100.995605 3073.512451 3386.115479 3208.585938 3112.592285 3538.721191 3300.187256 3562.958984 3089.484863 3612.444336 2916.283203 2716.407227 3739.026123 3505.927490 3347.977539 3201.181641 3318.609131 2757.810547 2462.447266 2542.172363 3098.686523 3015.605713 3121.932373 3203.645996 3637.706299 2932.724365 3035.401855 3289.751709 3188.916504 2951.444092 3479.545166 3447.834229 2806.160400 2382.104248 3465.059082 3465.059082 3033.189453 3094.078857 3578.276855 2671.075684 2922.427002 3147.909180 3411.094971 3024.372070 3096.380859 3053.218018 2981.042969 3416.696289 3596.833252 2648.972656 2996.066162 3337.238281 3550.798584 3523.739258 2502.427002 2938.937744 2671.075684 2850.367188 3559.911133 3140.781982 3618.727051 3198.720947 2885.947266 3033.189453 2637.221680 3126.623535 3231.006104 3011.241699 3157.462891 2256.798340 3944.583984 3544.749512 2559.370117 2955.636475 3117.255371 3248.661865 3572.133789 3211.061768 2953.538574 3535.714600 2842.579346 3071.244385 3442.130615 4016.926758 2953.538574 3107.943359 3388.873047 3236.031006 3138.413330 3514.810791 2617.318359 3080.337646 3433.610596 2934.792725 2776.208252 3302.806396 2908.131348 3462.176270 3358.786133 3575.202637 3028.774414 3444.980225 3631.357666 2505.440186 3323.910645 3155.069092 3814.423584 3511.844727 3459.298340 3089.484863 2096.491699 2889.955566 3191.362061 2728.875977 3145.529785 3532.713135 2627.232422 3532.713135 3078.059082 3718.977539 2572.024658 3233.516602 3618.727051 3026.571533 3117.255371 3337.238281 2622.265869 3849.709473 3430.779785 3465.059082 3114.922119 3413.893311 3274.221924 3078.059082 3769.507324 2783.636230 3453.556885 3233.516602 2522.143066 3482.456787 3098.686523 3147.909180 2344.527344 3248.661865 2645.604492 3566.011963 3009.064453 3080.337646 3289.751709 2955.636475 2787.364990 3356.077393 3593.727051 3669.784912 3124.276367 3258.837891 3940.848389 3394.401367 2866.071533 2789.233154 3494.152832 2447.962402 3318.609131 2873.989014 3107.943359 3073.512451 3225.996826 3612.444336 3337.238281 3107.943359 3817.922852 3900.221191 3121.932373 3022.175781 2485.983154 3218.511963 3929.684570 3201.181641 3221.003174 3281.968506 2716.407227 2916.283203 3532.713135 3425.132568 3587.531006 3347.977539 3405.512207 4112.189941 2972.525635 2858.197754 3281.968506 2989.609131 3233.516602 2157.354004 3337.238281 3442.130615 3937.120117 3705.730957 2829.052246 3011.241699 3191.362061 3033.189453 3399.947754 3800.489502 3686.037109 2279.044922 3035.401855 3874.800781 3603.061523 2770.663086 3287.153320 3055.459717 3849.709473 3353.373047 3405.512207 3216.024658 2768.819580 3456.425293 3523.739258 3948.326416 3465.059082 3246.127930 3225.996826 3547.771484 3790.105713 3155.069092 3497.089111 3967.145752 2808.053955 2468.289551 3082.619141 3107.943359 3682.775146 2879.955811 3198.720947 3399.947754 3094.078857 3326.567627 3147.909180 3353.373047 3039.836426 2819.468750 3323.910645 3647.270752 3094.078857 3011.241699 3699.143066 3171.902344 2852.320801 3388.873047 3929.684570 3310.688965 3233.516602 3762.690674 3057.704590 3159.860352 3453.556885 3745.757080 3062.204590 2953.538574 2596.092285 3663.323975 2924.480713 3575.202637 3383.362549 2781.775391 3520.758057 2681.402100 3356.077393 3167.074463 3048.744385 2427.967285 2879.955811 3236.031006 3186.474854 3405.512207 3541.732666 3145.529785 3776.348389 3318.609131 3759.291748 2725.302002 3145.529785 2957.737061 3243.597900 3709.033936 3839.055420 3087.192871 3361.499268 2998.224854 3653.675049 3718.977539 3089.484863 3473.736328 3089.484863 3326.567627 3718.977539 3075.784180 2993.910889 3028.774414 2885.947266 3276.800049 3266.511719 3140.781982 3313.324951 3786.656982 2791.104004 3119.592285 3308.057129 3467.946777 3308.057129 3167.074463 3430.779785 3411.094971 3824.941162 3284.558838 2938.937744 3107.943359 3686.037109 3411.094971 3080.337646 3514.810791 2768.819580 3444.980225 3569.070312 3497.089111 3347.977539 3231.006104 3479.545166 3103.307861 3221.003174 2918.328125 3631.357666 2808.053955 2280.293701 3821.428955 3797.021973 2798.612061 2891.963867 3399.947754 3246.127930 3126.623535 3206.114014 3150.292236 3241.071533 3179.171875 3011.241699 3821.428955 3889.285889 3046.512451 3562.958984 3397.172363 3238.549316 3433.610596 2953.538574 3356.077393 3739.026123 2910.165039 3294.961182 3152.678711 3218.511963 3213.541260 2983.179932 3372.395508 4310.239258 3315.964844 3712.342529 3803.963379 3408.301514 2978.909180 3860.423096 2523.672607 2916.283203 3321.257812 3453.556885 3233.516602 3297.572021 2862.129395 3544.749512 14178.998047 3024.372070 3541.732666 3442.130615 2763.304199 2991.758545 3228.499512 2423.725098 2752.338623 3117.255371 3914.897461 3167.074463 2889.955566 3136.048340 3394.401367 3612.444336 2627.232422 3702.434082 3140.781982 3071.244385 3625.031250 3241.071533 2981.042969 3181.602539 3329.228760 3391.634766 3080.337646 3686.037109 3544.749512 2301.734619 3050.979492 3066.717773 2924.480713 3274.221924 3292.354492 3068.979248 3221.003174 3084.904297 3439.285889 3581.356201 2633.883545 3198.720947 3500.030273 3276.800049 3133.686768 3581.356201 3364.216553 2770.663086 3218.511963 2549.960693 3442.130615 3050.979492 3476.638184 3140.781982 3606.183594 3009.064453 3628.191895 3241.071533 3030.980225 3171.902344 2983.179932 2755.984131 3112.592285 3057.704590 2972.525635 2437.923828 3339.916504 3075.784180 3071.244385 2776.208252 3024.372070 3191.362061 3145.529785 3922.277100 2983.179932 3064.459473 3084.904297 3287.153320 3057.704590 3514.810791 3323.910645 2543.726074 3030.980225 3169.486572 2959.840576 3157.462891 2842.579346 3526.725342 3411.094971 3550.798584 3517.781982 2883.947266 3358.786133 4104.079102 3752.512207 2976.778320 3453.556885 3297.572021 2295.386719 2957.737061 3366.938477 3526.725342 3456.425293 2943.094727 3028.774414 3391.634766 3091.780029 2737.852539 3124.276367 1804.655640 3482.456787 2938.937744 3569.070312 2926.537354 3538.721191 2836.766113 2409.690674 2922.427002 2531.347900 3044.283936 3096.380859 2852.320801 3485.373535 2844.522217 3511.844727 3559.911133 2838.701172 2813.749756 2604.215332 2989.609131 3618.727051 3334.564209 3394.401367 3082.619141 2711.098389 3465.059082 3248.661865 3702.434082 3313.324951 3050.979492 3575.202637 3650.470215 3465.059082 3593.727051 3013.422119 3155.069092 5274.443359 3625.031250 3476.638184 3263.949707 2643.923828 3491.221436 3470.839111 3419.503662 3430.779785 3745.757080 3940.848389 3386.115479 3294.961182 3689.304932 3339.916504 2804.269531 3263.949707 3405.512207 3143.154053 3331.894287 3169.486572 3256.287842 2475.631104 3326.567627 3287.153320 3814.423584 3213.541260 3266.511719 3692.578613 2904.072510 3263.949707 3121.932373 2481.536133 3206.114014 3644.077148 3042.058594 3191.362061 3479.545166 3361.499268 3100.995605 3238.549316 2848.416260 3300.187256 2993.910889 3206.114014 4600.924316 3699.143066 3712.342529 2276.551514 2330.087402 3587.531006 3663.323975 2887.949951 3315.964844 3140.781982 3377.870117 3436.445801 3402.727783 3603.061523 3243.597900 3803.963379 3430.779785 3193.811279 3482.456787 3313.324951 3276.800049 3369.664795 3673.023926 2553.089600 3526.725342 3329.228760 3508.883545 3253.741943 3287.153320 3006.890137 3511.844727 3221.003174 3547.771484 3318.609131 3176.745117 3375.130615 2904.072510 3856.845215 3188.916504 3062.204590 2477.104736 3364.216553 3218.511963 3526.725342 2914.240967 3508.883545 3046.512451 3628.191895 3459.298340 3082.619141 2811.848633 2802.381104 2779.917236 3171.902344 3824.941162 3050.979492 3326.567627 3380.614014 3062.204590 3637.706299 3556.868408 2575.208008 3625.031250 2877.964111 2712.865723 3559.911133 3846.151611 2916.283203 3599.944580 2725.302002 3000.386475 2842.579346 3321.257812 2432.224365 3603.061523 3059.952881 3243.597900 3179.171875 3105.623779 3377.870117 3186.474854 2564.101074 3606.183594 2390.313721 3342.599121 3284.558838 3625.031250 14462.332031 2796.731201 3584.440918 3039.836426 3022.175781 2945.177734 3037.617432 3179.171875 3849.709473 3017.792725 3520.758057 3383.362549 2993.910889 3147.909180 3666.551514 3218.511963 3203.645996 3048.744385 3046.512451 3473.736328 3712.342529 2688.330811 3080.337646 2811.848633 3145.529785 3377.870117 3002.551270 2594.473877 3284.558838 3772.924805 3596.833252 3208.585938 3970.931396 3514.810791 3391.634766 3559.911133 3467.946777 3213.541260 2446.523193 2991.758545 3017.792725 3974.723877 3193.811279 3494.152832 3184.036621 3233.516602 3535.714600 3450.693115 3236.031006 2732.459717 3505.927490 3411.094971 3394.401367 3442.130615 3179.171875 3216.024658 3004.719238 3369.664795 3541.732666 3176.745117 3350.673096 3294.961182 3628.191895 3059.952881 3699.143066 3218.511963 2679.675537 3159.860352 3323.910645 2976.778320 3198.720947 3462.176270 2914.240967 3128.974365 6314.925781 3062.204590 3587.531006 4465.167480 2191.435547 3526.725342 2719.958252 3500.030273 46465.160156 3523.739258 3394.401367 3039.836426 3766.095947 3439.285889 3138.413330 3621.876465 2832.904053 3615.583008 3071.244385 3807.443848 3709.033936 2404.122559 3186.474854 3511.844727 3394.401367 3500.030273 3590.626465 3329.228760 2804.269531 3251.199951 3216.024658 3292.354492 3476.638184 2727.087891 3350.673096 3030.980225 2920.376221 4373.658203 2998.224854 3119.592285 3313.324951 3369.664795 3612.444336 2402.734375 3179.171875 3849.709473 3169.486572 3453.556885 3145.529785 3663.323975 3117.255371 4343.983398 3462.176270 3203.645996 3682.775146 3241.071533 3037.617432 2625.574707 3228.499512 3022.175781 3625.031250 3377.870117 3044.283936 3766.095947 3544.749512 3442.130615 3511.844727 3388.873047 3080.337646 3358.786133 3405.512207 3037.617432 2862.129395 3679.519043 3553.830811 3216.024658 3308.057129 2844.522217 3907.545654 3251.199951 3119.592285 2340.571533 3467.946777 3578.276855 2714.635254 3196.264160 3835.517090 3705.730957 3228.499512 3413.893311 3394.401367 2866.071533 3388.873047 3682.775146 3538.721191 3258.837891 3358.786133 3342.599121 3241.071533 3261.391846 2827.130371 3686.037109 3078.059082 3297.572021 3631.357666 3208.585938 3529.716797 3124.276367 3292.354492 2932.724365 3279.382080 3136.048340 3497.089111 3171.902344 3892.924316 2456.632812 3184.036621 7231.166016 3179.171875 3364.216553 2864.099121 3297.572021 2951.444092 3297.572021 2766.978760 2732.459717 2998.224854 3089.484863 3366.938477 3759.291748 3497.089111 3628.191895 3615.583008 2922.427002 3261.391846 2864.099121 3500.030273 2966.169678 3433.610596 3712.342529 3167.074463 3193.811279 3048.744385 3779.778320 3347.977539 2852.320801 3140.781982 3752.512207 3188.916504 3171.902344 3078.059082 3494.152832 2549.960693 3068.979248 2485.983154 2955.636475 2957.737061 3206.114014 3128.974365 3470.839111 3315.964844 3532.713135 3233.516602 2875.975098 3046.512451 3722.304199 3339.916504 2928.596680 3807.443848 3356.077393 3647.270752 3339.916504 3300.187256 3783.214600 3529.716797 2662.531006 3342.599121 3871.196289 3500.030273 2875.975098 3176.745117 3459.298340 3112.592285 3337.238281 3742.388428 3405.512207 3709.033936 3208.585938 3644.077148 3839.055420 3450.693115 2951.444092 2834.833740 2823.294434 3394.401367 3248.661865 2723.518311 3462.176270 3073.512451 2759.639160 3191.362061 2592.857422 3467.946777 2719.958252 3762.690674 2565.681885 3394.401367 3559.911133 3465.059082 3402.727783 3450.693115 3442.130615 2695.295410 2854.277100 3261.391846 3331.894287 2716.407227 2630.553711 4161.536133 3147.909180 2983.179932 3411.094971 3728.974854 2802.381104 2545.281982 3500.030273 3091.780029 3618.727051 3364.216553 3500.030273 2974.650391 2891.963867 3575.202637 3208.585938 2936.863770 3119.592285 3206.114014 3225.996826 3709.033936 3002.551270 3162.261475 3508.883545 2827.130371 3310.688965 3184.036621 3508.883545 3514.810791 3535.714600 3253.741943 3150.292236 3196.264160 2844.522217 3456.425293 2998.224854 3835.517090 3419.503662 3350.673096 3447.834229 2610.750244 3587.531006 2714.635254 2972.525635 3447.834229 3609.311279 3136.048340 2648.972656 2836.766113 3297.572021 3413.893311 2955.636475 3699.143066 3413.893311 3274.221924 2605.845947 3308.057129 3337.238281 3494.152832 2893.974854 2647.287598 2108.174316 2900.025146 3793.560547 3251.199951 3559.911133 3849.709473 3243.597900 3124.276367 2930.659180 2953.538574 3089.484863 44183.527344 2893.974854 3529.716797 3447.834229 3663.323975 3221.003174 2236.182617 3793.560547 3024.372070 3402.727783 3064.459473 3203.645996 2660.828613 2968.285400 3686.037109 3066.717773 3140.781982 3206.114014 3394.401367 3155.069092 3337.238281 3223.498047 3532.713135 2800.495361 3164.666260 3514.810791 2924.480713 3422.315674 3208.585938 2446.523193 3742.388428 3213.541260 3350.673096 3105.623779 3305.429688 2739.655029 3339.916504 3223.498047 2373.950928 3835.517090 2610.750244 3772.924805 2879.955811 3508.883545 2453.735840 3686.037109 2983.179932 3712.342529 2945.177734 3405.512207 3256.287842 2660.828613 3559.911133 3297.572021 3147.909180 2895.988770 3269.077881 3225.996826 3337.238281 3835.517090 3337.238281 3201.181641 3136.048340 3427.953857 3171.902344 3337.238281 3482.456787 2966.169678 3569.070312 2517.565674 2926.537354 4044.252686 3358.786133 3436.445801 3276.800049 3810.930420 3728.974854 3911.218018 3456.425293 3334.564209 2783.636230 3948.326416 3511.844727 3159.860352 3547.771484 2746.888428 3206.114014 3882.029785 3022.175781 2985.319824 3253.741943 3553.830811 2881.950195 3236.031006 3028.774414 2802.381104 3380.614014 3450.693115 2817.559814 3310.688965 3783.214600 3450.693115 3251.199951 2846.467773 3550.798584 3433.610596 3287.153320 3612.444336 3015.605713 3456.425293 3068.979248 3323.910645 3147.909180 3356.077393 3944.583984 3287.153320 3541.732666 3211.061768 2615.673096 3752.512207 3281.968506 3218.511963 3347.977539 1989.261963 2304.283447 3193.811279 3055.459717 3383.362549 3297.572021 3442.130615 3292.354492 2991.758545 3752.512207 3878.411865 2932.724365 2453.735840 2368.546387 3066.717773 3271.647705 3315.964844 3842.600098 3494.152832 3369.664795 3517.781982 2949.352295 4366.774414 3345.286133 3889.285889 3256.287842 3372.395508 3514.810791 3315.964844 3256.287842 3386.115479 3520.758057 3625.031250 3193.811279 3885.654541 3491.221436 3459.298340 3035.401855 4001.476807 2617.318359 6257.948730 3593.727051 3048.744385 2776.208252 3692.578613 3128.974365 2848.416260 2987.463135 3397.172363 2655.734619 3416.696289 3350.673096 3055.459717 3138.413330 3261.391846 3164.666260 2875.975098 3625.031250 3488.295166 3535.714600 2373.950928 2976.778320 2848.416260 3517.781982 3174.321777 3682.775146 3535.714600 3413.893311 3705.730957 2961.947266 3514.810791 2916.283203 3473.736328 3494.152832 2669.362305 3631.357666 3053.218018 3413.893311 4394.441406 2418.091797 3361.499268 3529.716797 3755.898926 3140.781982 2941.014893 2677.951172 2932.724365 2452.290039 3442.130615 3569.070312 3196.264160 3315.964844 3386.115479 3575.202637 3397.172363 3223.498047 3718.977539 3386.115479 3188.916504 2516.043457 2912.201660 2796.731201 2622.265869 3369.664795 2152.889893 3660.102051 2970.404053 2966.169678 3233.516602 3797.021973 3121.932373 2391.687256 3581.356201 3380.614014 2759.639160 3800.489502 3615.583008 3356.077393 3538.721191 3676.268555 3430.779785 3347.977539 3394.401367 2667.651367 3967.145752 3157.462891 2702.296143 3071.244385 3556.868408 3386.115479 3155.069092 3188.916504 2804.269531 3022.175781 3218.511963 3004.719238 3155.069092 3669.784912 2787.364990 3526.725342 2725.302002 3391.634766 3914.897461 3413.893311 3292.354492 3078.059082 3053.218018 3470.839111 3523.739258 3033.189453 3755.898926 3755.898926 2734.254883 3241.071533 2667.651367 2920.376221 2256.798340 3502.976318 3342.599121 3078.059082 27836.361328 3191.362061 3997.633057 3337.238281 3310.688965 3599.944580 3253.741943 2934.792725 3053.218018 3080.337646 3013.422119 3096.380859 3442.130615 3145.529785 3269.077881 5134.529297 3136.048340 3405.512207 2759.639160 2789.233154 3162.261475 3465.059082 3814.423584 3689.304932 2468.289551 3405.512207 3339.916504 3039.836426 2870.024902 3356.077393 3030.980225 2893.974854 3900.221191 2926.537354 4009.187012 2604.215332 3593.727051 3603.061523 3030.980225 3695.857910 3375.130615 3882.029785 3612.444336 2379.380127 2806.160400 3266.511719 2781.775391 2991.758545 3803.963379 3383.362549 2945.177734 3695.857910 3538.721191 2976.778320 3103.307861 3258.837891 3167.074463 3089.484863 3138.413330 3241.071533 3569.070312 2759.639160 2978.909180 3358.786133 3213.541260 3450.693115 3243.597900 3494.152832 2916.283203 3313.324951 3369.664795 3292.354492 2953.538574 3256.287842 3416.696289 3776.348389 3566.011963 3575.202637 2714.635254 3413.893311 2862.129395 3030.980225 3048.744385 3326.567627 2575.208008 3103.307861 3233.516602 2746.888428 3000.386475 3465.059082 3266.511719 3033.189453 3482.456787 3425.132568 3505.927490 2725.302002 3033.189453 3839.055420 2723.518311 2941.014893 2817.559814 2922.427002 3709.033936 3578.276855 3621.876465 3372.395508 2433.646729 3080.337646 2625.574707 2728.875977 3739.026123 3615.583008 3383.362549 2955.636475 3375.130615 3450.693115 2750.519531 3416.696289 3529.716797 3206.114014 3447.834229 3136.048340 3225.996826 2596.092285 3553.830811 2941.014893 3416.696289 3171.902344 3835.517090 3485.373535 3136.048340 3053.218018 3803.963379 3709.033936 3397.172363 3313.324951 2763.304199 3695.857910 3339.916504 3959.596680 3885.654541 3508.883545 3017.792725 2789.233154 3416.696289 3184.036621 3103.307861 2918.328125 3450.693115 2725.302002 2748.702881 3124.276367 2531.347900 3479.545166 3201.181641 3117.255371 2943.094727 3892.924316 3479.545166 2591.242920 3225.996826 2978.909180 3377.870117 3755.898926 2623.919189 3310.688965 3191.362061 3621.876465 3430.779785 3221.003174 2920.376221 3181.602539 3274.221924 3673.023926 3399.947754 3459.298340 3606.183594 3236.031006 3100.995605 2183.387207 3358.786133 3590.626465 3223.498047 3532.713135 3467.946777 3529.716797 3223.498047 3587.531006 3201.181641 2207.711426 3722.304199 2363.166504 3380.614014 2637.221680 4169.875977 3436.445801 3556.868408 3776.348389 3258.837891 3022.175781 3331.894287 3323.910645 3050.979492 3136.048340 3053.218018 3091.780029 3612.444336 3538.721191 3162.261475 3326.567627 3526.725342 3281.968506 2528.272217 3505.927490 2858.197754 3695.857910 3742.388428 3578.276855 3497.089111 3562.958984 3131.328857 3167.074463 5128.202148 2936.863770 3456.425293 3444.980225 3439.285889 3361.499268 3462.176270 4134.660645 3042.058594 3470.839111 3186.474854 2852.320801 3587.531006 2426.551514 3080.337646 3835.517090 3082.619141 3476.638184 3152.678711 3590.626465 3882.029785 3174.321777 4316.946289 3241.071533 3337.238281 3416.696289 3485.373535 3269.077881 3292.354492 3411.094971 3193.811279 2750.519531 2813.749756 3033.189453 2953.538574 3087.192871 3082.619141 3196.264160 2589.630371 3878.411865 2627.232422 3271.647705 3702.434082 3538.721191 4036.407471 3131.328857 3526.725342 3107.943359 3535.714600 3628.191895 3138.413330 3427.953857 3640.888916 3377.870117 2976.778320 3450.693115 3231.006104 3013.422119 3682.775146 3274.221924 2991.758545 2879.955811 2770.663086 3821.428955 3742.388428 3345.286133 2752.338623 3084.904297 3136.048340 3752.512207 3276.800049 3532.713135 3253.741943 2264.165283 2934.792725 3453.556885 3444.980225 3203.645996 2943.094727 2928.596680 3258.837891 2858.197754 2436.496582 3119.592285 2889.955566 3394.401367 3590.626465 3695.857910 3223.498047 3133.686768 2902.047363 2961.947266 3084.904297 3334.564209 3329.228760 3470.839111 3433.610596 3759.291748 3107.943359 2852.320801 3193.811279 3419.503662 3439.285889 3413.893311 3366.938477 2881.950195 3287.153320 2468.289551 3831.985352 3581.356201 3356.077393 2798.612061 3216.024658 3046.512451 2916.283203 2848.416260 3233.516602 4417.766602 3128.974365 2955.636475 3256.287842 3087.192871 3176.745117 3028.774414 3091.780029 3526.725342 3258.837891 3218.511963 3800.489502 3569.070312 3358.786133 2665.942383 3402.727783 2748.702881 5264.435059 2691.808594 3702.434082 3380.614014 3900.221191 3846.151611 3405.512207 3871.196289 3739.026123 3427.953857 3184.036621 2983.179932 3071.244385 3302.806396 3292.354492 3110.266113 3017.792725 3223.498047 3391.634766 3105.623779 2844.522217 2612.389160 3427.953857 3345.286133 3013.422119 3786.656982 3511.844727 3279.382080 3541.732666 3647.270752 3358.786133 2872.005615 3467.946777 3590.626465 4060.035156 2930.659180 3485.373535 2856.236084 3233.516602 2879.955811 3783.214600 3269.077881 3889.285889 3397.172363 3427.953857 3386.115479 3011.241699 3080.337646 2873.989014 3606.183594 3302.806396 3587.531006 3692.578613 2961.947266 2854.277100 3171.902344 3096.380859 3459.298340 3476.638184 3860.423096 3625.031250 3361.499268 3485.373535 2506.949463 3140.781982 3323.910645 2802.381104 3517.781982 3422.315674 3647.270752 3637.706299 3176.745117 2881.950195 2858.197754 3026.571533 3413.893311 3231.006104 3517.781982 3752.512207 3553.830811 2194.902832 3369.664795 3261.391846 3476.638184 3297.572021 3140.781982 3181.602539 3631.357666 3216.024658 3297.572021 2754.160156 2947.263428 3391.634766 3193.811279 2765.140137 3350.673096 3436.445801 3243.597900 3059.952881 3350.673096 3853.274170 3233.516602 2798.612061 3071.244385 3105.623779 2985.319824 3497.089111 4827.768066 2800.495361 3689.304932 4887.300293 3388.873047 3284.558838 3211.061768 3358.786133 2183.387207 3024.372070 3305.429688 3075.784180 2840.638916 3596.833252 3150.292236 2840.638916 3366.938477 3287.153320 3609.311279 2932.724365 2700.542480 3566.011963 3497.089111 3066.717773 3140.781982 2791.104004 3198.720947 3618.727051 2008.463379 3271.647705 3669.784912 3033.189453 3310.688965 3467.946777 2968.285400 3422.315674 3305.429688 3541.732666 4020.807617 3281.968506 3587.531006 3174.321777 3136.048340 3248.661865 3372.395508 3742.388428 3035.401855 2741.459717 3399.947754 2686.595215 3241.071533 3075.784180 3759.291748 3203.645996 2856.236084 3046.512451 3159.860352 3201.181641 2808.053955 3544.749512 3017.792725 3682.775146 3103.307861 2852.320801 3053.218018 3590.626465 2522.143066 3114.922119 3885.654541 3413.893311 3284.558838 3241.071533 3514.810791 2862.129395 3473.736328 3933.398926 3089.484863 3590.626465 3581.356201 3686.037109 2667.651367 2802.381104 2787.364990 3256.287842 3269.077881 3462.176270 3444.980225 3112.592285 2943.094727 3318.609131 3062.204590 2900.025146 3702.434082 3447.834229 3138.413330 3462.176270 2848.416260 3800.489502 2201.870850 3119.592285 3078.059082 3725.636475 3759.291748 3800.489502 2622.265869 3339.916504 3377.870117 2635.551514 3044.283936 3331.894287 2505.440186 3394.401367 2858.197754 2983.179932 3071.244385 3004.719238 3033.189453 3013.422119 2895.988770 3138.413330 3117.255371 3867.598633 2811.848633 3198.720947 3618.727051 3644.077148 3482.456787 3790.105713 3042.058594 3433.610596 3188.916504 2972.525635 3456.425293 3511.844727 3216.024658 3248.661865 2201.870850 3128.974365 3494.152832 2891.963867 3042.058594 3372.395508 3361.499268 2148.444092 3253.741943 3326.567627 2908.131348 3248.661865 3482.456787 3114.922119 3584.440918 3482.456787 3133.686768 3745.757080 3562.958984 3347.977539 3080.337646 2846.467773 3256.287842 4161.536133 2534.431152 2276.551514 2522.143066 3145.529785 3436.445801 3735.669678 3361.499268 3159.860352 3612.444336 3456.425293 2465.364990 3450.693115 3037.617432 2996.066162 3679.519043 3334.564209 3308.057129 3386.115479 3422.315674 2864.099121 3089.484863 3473.736328 3425.132568 3566.011963 3578.276855 3590.626465 3413.893311 2872.005615 2961.947266 3302.806396 2576.802490 3578.276855 3019.982666 3297.572021 3241.071533 3342.599121 2832.904053 3105.623779 2936.863770 3413.893311 3366.938477 3444.980225 3408.301514 3625.031250 3547.771484 3103.307861 2686.595215 3073.512451 3103.307861 2964.056885 3615.583008 2953.538574 2638.894043 2442.216064 3152.678711 3494.152832 2947.263428 3347.977539 3647.270752 3191.362061 2848.416260 3345.286133 3208.585938 3138.413330 3326.567627 2926.537354 3028.774414 2602.586670 3433.610596 2918.328125 3394.401367 3532.713135 3453.556885 2983.179932 2834.833740 2974.650391 3110.266113 3508.883545 3292.354492 3042.058594 3476.638184 3271.647705 3817.922852 2781.775391 3762.690674 3885.654541 3491.221436 3057.704590 3653.675049 2825.211182 3026.571533 3615.583008 4528.330566 3313.324951 3251.199951 3538.721191 3308.057129 45203.378906 3364.216553 3502.976318 3705.730957 3350.673096 2732.459717 2970.404053 3715.657227 3238.549316 3208.585938 3150.292236 3386.115479 3631.357666 3369.664795 3164.666260 3308.057129 3413.893311 3050.979492 2465.364990 2902.047363 3532.713135 3482.456787 2858.197754 2677.951172 3436.445801 3334.564209 3686.037109 2365.853271 2399.963135 3508.883545 4128.507812 4067.972656 3473.736328 3399.947754 3572.133789 3256.287842 3221.003174 3347.977539 2955.636475 3386.115479 2657.430420 4222.766113 3575.202637 2883.947266 3453.556885 3491.221436 3628.191895 3500.030273 3078.059082 2893.974854 3394.401367 3436.445801 2898.005615 3310.688965 3578.276855 3269.077881 3258.837891 2941.014893 3807.443848 3353.373047 3150.292236 3541.732666 3171.902344 2439.352783 3465.059082 2623.919189 3159.860352 3375.130615 3732.319336 3024.372070 3450.693115 3251.199951 3241.071533 3084.904297 3026.571533 3467.946777 3150.292236 3485.373535 3517.781982 2802.381104 3416.696289 3517.781982 3167.074463 3541.732666 3439.285889 3831.985352 3779.778320 2976.778320 3375.130615 3297.572021 2785.499268 3248.661865 3147.909180 2792.977295 3147.909180 3225.996826 3110.266113 2991.758545 3138.413330 3276.800049 3364.216553 2318.404541 2862.129395 3453.556885 3520.758057 2728.875977 2906.100586 3903.879883 2887.949951 3491.221436 2439.352783 3508.883545 2918.328125 3679.519043 2893.974854 3470.839111 3131.328857 3208.585938 3473.736328 3874.800781 2572.024658 3305.429688 3485.373535 2741.459717 3609.311279 3112.592285 3456.425293 3251.199951 3959.596680 3587.531006 3742.388428 6106.436035 3874.800781 3702.434082 2361.825195 3450.693115 3491.221436 3686.037109 3399.947754 3258.837891 3366.938477 3447.834229 4132.607910 3644.077148 2632.217529 3745.757080 3179.171875 3550.798584 3523.739258 2592.857422 10908.351562 3353.373047 4257.325684 3057.704590 3162.261475 3228.499512 3337.238281 3476.638184 3433.610596 3491.221436 3184.036621 3828.459961 3366.938477 3337.238281 3839.055420 3453.556885 3201.181641 3289.751709 3366.938477 3206.114014 3169.486572 4067.972656 3188.916504 2671.075684 2881.950195 3793.560547 3256.287842 3082.619141 3686.037109 3110.266113 3656.885742 2945.177734 3790.105713 3656.885742 2260.475830 3566.011963 3028.774414 3261.391846 2711.098389 10663.769531 3013.422119 2906.100586 2615.673096 3157.462891 2902.047363 3279.382080 3596.833252 3465.059082 3225.996826 2936.863770 3256.287842 3228.499512 3084.904297 3159.860352 3201.181641 2660.828613 3425.132568 2926.537354 3470.839111 3241.071533 3213.541260 3171.902344 2160.714355 3709.033936 3033.189453 2823.294434 3315.964844 3366.938477 3491.221436 3735.669678 3569.070312 3066.717773 3416.696289 3305.429688 3006.890137 2565.681885 3676.268555 3184.036621 3918.583740 3526.725342 3752.512207 3078.059082 3350.673096 2314.536133 3562.958984 3621.876465 4060.035156 3157.462891 3839.055420 3772.924805 2584.804932 3860.423096 3547.771484 2632.217529 3171.902344 3059.952881 3066.717773 2989.609131 3821.428955 3508.883545 2808.053955 2972.525635 45481.269531 3948.326416 3105.623779 3439.285889 3416.696289 2817.559814 2850.367188 3350.673096 3380.614014 3289.751709 2941.014893 3399.947754 2761.470459 3281.968506 3089.484863 2665.942383 3055.459717 2934.792725 3159.860352 3269.077881 3140.781982 4396.762695 3287.153320 3347.977539 3266.511719 3578.276855 3241.071533 3772.924805 2440.783691 3494.152832 3321.257812 3529.716797 3138.413330 3824.941162 2226.611084 3334.564209 3578.276855 3634.529297 2964.056885 2825.211182 3453.556885 3718.977539 3133.686768 2630.553711 3728.974854 3300.187256 3179.171875 3544.749512 3425.132568 3660.102051 3436.445801 3397.172363 3609.311279 3276.800049 2873.989014 3394.401367 2860.162109 3225.996826 3473.736328 3444.980225 3201.181641 3096.380859 3181.602539 3339.916504 3186.474854 3000.386475 2953.538574 2862.129395 3755.898926 3828.459961 3772.924805 2716.407227 3100.995605 3342.599121 3193.811279 3482.456787 2791.104004 3292.354492 4024.696289 3358.786133 2966.169678 3383.362549 2741.459717 3377.870117 2848.416260 3184.036621 3523.739258 3550.798584 3068.979248 3131.328857 3084.904297 2618.965332 3128.974365 2920.376221 3305.429688 3263.949707 2872.005615 2785.499268 2787.364990 3184.036621 3042.058594 3502.976318 3059.952881 3439.285889 3755.898926 2462.447266 2705.810059 3369.664795 2779.917236 3388.873047 3618.727051 3243.597900 2750.519531 3824.941162 2891.963867 3087.192871 3082.619141 3136.048340 3068.979248 3606.183594 3033.189453 2930.659180 3228.499512 3529.716797 3482.456787 3402.727783 2821.380371 2778.061523 3562.958984 3248.661865 3399.947754 3383.362549 2881.950195 3308.057129 2930.659180 3126.623535 3246.127930 3874.800781 3529.716797 2955.636475 2848.416260 3485.373535 2765.140137 3112.592285 3181.602539 3907.545654 3339.916504 3544.749512 3692.578613 3105.623779 2934.792725 3119.592285 3033.189453 3470.839111 2700.542480 3164.666260 3728.974854 3402.727783 3062.204590 3375.130615 3155.069092 3206.114014 3062.204590 3529.716797 3470.839111 3380.614014 3803.963379 3117.255371 3488.295166 3702.434082 3211.061768 2761.470459 3059.952881 3171.902344 3419.503662 3718.977539 2875.975098 3221.003174 3157.462891 2983.179932 2526.737061 3459.298340 3287.153320 3287.153320 3206.114014 3231.006104 2655.734619 3026.571533 2420.905273 2559.370117 2770.663086 2808.053955 3535.714600 3033.189453 3842.600098 3925.977295 3529.716797 3482.456787 3679.519043 3094.078857 3553.830811 3271.647705 3089.484863 3682.775146 3807.443848 3609.311279 3026.571533 3078.059082 3188.916504 3263.949707 2827.130371 3425.132568 2597.712891 3593.727051 3167.074463 3119.592285 3963.367676 3107.943359 3302.806396 3174.321777 2725.302002 3856.845215 3526.725342 3465.059082 3618.727051 2964.056885 3225.996826 3488.295166 3388.873047 3114.922119 2908.131348 2798.612061 3502.976318 3150.292236 2916.283203 2970.404053 3447.834229 3238.549316 3566.011963 2989.609131 3143.154053 3347.977539 3188.916504 3593.727051 2677.951172 3263.949707 2941.014893 3300.187256 3167.074463 3269.077881 2674.509033 3413.893311 3800.489502 3193.811279 3494.152832 2989.609131 3599.944580 3669.784912 3793.560547 3372.395508 2347.172119 2852.320801 2966.169678 3103.307861 3581.356201 2683.130859 3050.979492 2987.463135 2904.072510 3022.175781 3263.949707 3405.512207 3391.634766 2906.100586 3305.429688 3164.666260 3459.298340 2922.427002 3541.732666 3228.499512 3131.328857 2981.042969 3514.810791 3080.337646 2926.537354 3634.529297 3302.806396 3590.626465 3155.069092 2505.440186 3739.026123 4389.805664 3725.636475 4124.416016 3216.024658 3427.953857 3494.152832 3078.059082 2918.328125 3000.386475 4056.077881 3179.171875 2707.570557 3497.089111 3514.810791 3179.171875 3179.171875 3453.556885 4149.088867 3453.556885 3442.130615 2947.263428 3462.176270 3456.425293 2478.580078 3566.011963 3323.910645 2850.367188 3779.778320 3221.003174 3550.798584 3459.298340 2772.509033 3243.597900 3223.498047 3383.362549 2728.875977 3800.489502 2406.903320 2877.964111 3206.114014 3578.276855 4290.243164 3231.006104 2998.224854 3216.024658 3050.979492 3587.531006 3334.564209 2991.758545 3728.974854 2996.066162 3640.888916 2399.963135 2957.737061 3553.830811 2484.499023 3128.974365 3556.868408 3925.977295 3470.839111 3526.725342 3292.354492 2834.833740 3422.315674 3131.328857 3547.771484 3105.623779 3179.171875 2996.066162 3167.074463 2987.463135 2707.570557 3419.503662 3152.678711 3181.602539 2725.302002 3294.961182 3246.127930 3256.287842 3422.315674 3628.191895 3473.736328 3439.285889 3644.077148 3035.401855 3369.664795 3171.902344 3013.422119 2955.636475 2883.947266 3618.727051 2846.467773 2974.650391 3321.257812 3427.953857 3937.120117 3476.638184 3133.686768 3342.599121 4124.416016 3033.189453 3269.077881 2964.056885 3256.287842 3615.583008 2854.277100 3066.717773 3735.669678 3864.007324 3050.979492 3439.285889 3184.036621 3640.888916 3411.094971 3618.727051 3529.716797 3223.498047 3517.781982 2535.975586 3337.238281 3266.511719 3828.459961 2881.950195 3213.541260 3305.429688 3006.890137 2908.131348 2821.380371 2711.098389 3164.666260 3470.839111 2741.459717 2955.636475 3405.512207 3261.391846 3287.153320 3284.558838 3050.979492 3364.216553 3772.924805 2887.949951 3450.693115 3529.716797 3526.725342 2405.512207 3138.413330 3550.798584 3223.498047 2938.937744 3075.784180 2893.974854 3853.274170 3488.295166 3186.474854 2609.113525 3147.909180 2787.364990 2978.909180 2779.917236 3494.152832 2813.749756 2783.636230 2376.662598 2949.352295 2628.892090 3358.786133 3243.597900 3274.221924 2918.328125 3508.883545 3397.172363 3725.636475 3860.423096 4024.696289 3364.216553 3100.995605 3728.974854 2695.295410 2875.975098 3300.187256 3078.059082 3453.556885 3004.719238 3356.077393 3494.152832 3508.883545 2669.362305 3087.192871 2800.495361 3364.216553 3300.187256 2834.833740 2852.320801 3562.958984 3114.922119 3556.868408 2850.367188 3094.078857 3017.792725 3989.967285 3276.800049 3128.974365 3188.916504 3447.834229 2599.335449 3500.030273 3191.362061 3699.143066 3094.078857 3258.837891 3136.048340 3221.003174 4174.058105 3722.304199 3305.429688 3110.266113 3094.078857 3640.888916 2522.143066 3138.413330 3497.089111 3339.916504 2589.630371 2968.285400 2743.267090 3329.228760 2589.630371 3590.626465 3948.326416 3745.757080 2425.137451 3119.592285 3562.958984 2885.947266 3289.751709 3800.489502 3258.837891 3002.551270 2596.092285 3128.974365 3342.599121 3679.519043 3162.261475 3450.693115 2609.113525 3508.883545 3211.061768 2910.165039 3073.512451 3372.395508 3342.599121 3606.183594 3637.706299 3718.977539 3386.115479 2930.659180 3599.944580 2768.819580 3271.647705 3523.739258 2728.875977 3033.189453 2974.650391 3042.058594 3281.968506 3050.979492 4005.328125 2474.159424 3068.979248 3618.727051 3732.319336 4192.983398 4009.187012 3541.732666 3078.059082 3590.626465 3732.319336 3715.657227 3369.664795 2838.701172 3266.511719 3959.596680 3213.541260 3967.145752 2671.075684 3176.745117 3462.176270 3028.774414 2755.984131 3566.011963 3790.105713 3024.372070 2991.758545 3776.348389 3246.127930 3062.204590 2727.087891 3508.883545 3467.946777 2712.865723 3329.228760 2815.653564 2885.947266 3391.634766 2875.975098 3068.979248 3071.244385 3350.673096 3078.059082 2718.181641 3596.833252 3391.634766 3022.175781 3091.780029 2928.596680 3082.619141 2966.169678 3022.175781 3117.255371 3266.511719 3347.977539 3776.348389 3439.285889 3329.228760 3253.741943 2943.094727 3413.893311 4332.676758 3603.061523 2993.910889 3082.619141 3494.152832 3124.276367 2591.242920 3631.357666 2985.319824 3033.189453 3064.459473 3476.638184 3073.512451 2970.404053 3358.786133 2528.272217 22194.859375 3084.904297 3650.470215 2991.758545 4085.946045 3221.003174 3425.132568 3261.391846 3238.549316 3131.328857 2862.129395 3073.512451 3138.413330 3394.401367 3366.938477 3071.244385 3297.572021 3526.725342 3679.519043 3511.844727 3413.893311 3126.623535 2589.630371 3375.130615 3164.666260 3281.968506 3514.810791 2877.964111 3119.592285 3666.551514 3300.187256 3126.623535 2800.495361 3181.602539 3650.470215 3059.952881 3584.440918 3188.916504 3411.094971 3529.716797 3228.499512 3030.980225 3514.810791 3783.214600 2949.352295 2926.537354 3695.857910 2647.287598 3544.749512 3323.910645 2695.295410 3238.549316 3631.357666 3397.172363 3300.187256 3087.192871 2531.347900 3121.932373 3281.968506 3112.592285 3479.545166 3625.031250 3416.696289 3447.834229 2955.636475 3138.413330 3479.545166 3369.664795 3529.716797 2575.208008 3450.693115 2759.639160 3059.952881 4118.293945 2806.160400 3310.688965 3084.904297 3634.529297 3419.503662 3133.686768 3824.941162 4100.035645 3337.238281 3164.666260 2996.066162 3208.585938 2827.130371 3078.059082 3013.422119 3529.716797 3315.964844 3174.321777 3444.980225 3345.286133 3117.255371 2684.861816 3849.709473 2936.863770 3488.295166 3676.268555 2860.162109 3098.686523 3140.781982 2809.949951 3380.614014 3408.301514 2961.947266 3453.556885 3634.529297 3289.751709 3026.571533 3903.879883 3375.130615 3358.786133 3742.388428 3375.130615 3028.774414 3138.413330 3055.459717 3416.696289 3465.059082 3337.238281 3749.131592 3308.057129 3188.916504 3103.307861 3155.069092 3073.512451 4169.875977 2974.650391 3337.238281 3179.171875 3479.545166 3476.638184 3073.512451 3026.571533 3176.745117 3124.276367 3590.626465 3241.071533 3087.192871 2523.672607 3073.512451 4028.592529 3860.423096 4016.926758 3310.688965 3621.876465 3500.030273 3044.283936 3722.304199 3150.292236 3044.283936 3028.774414 3556.868408 3419.503662 3488.295166 3419.503662 3345.286133 3450.693115 2754.160156 2757.810547 4161.536133 3066.717773 3430.779785 3397.172363 3405.512207 3121.932373 3337.238281 1810.938232 3900.221191 3541.732666 3465.059082 3599.944580 3221.003174 2781.775391 3009.064453 3287.153320 3889.285889 3377.870117 3369.664795 3735.669678 3615.583008 3261.391846 3581.356201 3686.037109 3174.321777 3470.839111 2439.352783 3281.968506 3315.964844 3800.489502 3532.713135 3388.873047 3143.154053 3511.844727 3266.511719 3321.257812 3302.806396 2968.285400 3523.739258 2840.638916 3253.741943 3323.910645 3213.541260 3353.373047 3375.130615 2968.285400 3198.720947 3502.976318 3532.713135 3062.204590 3416.696289 3500.030273 3618.727051 3699.143066 3321.257812 3208.585938 3625.031250 3225.996826 3289.751709 3042.058594 2301.734619 3413.893311 2978.909180 2516.043457 3538.721191 3482.456787 3284.558838 3117.255371 3231.006104 3631.357666 3167.074463 3140.781982 3064.459473 3114.922119 2688.330811 2776.208252 3162.261475 3491.221436 2936.863770 3107.943359 3171.902344 2930.659180 2889.955566 3411.094971 3091.780029 3294.961182 3867.598633 3628.191895 3284.558838 3225.996826 3380.614014 2423.725098 3208.585938 3015.605713 2752.338623 3211.061768 3096.380859 2660.828613 3339.916504 3803.963379 3126.623535 3459.298340 2910.165039 3388.873047 3482.456787 3208.585938 3353.373047 3944.583984 
/classifier/classifier.4/Gemm_param_0 2525.203857 2437.923828 4132.607910 2660.828613 7649.882324 2848.416260 2778.061523 2323.582275 2336.628906 4503.826660 3408.301514 2652.349365 2456.632812 2030.017578 31319.179688 28874.490234 2597.712891 2728.875977 2746.888428 2718.181641 3000.386475 2768.819580 20938.546875 2938.937744 2432.224365 2516.043457 3940.848389 2957.737061 5106.179199 4575.630371 2355.142090 2864.099121 4220.624512 2447.962402 2798.612061 4178.249023 3892.924316 3114.922119 2575.208008 2447.962402 2879.955811 4116.257324 2607.478760 2752.338623 3098.686523 2617.318359 2584.804932 2099.665039 2924.480713 3315.964844 2567.264648 2652.349365 2783.636230 2411.086914 2485.983154 2481.536133 2579.997559 2543.726074 2614.030029 3218.511963 2427.967285 2519.089600 4248.632812 2781.775391 2912.201660 2022.126343 2796.731201 2269.103516 2615.673096 2609.113525 2526.737061 3000.386475 3497.089111 2355.142090 2991.758545 2667.651367 3308.057129 2993.910889 24354.271484 2466.826416 2864.099121 8706.142578 2789.233154 3062.204590 3169.486572 2752.338623 3157.462891 2783.636230 3028.774414 2575.208008 3138.413330 1961.138550 2422.314209 2640.568604 2757.810547 2632.217529 2446.523193 2592.857422 2743.267090 2968.285400 2791.104004 2397.198242 3728.974854 2757.810547 2825.211182 2435.070801 2858.197754 2156.236328 2887.949951 2361.825195 2683.130859 2622.265869 2309.398438 2862.129395 2187.979004 10872.726562 2846.467773 5362.804199 8939.926758 2508.460449 3179.171875 2951.444092 3287.153320 2121.068359 2947.263428 4968.998047 2665.942383 2902.047363 2597.712891 2739.655029 2957.737061 2480.057129 2714.635254 2437.923828 2993.910889 2189.129883 2827.130371 2702.296143 2597.712891 3037.617432 2671.075684 2985.319824 2623.919189 2215.940430 2702.296143 2912.201660 29436.152344 2966.169678 2928.596680 4496.527344 2289.073730 2918.328125 2147.335449 2936.863770 7815.091309 2215.940430 5894.526855 2872.005615 2870.024902 2526.737061 2827.130371 2953.538574 8224.379883 2505.440186 2823.294434 3064.459473 2709.333252 2650.659912 2331.392822 2700.542480 2794.853027 2472.689209 2272.821289 3107.943359 3015.605713 2770.663086 2638.894043 2573.615234 3793.560547 2559.370117 3462.176270 9826.531250 3004.719238 3191.362061 9902.524414 2654.040771 2562.522217 2564.101074 5612.320801 2299.191162 10677.449219 2372.597412 14849.370117 2562.522217 2763.304199 7635.845703 4167.787598 2446.523193 2789.233154 5211.691895 2936.863770 8527.737305 4244.299805 2579.997559 2281.543945 2519.089600 2091.224121 2949.352295 2712.865723 2455.183594 2528.272217 2704.052002 2416.687500 7484.776855 2906.100586 4753.325195 2291.594727 3856.845215 2597.712891 3096.380859 2655.734619 3302.806396 2401.347900 2435.070801 2581.597900 2648.972656 2798.612061 2447.962402 31526.787109 2926.537354 2352.479248 2269.103516 2430.803711 2368.546387 3233.516602 2659.128418 2435.070801 2914.240967 2591.242920 2664.235596 3241.071533 2393.062744 8784.245117 2545.281982 17899.080078 2532.888672 3982.331055 2217.120850 2652.349365 3030.980225 2852.320801 2562.522217 3138.413330 3201.181641 2351.150391 2429.384766 5953.556641 2737.852539 2423.725098 2918.328125 2657.430420 2759.639160 2560.945312 2772.509033 2945.177734 15718.738281 2783.636230 4518.497070 2627.232422 2684.861816 2303.008301 2800.495361 2776.208252 2734.254883 1974.163208 5153.604980 2783.636230 2725.302002 2435.070801 2961.947266 2398.579834 2815.653564 2466.826416 2741.459717 2650.659912 2693.550781 2873.989014 2628.892090 2323.582275 2332.699463 2792.977295 7250.062500 3078.059082 3211.061768 2415.284912 4371.361328 2589.630371 2628.892090 2491.937744 4753.325195 2776.208252 2516.043457 2296.653320 2064.253906 2617.318359 4654.961914 3048.744385 3408.301514 4723.650391 2856.236084 2584.804932 4355.349121 1216.823364 2638.894043 2539.070068 3152.678711 2770.663086 2732.459717 2625.574707 2529.809082 3044.283936 2418.091797 3231.006104 2848.416260 2065.278320 2382.104248 5188.947754 3206.114014 11285.521484 2922.427002 2460.991211 2575.208008 2317.113525 3715.657227 2695.295410 2291.594727 2745.076416 3310.688965 2864.099121 4108.130371 2840.638916 2281.543945 2445.085693 2471.220947 2605.845947 2386.201904 3062.204590 2516.043457 2765.140137 2514.523193 2983.179932 2770.663086 2778.061523 2743.267090 2746.888428 2966.169678 2103.911133 2862.129395 2798.612061 2480.057129 2313.249512 2898.005615 3236.031006 2306.838135 3006.890137 2821.380371 4639.393555 2391.687256 5228.060059 2622.265869 3064.459473 1985.465698 2856.236084 2336.628906 2605.845947 6964.913574 2351.150391 3091.780029 2275.306641 2286.558350 2135.216064 2615.673096 2513.004883 2778.061523 2296.653320 6407.291992 2781.775391 2332.699463 2401.347900 2581.597900 2714.635254 2924.480713 2532.888672 2494.925781 2707.570557 2597.712891 2506.949463 2630.553711 2304.283447 2262.934082 2419.497559 2271.580811 4203.571777 2549.960693 2949.352295 3402.727783 2384.834473 2662.531006 2667.651367 2838.701172 5185.714844 2409.690674 2583.200439 2548.399170 3625.031250 3150.292236 2856.236084 3019.982666 3246.127930 2838.701172 2671.075684 2695.295410 3084.904297 2998.224854 2472.689209 2660.828613 2864.099121 2281.543945 3790.105713 2497.920654 2010.403809 2367.198975 3094.078857 2276.551514 2721.737061 3048.744385 9041.903320 2754.160156 2981.042969 3114.922119 3126.623535 2676.229004 2304.283447 1932.003662 2355.142090 4933.652832 2778.061523 2885.947266 3019.982666 15370.400391 3033.189453 2522.143066 2453.735840 13370.396484 3117.255371 2572.024658 2534.431152 2610.750244 2883.947266 2427.967285 4568.096680 2584.804932 2630.553711 2456.632812 2436.496582 2732.459717 2604.215332 4310.239258 3593.727051 2440.783691 2526.737061 2650.659912 2579.997559 2768.819580 2887.949951 2900.025146 3907.545654 12376.315430 5198.670898 2280.293701 2315.824219 2798.612061 2755.984131 2779.917236 2525.203857 2300.462158 3783.214600 5140.872070 2761.470459 2439.352783 3397.172363 2628.892090 2539.070068 2823.294434 2326.179932 2522.143066 2525.203857 3098.686523 2628.892090 2660.828613 22004.156250 2834.833740 2452.290039 2934.792725 2565.681885 3660.102051 2891.963867 2543.726074 2725.302002 2586.411377 3231.006104 2567.264648 2562.522217 2669.362305 2336.628906 2827.130371 2683.130859 4777.882812 2594.473877 2732.459717 3184.036621 2562.522217 2231.386475 2548.399170 2732.459717 3028.774414 2743.267090 2565.681885 2778.061523 2116.752686 4218.485352 4216.348633 2596.092285 6124.409180 2568.849365 31919.738281 3572.133789 2301.734619 2785.499268 2314.536133 2705.810059 2269.103516 2830.976807 2559.370117 1914.229980 3427.953857 3152.678711 2881.950195 2926.537354 3281.968506 2462.447266 2296.653320 9441.942383 2655.734619 2578.398926 3369.664795 2596.092285 2873.989014 2591.242920 2635.551514 2390.313721 2850.367188 9121.174805 6794.344727 3705.730957 2445.085693 3411.094971 2725.302002 3566.011963 2821.380371 2311.964355 2716.407227 2743.267090 2600.959961 2114.601562 2402.734375 2924.480713 2576.802490 2723.518311 2455.183594 2453.735840 2638.894043 2800.495361 2966.169678 30627.679688 3722.304199 2655.734619 3874.800781 3150.292236 31797.791016 2480.057129 2916.283203 3517.781982 2811.848633 2794.853027 2458.083984 2645.604492 2253.132568 3233.516602 2662.531006 2423.725098 2711.098389 3184.036621 2531.347900 2719.958252 3656.885742 3427.953857 5019.946777 2672.791260 3136.048340 2615.673096 2207.711426 2505.440186 2332.699463 2904.072510 2714.635254 1750.015137 3138.413330 2759.639160 2531.347900 2614.030029 2643.923828 1673.988770 2712.865723 3615.583008 2477.104736 2341.888672 2542.172363 2297.921631 2910.165039 2475.631104 3331.894287 8844.922852 2665.942383 2589.630371 6799.895508 2519.089600 2242.206787 2630.553711 2709.333252 2287.815186 2190.282227 2883.947266 2311.964355 3517.781982 2968.285400 3867.598633 2516.043457 2789.233154 2664.235596 3140.781982 2546.839600 4472.365234 2860.162109 2318.404541 3048.744385 3334.564209 2526.737061 2404.122559 2705.810059 2718.181641 3508.883545 2978.909180 3562.958984 3121.932373 2609.113525 2794.853027 8104.256836 2605.845947 2650.659912 3075.784180 2514.523193 2218.302734 3138.413330 2697.042236 2394.439697 7594.043945 2791.104004 2532.888672 4850.274902 2650.659912 2217.120850 2761.470459 2602.586670 2737.852539 2289.073730 2279.044922 2549.960693 2702.296143 2579.997559 14142.858398 2705.810059 10753.323242 3048.744385 2340.571533 2584.804932 3026.571533 2823.294434 2570.436035 2642.245117 2382.104248 3002.551270 2922.427002 2879.955811 2102.847900 5654.260742 2840.638916 2539.070068 4530.795898 2974.650391 2700.542480 1668.619141 1953.772827 5056.544434 2862.129395 2654.040771 2766.978760 2445.085693 2817.559814 2659.128418 2614.030029 2918.328125 3147.909180 2179.956055 2114.601562 2866.071533 2562.522217 3514.810791 2808.053955 3071.244385 3500.030273 3305.429688 2554.656738 3660.102051 1951.939941 5556.123047 3422.315674 2376.662598 2557.797119 2772.509033 2955.636475 2848.416260 8728.968750 2614.030029 2540.620361 2864.099121 3644.077148 2637.221680 2776.208252 2695.295410 2475.631104 3372.395508 31231.039062 2916.283203 2883.947266 2821.380371 2750.519531 2768.819580 3133.686768 3096.380859 2378.020508 3004.719238 2898.005615 2996.066162 2599.335449 2677.951172 2785.499268 2752.338623 2695.295410 2821.380371 2898.005615 5763.900391 3114.922119 2267.866943 3110.266113 2924.480713 2914.240967 2743.267090 2922.427002 2683.130859 2746.888428 2586.411377 2743.267090 2256.798340 4237.816895 29203.761719 1948.284668 2924.480713 2496.422363 2858.197754 2872.005615 2819.468750 2266.631836 2718.181641 2254.353271 2665.942383 2904.072510 5016.920898 2778.061523 3068.979248 1968.560059 2390.313721 2502.427002 3628.191895 3084.904297 2791.104004 3321.257812 3162.261475 2902.047363 3171.902344 6600.374512 3615.583008 3000.386475 3318.609131 2652.349365 3022.175781 2511.488281 2993.910889 6456.999023 2280.293701 2748.702881 2425.137451 2748.702881 3050.979492 2727.087891 1991.165527 5787.949707 2759.639160 2511.488281 2528.272217 2052.039551 6013.780273 2750.519531 4292.456055 2551.524170 3243.597900 2588.020020 2792.977295 2382.104248 2599.335449 2910.165039 2341.888672 2449.403076 3110.266113 2774.357422 3044.283936 5848.961426 2918.328125 3416.696289 2697.042236 2353.810059 3922.277100 2525.203857 2759.639160 2688.330811 2802.381104 2970.404053 2287.815186 2889.955566 2118.908447 2419.497559 2924.480713 4992.844727 16538.642578 2665.942383 6018.128906 4474.770020 3248.661865 2535.975586 2914.240967 2203.036621 2693.550781 2581.597900 2610.750244 2078.689209 2638.894043 3171.902344 2759.639160 2627.232422 3179.171875 2647.287598 2998.224854 3188.916504 3925.977295 2259.248535 2727.087891 2667.651367 2791.104004 3797.021973 2643.923828 2684.861816 34788.179688 2094.381592 2796.731201 2823.294434 2191.435547 2776.208252 3004.719238 2743.267090 2802.381104 8281.664062 2625.574707 2415.284912 3191.362061 3308.057129 2459.536621 2625.574707 2244.625732 6079.672852 15718.738281 3476.638184 5084.344727 2823.294434 2422.314209 2765.140137 2725.302002 2854.277100 2522.143066 5281.137207 3053.218018 2219.485840 3117.255371 2679.675537 2488.957031 2981.042969 2390.313721 4853.103027 2445.085693 2633.883545 2560.945312 2531.347900 3140.781982 2642.245117 2879.955811 2254.353271 3114.922119 30265.716797 2846.467773 2870.024902 2711.098389 2898.005615 2600.959961 2809.949951 7552.696777 2856.236084 5257.784180 2462.447266 2436.496582 2900.025146 2526.737061 3009.064453 2632.217529 2955.636475 2311.964355 3028.774414 21084.412109 4157.378418 3772.924805 3013.422119 2804.269531 2910.165039 31767.451172 2813.749756 2681.402100 2705.810059 2920.376221 3318.609131 2840.638916 3112.592285 3315.964844 2304.283447 2681.402100 2832.904053 2655.734619 2353.810059 2690.068604 2481.536133 2748.702881 3263.949707 2250.695557 3233.516602 2811.848633 2953.538574 2846.467773 3053.218018 2514.523193 2910.165039 2781.775391 2912.201660 2796.731201 2719.958252 2860.162109 2970.404053 3004.719238 3126.623535 3026.571533 2714.635254 2242.206787 2296.653320 2662.531006 2499.421143 3313.324951 2660.828613 2829.052246 2553.089600 2556.226074 2836.766113 3482.456787 3246.127930 3035.401855 2714.635254 2314.536133 3246.127930 2852.320801 2700.542480 15342.068359 2856.236084 2337.941650 6248.552734 2934.792725 2811.848633 2732.459717 2336.628906 11045.881836 2852.320801 2728.875977 2347.172119 2539.070068 4948.318848 7471.339355 2821.380371 2391.687256 1957.448730 9126.175781 2850.367188 2804.269531 2848.416260 11209.524414 2693.550781 2647.287598 2493.430908 2506.949463 3073.512451 3136.048340 2862.129395 2487.469238 2789.233154 2737.852539 2581.597900 1881.345337 2910.165039 11559.822266 2432.224365 2443.650146 2918.328125 2772.509033 2748.702881 2763.304199 2463.905273 2817.559814 2819.468750 2895.988770 4641.980957 2511.488281 2516.043457 2736.052490 2433.646729 2721.737061 3225.996826 2840.638916 2490.446533 3228.499512 2271.580811 2497.920654 3035.401855 2411.086914 2802.381104 2854.277100 2551.524170 3590.626465 2711.098389 2798.612061 2796.731201 2941.014893 2908.131348 3271.647705 5195.425781 2185.680664 2998.224854 2848.416260 2633.883545 2295.386719 2341.888672 3133.686768 3211.061768 2382.104248 2551.524170 2652.349365 2191.435547 2879.955811 2985.319824 2575.208008 2440.783691 3039.836426 2055.079590 3465.059082 2602.586670 2494.925781 2394.439697 2850.367188 7484.776855 2341.888672 2212.406250 2746.888428 2813.749756 2572.024658 2864.099121 2926.537354 2402.734375 2364.509033 3315.964844 16177.010742 2741.459717 2864.099121 2819.468750 5987.821777 2879.955811 3053.218018 3800.489502 2647.287598 2893.974854 2205.371582 23848.343750 2765.140137 2754.160156 2785.499268 3453.556885 2848.416260 2711.098389 2662.531006 12303.136719 2505.440186 2976.778320 2429.384766 2900.025146 2906.100586 4410.743164 2669.362305 2947.263428 5681.277832 7464.638672 2615.673096 1919.527710 3494.152832 2770.663086 2978.909180 10009.708008 2776.208252 5304.698730 3138.413330 2318.404541 2355.142090 2267.866943 3679.519043 2721.737061 2736.052490 3593.727051 1907.211792 3138.413330 2926.537354 4350.795410 2728.875977 14640.408203 2534.431152 2477.104736 3087.192871 2718.181641 2349.822754 2523.672607 2813.749756 2941.014893 2974.650391 2068.357910 8208.158203 2721.737061 2477.104736 3039.836426 4305.779785 2609.113525 3334.564209 2588.020020 3705.730957 4001.476807 2614.030029 4064.000000 3216.024658 2787.364990 3442.130615 2821.380371 2772.509033 3228.499512 5447.036621 2200.706543 2655.734619 4209.950195 2540.620361 2380.741455 2456.632812 5026.009766 2583.200439 3842.600098 2612.389160 2480.057129 3157.462891 9814.943359 2445.085693 3266.511719 2757.810547 2669.362305 3556.868408 3702.434082 2155.119629 2447.962402 2953.538574 2700.542480 2393.062744 10436.454102 2844.522217 2463.905273 3952.075928 15160.422852 2902.047363 2548.399170 2825.211182 2301.734619 3009.064453 2170.858643 2553.089600 3709.033936 3279.382080 2638.894043 12150.469727 2904.072510 2776.208252 2630.553711 2904.072510 2343.207275 3062.204590 2719.958252 2914.240967 3596.833252 4263.868652 2586.411377 2885.947266 2411.086914 3006.890137 2974.650391 2557.797119 2348.496582 2379.380127 2787.364990 2870.024902 3709.033936 2806.160400 4858.769531 2725.302002 1576.339355 8868.483398 2450.845703 2898.005615 3053.218018 2789.233154 2895.988770 2478.580078 2778.061523 2679.675537 3345.286133 2806.160400 2654.040771 2712.865723 2308.117676 3339.916504 2827.130371 3982.331055 2966.169678 2732.459717 2630.553711 3955.832764 2440.783691 2117.830078 1592.018311 2779.917236 3157.462891 2391.687256 2721.737061 1673.988770 2520.615479 4149.088867 1996.898315 2430.803711 2557.797119 2852.320801 2974.650391 2459.536621 2776.208252 2513.004883 2723.518311 2230.190674 2736.052490 2576.802490 2652.349365 2836.766113 2898.005615 2610.750244 2534.431152 3828.459961 2578.398926 2730.666748 2640.568604 3087.192871 2737.852539 2423.725098 2432.224365 3399.947754 2576.802490 2497.920654 2581.597900 1932.003662 2836.766113 2446.523193 2745.076416 2284.048340 2351.150391 2953.538574 2118.908447 2618.965332 4686.414551 9605.391602 4462.772949 2500.923096 2125.401367 2373.950928 2508.460449 2748.702881 2576.802490 2627.232422 2373.950928 2920.376221 2361.825195 2517.565674 2450.845703 3082.619141 2846.467773 2879.955811 2924.480713 3087.192871 3037.617432 2573.615234 2557.797119 2852.320801 2681.402100 2669.362305 2446.523193 2620.614502 11543.789062 2446.523193 2409.690674 3500.030273 2918.328125 5380.137207 2779.917236 2842.579346 2875.975098 2721.737061 3037.617432 3673.023926 2768.819580 3644.077148 4884.432129 3053.218018 2732.459717 2683.130859 2583.200439 3535.714600 2151.776611 5224.778320 2657.430420 2433.646729 2430.803711 2785.499268 2610.750244 2908.131348 2737.852539 2707.570557 3208.585938 2723.518311 2523.672607 2425.137451 2725.302002 3006.890137 2297.921631 2862.129395 9949.876953 2244.625732 2449.403076 2589.630371 31027.294922 4396.762695 6744.791016 2517.565674 2348.496582 2914.240967 2186.829102 2102.847900 3679.519043 2166.338379 6156.118164 2832.904053 2690.068604 2576.802490 2914.240967 2490.446533 2688.330811 2746.888428 3462.176270 2711.098389 2983.179932 2627.232422 2759.639160 2941.014893 3411.094971 2471.220947 2757.810547 2885.947266 2080.768066 2918.328125 2614.030029 17312.681641 2589.630371 2638.894043 3024.372070 4479.586426 2774.357422 2838.701172 2804.269531 2542.172363 2615.673096 2439.352783 5450.604004 2474.159424 4138.772949 2493.430908 3121.932373 24372.099609 2158.473145 2806.160400 2584.804932 2866.071533 2488.957031 3253.741943 3002.551270 3216.024658 2615.673096 2674.509033 2763.304199 2852.320801 2592.857422 3184.036621 2384.834473 3124.276367 2955.636475 2785.499268 2399.963135 4231.353516 2632.217529 2612.389160 3959.596680 2759.639160 3131.328857 1928.422607 2885.947266 2159.593262 2225.420410 2628.892090 5422.196777 2543.726074 2823.294434 2783.636230 2466.826416 7478.052246 2285.302490 4443.711914 2817.559814 2528.272217 2391.687256 2204.203369 2622.265869 2721.737061 2615.673096 7919.193359 3297.572021 2872.005615 2659.128418 3556.868408 3353.373047 2804.269531 2425.137451 33425.992188 3037.617432 3803.963379 2813.749756 2819.468750 3882.029785 2858.197754 2610.750244 2943.094727 3553.830811 2856.236084 2433.646729 2505.440186 2343.207275 2368.546387 2798.612061 2796.731201 2309.398438 2628.892090 2012.348145 3959.596680 3157.462891 9814.943359 3138.413330 2700.542480 2525.203857 2119.987793 3033.189453 3000.386475 6188.157715 2478.580078 2435.070801 2700.542480 2480.057129 2519.089600 5425.731445 2737.852539 3294.961182 2455.183594 2949.352295 2667.651367 2516.043457 2697.042236 2148.444092 2792.977295 2456.632812 2413.884033 3776.348389 4266.054199 5387.101562 2416.687500 2804.269531 3394.401367 7926.735352 2529.809082 2677.951172 3289.751709 4332.676758 2281.543945 3831.985352 3523.739258 2469.754395 2872.005615 11224.641602 2369.895264 3779.778320 2529.809082 2836.766113 2924.480713 2397.198242 2737.852539 16637.824219 5205.173340 2269.103516 2320.990479 2648.972656 2531.347900 2493.430908 32042.625000 1854.516968 2883.947266 2589.630371 2707.570557 2752.338623 2076.614746 2487.469238 2650.659912 2500.923096 3126.623535 3609.311279 2707.570557 2137.409424 3157.462891 3369.664795 16295.784180 3439.285889 2602.586670 2196.061279 5001.846191 3342.599121 2695.295410 2559.370117 2926.537354 2838.701172 3022.175781 2570.436035 2452.290039 2604.215332 2341.888672 2860.162109 2322.285645 2087.029053 3124.276367 2817.559814 3039.836426 2432.224365 10495.676758 2665.942383 2671.075684 2627.232422 3059.952881 2383.468506 4079.937256 2497.920654 2523.672607 2836.766113 2711.098389 2633.883545 2416.687500 2868.046875 2526.737061 2014.296265 2429.384766 7444.608398 2211.230713 4441.340332 3797.021973 2485.983154 6744.791016 2918.328125 2620.614502 5724.258789 2662.531006 2648.972656 2131.934326 3089.484863 2490.446533 2523.672607 2628.892090 3096.380859 2723.518311 2565.681885 2170.858643 12478.369141 21354.898438 2609.113525 3682.775146 2306.838135 2725.302002 2259.248535 2645.604492 2371.245605 2526.737061 3193.811279 2698.791260 2763.304199 2660.828613 2565.681885 2190.282227 7269.058594 6070.803711 32104.423828 2681.402100 2408.296387 2511.488281 2728.875977 2910.165039 2953.538574 2339.255859 2938.937744 2548.399170 2452.290039 2794.853027 2340.571533 3145.529785 3082.619141 2716.407227 2127.574707 2750.519531 2597.712891 2437.923828 2469.754395 2173.125732 3164.666260 2754.160156 3297.572021 2509.973389 3082.619141 2667.651367 2446.523193 3098.686523 2898.005615 2286.558350 2596.092285 2506.949463 3087.192871 2425.137451 2864.099121 2348.496582 2528.272217 2806.160400 2474.159424 2991.758545 2765.140137 2379.380127 2511.488281 2447.962402 2787.364990 3302.806396 2875.975098 2559.370117 2881.950195 1455.082520 1742.686768 2378.020508 2792.977295 2399.963135 3050.979492 2763.304199 2993.910889 2620.614502 3013.422119 2743.267090 3140.781982 2808.053955 2594.473877 2264.165283 3321.257812 11448.517578 3329.228760 2662.531006 2194.902832 4780.627441 3059.952881 4067.972656 2581.597900 5071.951172 3082.619141 2436.496582 2543.726074 3279.382080 2642.245117 2378.020508 2850.367188 2697.042236 2453.735840 2511.488281 3248.661865 3089.484863 2854.277100 2602.586670 2866.071533 2150.664551 2836.766113 2516.043457 2360.485596 25317.330078 2891.963867 3292.354492 2750.519531 2862.129395 21097.773438 2455.183594 2472.689209 2741.459717 3019.982666 2832.904053 2519.089600 2778.061523 9926.144531 4161.536133 2341.888672 4128.507812 3532.713135 2455.183594 7614.887695 2559.370117 2560.945312 2830.976807 2671.075684 3488.295166 2573.615234 2437.923828 1246.715454 2352.479248 3339.916504 2938.937744 3071.244385 2284.048340 2695.295410 2565.681885 19333.500000 3494.152832 2516.043457 2238.588379 2802.381104 2779.917236 16098.785156 2365.853271 4469.963379 4224.909668 3253.741943 2808.053955 2667.651367 3091.780029 2870.024902 2237.385010 3096.380859 2781.775391 2719.958252 2198.381348 2559.370117 2776.208252 2745.076416 2993.910889 15718.738281 4009.187012 2714.635254 2528.272217 1881.345337 2371.245605 2707.570557 2712.865723 2860.162109 2768.819580 2586.411377 9622.048828 2943.094727 3044.283936 2189.129883 2991.758545 23445.273438 2588.020020 2413.884033 3491.221436 2383.468506 2551.524170 3019.982666 2789.233154 2860.162109 3266.511719 2267.866943 3263.949707 27446.238281 2850.367188 3087.192871 2916.283203 2623.919189 2808.053955 2549.960693 9273.618164 11648.806641 3218.511963 2375.305908 2018.203735 2548.399170 2415.284912 2386.201904 2806.160400 2420.905273 3541.732666 2813.749756 2755.984131 2811.848633 2970.404053 2528.272217 8041.615234 2697.042236 2313.249512 2597.712891 2548.399170 2378.020508 2953.538574 2620.614502 2707.570557 2976.778320 2485.983154 2499.421143 3009.064453 2700.542480 2823.294434 2781.775391 2562.522217 4844.628418 2918.328125 2589.630371 3050.979492 2472.689209 2365.853271 2827.130371 2745.076416 2924.480713 2522.143066 2503.932617 2823.294434 2783.636230 15441.692383 2951.444092 1901.981689 3057.704590 2743.267090 2390.313721 4093.985352 2681.402100 3413.893311 4339.453613 3035.401855 2734.254883 3755.898926 2394.439697 2648.972656 2324.880371 2690.068604 2802.381104 2452.290039 13096.887695 2638.894043 6701.346191 4100.035645 2553.089600 2310.680664 2725.302002 5281.137207 2957.737061 2565.681885 3559.911133 2327.480957 2672.791260 21816.703125 2750.519531 2665.942383 3004.719238 3009.064453 1910.714478 2732.459717 2870.024902 2761.470459 2883.947266 2554.656738 2741.459717 19676.292969 2248.263672 2943.094727 2728.875977 4710.284180 2712.865723 2318.404541 2930.659180 2488.957031 2565.681885 2806.160400 2755.984131 2834.833740 1924.854736 2640.568604 2957.737061 2842.579346 3044.283936 2817.559814 2586.411377 2483.016602 2757.810547 2868.046875 2752.338623 4513.596680 6833.392578 3033.189453 3656.885742 2597.712891 2774.357422 2836.766113 3009.064453 2247.049561 2796.731201 2983.179932 2146.228027 2586.411377 2452.290039 3147.909180 2364.509033 2684.861816 2763.304199 2287.815186 2466.826416 2371.245605 2477.104736 2669.362305 14692.095703 2290.333496 2697.042236 2808.053955 2945.177734 2197.220703 3584.440918 2987.463135 7837.167480 2936.863770 2460.991211 2514.523193 2774.357422 6982.442871 2118.908447 5787.949707 2778.061523 3364.216553 3356.077393 1951.939941 2514.523193 2674.509033 2792.977295 2244.625732 2806.160400 2804.269531 2380.741455 2496.422363 2567.264648 3955.832764 2628.892090 2519.089600 2391.687256 2800.495361 2280.293701 2408.296387 2887.949951 3900.221191 7964.662109 2334.007812 4530.795898 2409.690674 2564.101074 2875.975098 2743.267090 2419.497559 2557.797119 3126.623535 2848.416260 2922.427002 2565.681885 2825.211182 2576.802490 2889.955566 2702.296143 2891.963867 4469.963379 2405.512207 2386.201904 2693.550781 2277.797363 2752.338623 2922.427002 2667.651367 4406.073242 2868.046875 2856.236084 3048.744385 3004.719238 28142.255859 2691.808594 1939.205933 2327.480957 4227.055176 2509.973389 2542.172363 2526.737061 2928.596680 5475.705078 2709.333252 2556.226074 2866.071533 2513.004883 3159.860352 2612.389160 2904.072510 2543.726074 2539.070068 17339.732422 3009.064453 2854.277100 2746.888428 6626.649902 2622.265869 2175.397705 3425.132568 2138.507812 5479.310059 5771.894531 2393.062744 2640.568604 2401.347900 2714.635254 2930.659180 2567.264648 2324.880371 2032.992676 2413.884033 1908.961426 2695.295410 2620.614502 2902.047363 3709.033936 2363.166504 2898.005615 2852.320801 1852.865479 2617.318359 2770.663086 7525.381348 7889.167969 2743.267090 2743.267090 2842.579346 2987.463135 2745.076416 3590.626465 3380.614014 2627.232422 2798.612061 2748.702881 2936.863770 2677.951172 2291.594727 3547.771484 2877.964111 6119.905762 2993.910889 2367.198975 2998.224854 2955.636475 2932.724365 2856.236084 2638.894043 2936.863770 2154.004150 2976.778320 2881.950195 2660.828613 2375.305908 22632.417969 33028.062500 2914.240967 2615.673096 2416.687500 2702.296143 2779.917236 2938.937744 7484.776855 3511.844727 2779.917236 2592.857422 20964.916016 2394.439697 2827.130371 19078.675781 3211.061768 3009.064453 2866.071533 5084.344727 2148.444092 2642.245117 3517.781982 2531.347900 2243.415527 2528.272217 2104.975098 2637.221680 3233.516602 2415.284912 2840.638916 2789.233154 3225.996826 2578.398926 2320.990479 3300.187256 2817.559814 2698.791260 5267.767090 2721.737061 2543.726074 2327.480957 3456.425293 2860.162109 2732.459717 4296.888184 3266.511719 2648.972656 2918.328125 3279.382080 2791.104004 2227.802979 18352.970703 2529.809082 2443.650146 2813.749756 2752.338623 3933.398926 17899.080078 2985.319824 3656.885742 2711.098389 3145.529785 2632.217529 2774.357422 2664.235596 2981.042969 2834.833740 1968.560059 2380.741455 2442.216064 2490.446533 3114.922119 2755.984131 2586.411377 2493.430908 3208.585938 2985.319824 2355.142090 2548.399170 2794.853027 2303.008301 2662.531006 2983.179932 2902.047363 2732.459717 2802.381104 2877.964111 2671.075684 2274.063477 2635.551514 32543.781250 2253.132568 2625.574707 2745.076416 2165.211182 2462.447266 4930.729980 2974.650391 11472.187500 2817.559814 2244.625732 2405.512207 2549.960693 2413.884033 2934.792725 2877.964111 2943.094727 2612.389160 2770.663086 2808.053955 3009.064453 2928.596680 2643.923828 2620.614502 2415.284912 4040.326172 3055.459717 2594.473877 4858.769531 2522.143066 2752.338623 3022.175781 2635.551514 2183.387207 7800.442383 2412.484619 2477.104736 13837.193359 2556.226074 2360.485596 14011.905273 2463.905273 6722.998535 2155.119629 2591.242920 4220.624512 2447.962402 2655.734619 2586.411377 3502.976318 2951.444092 3179.171875 2602.586670 2918.328125 32385.494141 2938.937744 2337.941650 5681.277832 2840.638916 4893.046387 2723.518311 2676.229004 2783.636230 2987.463135 2881.950195 14929.277344 31526.787109 2607.478760 2972.525635 3666.551514 2659.128418 1565.664429 5214.957520 2459.536621 2402.734375 3925.977295 2854.277100 2889.955566 2159.593262 2187.979004 12639.441406 2560.945312 2640.568604 2265.397949 2970.404053 2794.853027 2175.397705 2594.473877 2813.749756 3505.927490 4415.422852 8428.427734 2256.798340 2926.537354 2671.075684 6018.128906 2938.937744 2306.838135 2303.008301 2800.495361 2672.791260 1941.014893 2597.712891 2674.509033 2949.352295 2565.681885 2635.551514 3842.600098 6982.442871 2440.783691 4071.953125 2599.335449 2242.206787 2575.208008 2609.113525 2364.509033 1979.798340 23232.580078 3119.592285 3033.189453 3258.837891 22632.417969 2953.538574 4108.130371 8567.238281 2297.921631 2452.290039 3885.654541 3231.006104 2727.087891 3223.498047 3066.717773 2785.499268 3769.507324 2943.094727 2398.579834 2904.072510 3075.784180 2854.277100 2535.975586 2356.475586 2647.287598 2647.287598 2459.536621 2292.857422 2234.981689 2516.043457 4457.992676 2402.734375 2231.386475 10663.769531 18787.972656 2522.143066 2401.347900 2138.507812 3181.602539 2916.283203 12422.495117 3015.605713 2693.550781 2794.853027 2910.165039 3337.238281 2916.283203 2866.071533 2589.630371 2446.523193 2821.380371 2579.997559 7017.767090 2404.122559 2968.285400 2318.404541 4392.122559 2633.883545 2304.283447 2429.384766 2529.809082 3046.512451 2770.663086 2918.328125 2794.853027 2889.955566 2556.226074 7065.426270 2870.024902 2848.416260 2578.398926 2842.579346 2914.240967 2754.160156 3107.943359 2943.094727 2652.349365 6291.059570 6324.522949 3201.181641 3068.979248 2770.663086 2974.650391 4720.971191 2483.016602 2683.130859 1989.261963 3603.061523 2943.094727 6722.998535 2517.565674 3011.241699 3482.456787 2690.068604 2789.233154 2697.042236 2614.030029 2468.289551 2718.181641 2648.972656 2292.857422 2540.620361 2796.731201 2614.030029 2535.975586 3117.255371 2920.376221 2572.024658 2466.826416 2491.937744 2480.057129 3164.666260 2584.804932 2883.947266 2862.129395 2285.302490 2514.523193 3186.474854 2817.559814 3305.429688 2271.580811 3465.059082 2402.734375 31496.960938 4239.975586 2618.965332 3080.337646 2221.855957 2806.160400 2471.220947 2765.140137 2443.650146 2600.959961 2866.071533 2573.615234 2875.975098 3138.413330 2567.264648 2725.302002 2287.815186 2854.277100 2693.550781 3375.130615 2378.020508 4867.293457 13711.815430 3364.216553 3089.484863 3094.078857 4484.413574 3682.775146 3055.459717 3959.596680 2754.160156 8104.256836 3491.221436 5570.998535 2757.810547 3155.069092 2918.328125 2445.085693 3066.717773 2056.094971 2469.754395 2947.263428 3028.774414 2741.459717 2432.224365 2594.473877 2825.211182 9227.352539 2902.047363 2254.353271 2808.053955 2778.061523 3100.995605 2484.499023 2848.416260 2750.519531 4184.551270 2705.810059 2355.142090 2910.165039 2480.057129 2127.574707 2719.958252 3755.898926 2938.937744 2745.076416 2166.338379 4036.407471 3096.380859 2564.101074 3907.545654 3339.916504 2959.840576 2529.809082 2811.848633 2575.208008 2315.824219 2711.098389 2455.183594 2600.959961 2425.137451 2422.314209 2546.839600 2970.404053 3201.181641 2248.263672 2465.364990 3087.192871 3223.498047 2830.976807 2796.731201 3476.638184 2679.675537 19864.132812 2781.775391 3427.953857 2887.949951 7699.418945 2900.025146 2516.043457 2804.269531 2542.172363 3914.897461 2383.468506 2922.427002 2766.978760 2745.076416 3179.171875 2778.061523 2870.024902 12441.064453 2398.579834 2478.580078 2681.402100 2592.857422 2449.403076 4028.592529 2832.904053 9555.765625 3223.498047 2779.917236 2490.446533 2938.937744 2627.232422 2873.989014 2353.810059 2628.892090 3030.980225 2985.319824 2612.389160 2483.016602 2469.754395 7713.690430 2746.888428 2745.076416 2622.265869 2912.201660 2945.177734 2930.659180 2872.005615 2472.689209 1650.093628 2870.024902 16671.150391 2625.574707 2813.749756 2384.834473 2667.651367 2468.289551 6368.073242 3100.995605 2660.828613 2567.264648 2959.840576 2875.975098 2259.248535 2600.959961 2642.245117 2139.607178 2605.845947 2968.285400 2505.440186 3176.745117 2496.422363 2924.480713 3581.356201 2443.650146 2815.653564 2808.053955 2282.795410 3053.218018 2700.542480 2736.052490 2503.932617 3331.894287 2802.381104 2024.093384 3465.059082 2579.997559 3024.372070 2817.559814 2704.052002 3313.324951 2667.651367 3100.995605 2832.904053 2705.810059 3062.204590 2553.089600 2838.701172 2525.203857 2825.211182 13655.573242 2500.923096 2932.724365 5013.898926 3096.380859 2660.828613 2294.121338 2898.005615 2811.848633 2596.092285 4977.914062 2022.126343 3427.953857 2906.100586 2716.407227 2426.551514 7829.794922 3080.337646 3541.732666 2545.281982 2062.208008 2572.024658 2618.965332 2303.008301 3663.323975 2936.863770 2981.042969 4777.882812 3331.894287 4438.971680 2409.690674 2877.964111 2194.902832 2409.690674 2660.828613 2754.160156 3053.218018 3169.486572 2823.294434 2412.484619 2794.853027 3042.058594 2520.615479 2623.919189 3071.244385 19188.638672 2910.165039 2877.964111 2286.558350 2313.249512 2038.969116 2961.947266 2811.848633 2408.296387 2665.942383 2413.884033 2727.087891 2531.347900 3952.075928 2908.131348 2813.749756 2615.673096 3169.486572 2391.687256 2732.459717 4670.635254 4064.000000 4681.143066 3126.623535 3196.264160 2900.025146 3191.362061 3039.836426 2309.398438 4548.126953 2367.198975 4303.553223 2640.568604 2743.267090 3078.059082 2802.381104 3121.932373 2698.791260 2785.499268 2620.614502 3147.909180 8701.590820 2920.376221 2918.328125 3103.307861 8252.921875 11119.668945 2920.376221 2630.553711 2898.005615 2904.072510 19947.447266 2455.183594 2783.636230 2866.071533 5134.529297 3218.511963 2436.496582 3075.784180 2313.249512 2327.480957 3882.029785 4406.073242 2806.160400 3321.257812 2516.043457 2622.265869 2889.955566 6417.171875 2589.630371 2705.810059 2759.639160 2648.972656 2695.295410 2471.220947 2584.804932 3157.462891 2893.974854 2996.066162 2974.650391 11535.789062 2719.958252 2505.440186 3372.395508 2827.130371 2372.597412 3198.720947 2858.197754 2829.052246 2677.951172 2239.793213 2846.467773 6889.960449 2697.042236 2513.004883 2750.519531 3198.720947 3702.434082 2576.802490 2757.810547 3066.717773 3050.979492 2637.221680 2842.579346 2640.568604 2707.570557 2669.362305 4274.818848 3080.337646 2217.120850 3647.270752 6372.949707 2139.607178 32978.988281 3728.974854 2525.203857 2270.341553 2375.305908 4634.227051 2716.407227 2643.923828 2707.570557 3372.395508 2397.198242 2778.061523 4702.300781 2657.430420 2332.699463 5604.762207 2542.172363 2695.295410 3223.498047 2508.460449 3073.512451 3191.362061 1809.363525 2459.536621 2991.758545 2823.294434 2319.696777 2393.062744 2774.357422 6616.114258 2671.075684 2746.888428 2674.509033 10339.219727 2568.849365 2817.559814 3084.904297 3024.372070 2827.130371 2133.027100 2705.810059 2635.551514 2846.467773 2856.236084 2734.254883 3287.153320 2247.049561 2357.810791 4930.729980 1942.827271 3425.132568 7193.666504 2474.159424 3231.006104 31767.451172 2779.917236 2401.347900 2802.381104 2471.220947 2488.957031 2539.070068 3150.292236 2745.076416 2369.895264 2844.522217 2856.236084 2266.631836 2523.672607 7505.024414 2914.240967 2447.962402 2854.277100 5479.310059 2891.963867 2419.497559 3174.321777 2850.367188 2637.221680 4715.621582 3004.719238 2266.631836 2630.553711 2243.415527 2709.333252 2427.967285 2411.086914 7175.062012 2463.905273 5271.103027 2732.459717 2610.750244 2036.973022 2363.166504 2745.076416 3241.071533 2819.468750 3184.036621 2949.352295 7505.024414 2419.497559 4016.926758 2559.370117 4867.293457 4348.522461 3444.980225 2429.384766 2650.659912 2783.636230 2739.655029 2445.085693 2679.675537 2743.267090 3117.255371 2496.422363 28626.214844 2902.047363 2792.977295 2737.852539 3143.154053 2604.215332 2781.775391 2465.364990 2672.791260 2404.122559 2575.208008 1977.916382 2674.509033 4673.257812 2711.098389 2578.398926 3117.255371 3147.909180 3732.319336 3350.673096 2912.201660 2761.470459 2472.689209 5681.277832 2688.330811 3305.429688 2866.071533 2664.235596 3216.024658 2477.104736 2600.959961 3015.605713 2718.181641 2974.650391 2070.416016 3606.183594 2516.043457 2873.989014 2840.638916 3155.069092 2821.380371 2860.162109 2146.228027 4963.072266 3080.337646 2614.030029 2728.875977 3053.218018 2932.724365 2981.042969 4578.147461 3523.739258 3159.860352 2490.446533 5677.402344 2578.398926 5241.229004 2827.130371 2667.651367 2695.295410 2728.875977 2727.087891 6941.678223 4704.958496 2579.997559 3308.057129 5654.260742 4085.946045 2599.335449 2219.485840 2468.289551 2928.596680 4808.245117 2311.964355 2526.737061 3075.784180 2604.215332 2660.828613 4794.396484 2220.670166 3889.285889 2702.296143 2309.398438 2525.203857 3422.315674 2280.293701 2676.229004 2623.919189 2493.430908 2554.656738 2657.430420 3184.036621 2488.957031 3152.678711 2732.459717 2712.865723 2284.048340 10281.744141 2440.783691 2854.277100 3386.115479 2427.967285 2718.181641 2597.712891 2736.052490 2345.848877 2875.975098 2199.543457 2739.655029 2746.888428 2562.522217 2583.200439 2319.696777 2429.384766 2704.052002 2862.129395 2531.347900 2540.620361 5479.310059 3556.868408 3136.048340 2529.809082 2496.422363 2477.104736 2638.894043 2737.852539 2802.381104 2719.958252 5740.049805 2941.014893 2630.553711 3019.982666 3186.474854 11543.789062 2809.949951 2968.285400 3699.143066 2423.725098 4180.347656 2463.905273 2893.974854 2723.518311 3225.996826 2695.295410 2800.495361 2532.888672 2599.335449 2985.319824 2885.947266 3959.596680 3150.292236 2508.460449 2714.635254 2635.551514 3274.221924 2449.403076 2741.459717 2630.553711 20055.595703 2472.689209 3119.592285 2289.073730 2540.620361 2542.172363 2759.639160 2472.689209 2891.963867 2491.937744 2654.040771 3066.717773 2650.659912 13734.442383 3637.706299 2783.636230 2578.398926 2341.888672 30854.761719 3055.459717 2698.791260 2348.496582 2523.672607 14757.219727 2718.181641 2868.046875 2898.005615 2690.068604 2698.791260 2277.797363 2625.574707 2609.113525 3411.094971 2345.848877 2716.407227 2650.659912 2691.808594 2363.166504 9341.270508 32135.414062 4250.802734 2437.923828 2908.131348 2945.177734 2612.389160 2556.226074 