/conv1/conv/Conv_param_0 120.303421 883.178284 494.479095 677.774597 58.369839 137.762711 79.540062 100.812401 335.607727 131.694183 196.893265 417.824890 74.526077 547.570557 115.188660 684.463135 247.710480 309.269928 99.501144 73.266479 619.276184 309.822510 543.849426 127.435570 352.672546 157.252716 63.624268 787.573059 231.608185 112.401039 118.333031 720.986816 136.748688 332.816376 488.443207 319.332092 762.744873 880.934814 310.192017 494.479095 572.898682 500.184601 160.950500 587.455688 223.834763 350.770050 342.231567 59.059036 422.920319 605.226318 678.216431 329.652710 85.501640 116.844566 74.611588 110.679146 352.672546 456.709381 47.566936 141.664490 179.376556 480.768951 99.883255 214.955368 
/conv2/conv/Conv_param_0 71.730835 567.275879 71.730835 71.730835 256.884949 643.802002 71.730835 82.885918 71.730835 256.884949 71.730835 206.918060 257.011871 437.136139 256.884949 256.884949 441.214600 257.011871 71.730835 428.847473 71.730835 383.622406 437.136139 257.011871 82.885918 654.329590 71.730835 696.374817 336.476074 466.958710 437.136139 437.136139 256.884949 206.918060 71.730835 567.275879 71.730835 82.885918 336.476074 206.918060 841.054138 256.884949 257.011871 441.214600 206.918060 256.884949 383.622406 71.730835 257.011871 336.476074 383.622406 336.476074 428.847473 256.884949 487.527649 560.551697 71.730835 256.884949 336.476074 82.885918 206.918060 71.730835 336.476074 82.885918 
/conv3/conv/Conv_param_0 42.810520 42.810520 42.810520 42.810520 42.810520 42.810520 42.810520 42.810520 42.810520 42.810520 42.810520 42.810520 42.810520 42.810520 42.810520 42.810520 62.549755 42.810520 42.810520 42.810520 42.810520 62.549755 42.810520 62.549755 62.549755 42.810520 42.810520 62.549755 42.810520 62.549755 42.810520 42.810520 62.549755 42.810520 62.549755 42.810520 42.810520 42.810520 42.810520 42.810520 42.810520 62.549755 42.810520 42.810520 42.810520 42.810520 42.810520 42.810520 42.810520 42.810520 42.810520 42.810520 42.810520 42.810520 42.810520 42.810520 42.810520 62.549755 42.810520 42.810520 42.810520 62.549755 42.810520 42.810520 42.810520 42.810520 62.549755 42.810520 42.810520 42.810520 42.810520 62.549755 42.810520 42.810520 42.810520 42.810520 62.549755 42.810520 42.810520 42.810520 42.810520 42.810520 42.810520 42.810520 42.810520 42.810520 42.810520 42.810520 42.810520 42.810520 42.810520 42.810520 42.810520 42.810520 62.549755 42.810520 42.810520 42.810520 42.810520 42.810520 42.810520 42.810520 42.810520 42.810520 62.549755 42.810520 42.810520 42.810520 42.810520 42.810520 42.810520 42.810520 42.810520 42.810520 42.810520 42.810520 42.810520 62.549755 42.810520 62.549755 42.810520 42.810520 62.549755 62.549755 42.810520 42.810520 42.810520 42.810520 42.810520 42.810520 42.810520 42.810520 62.549755 42.810520 62.549755 42.810520 42.810520 42.810520 62.549755 62.549755 42.810520 63.839115 42.810520 42.810520 42.810520 42.810520 42.810520 42.810520 42.810520 65.485298 42.810520 42.810520 42.810520 42.810520 42.810520 42.810520 42.810520 42.810520 62.549755 62.549755 42.810520 42.810520 42.810520 42.810520 42.810520 42.810520 42.810520 42.810520 42.810520 42.810520 42.810520 42.810520 42.810520 63.839115 42.810520 42.810520 42.810520 42.810520 42.810520 42.810520 42.810520 42.810520 42.810520 42.810520 42.810520 42.810520 42.810520 42.810520 42.810520 62.549755 42.810520 42.810520 
/inception3a/branch1/conv/Conv_param_0 347.721924 695.443848 347.721924 347.721924 543.281433 433.132385 679.989563 433.132385 347.721924 347.721924 433.132385 433.132385 347.721924 672.952148 433.132385 433.132385 672.952148 347.721924 543.281433 672.952148 347.721924 347.721924 433.132385 347.721924 347.721924 433.132385 347.721924 433.132385 695.443848 433.132385 433.132385 433.132385 543.281433 347.721924 679.989563 433.132385 347.721924 433.132385 543.281433 543.281433 347.721924 433.132385 347.721924 672.952148 695.443848 347.721924 543.281433 347.721924 347.721924 347.721924 433.132385 347.721924 347.721924 543.281433 347.721924 347.721924 347.721924 347.721924 347.721924 433.132385 543.281433 433.132385 679.989563 433.132385 
/inception3a/branch2/branch2.0/conv/Conv_param_0 429.910736 551.927856 406.082733 406.082733 406.082733 406.082733 429.910736 429.910736 406.082733 406.082733 406.082733 406.082733 548.436462 406.082733 406.082733 429.910736 551.927856 429.910736 406.082733 406.082733 429.910736 548.147522 548.147522 429.910736 406.082733 429.910736 429.910736 551.927856 406.082733 548.147522 548.147522 548.147522 605.931274 680.434265 548.147522 429.910736 429.910736 406.082733 406.082733 548.147522 406.082733 429.910736 406.082733 406.082733 548.436462 548.436462 551.927856 406.082733 406.082733 429.910736 605.931274 429.910736 406.082733 406.082733 429.910736 406.082733 429.910736 551.927856 548.436462 548.147522 429.910736 680.434265 429.910736 717.011719 406.082733 406.082733 406.082733 801.528503 551.927856 548.147522 406.082733 429.910736 548.147522 548.436462 429.910736 548.147522 429.910736 548.147522 548.147522 406.082733 429.910736 406.082733 429.910736 429.910736 551.927856 548.147522 548.147522 406.082733 429.910736 429.910736 429.910736 406.082733 429.910736 429.910736 548.147522 548.436462 
/inception3a/branch2/branch2.1/conv/Conv_param_0 229.198563 229.198563 229.198563 229.198563 229.198563 229.198563 229.198563 229.198563 229.198563 229.198563 229.198563 229.198563 229.198563 229.198563 236.895523 229.198563 229.198563 229.198563 229.198563 229.198563 229.198563 229.198563 229.198563 229.198563 229.198563 229.198563 236.895523 229.198563 229.198563 236.895523 236.895523 229.198563 229.198563 229.198563 229.198563 229.198563 229.198563 229.198563 229.198563 229.198563 229.198563 229.198563 229.198563 229.198563 229.198563 229.198563 229.198563 229.198563 229.198563 229.198563 229.198563 229.198563 229.198563 229.198563 229.198563 236.895523 229.198563 229.198563 229.198563 229.198563 229.198563 236.895523 229.198563 229.198563 229.198563 229.198563 229.198563 229.198563 229.198563 229.198563 229.198563 229.198563 229.198563 229.198563 229.198563 229.198563 229.198563 229.198563 229.198563 229.198563 229.198563 229.198563 229.198563 229.198563 229.198563 229.198563 229.198563 229.198563 229.198563 229.198563 229.198563 229.198563 229.198563 229.198563 229.198563 229.198563 229.198563 229.198563 229.198563 229.198563 229.198563 229.198563 229.198563 229.198563 229.198563 229.198563 229.198563 229.198563 229.198563 229.198563 229.198563 229.198563 229.198563 229.198563 229.198563 229.198563 229.198563 229.198563 229.198563 229.198563 229.198563 297.716309 229.198563 229.198563 236.895523 229.198563 229.198563 229.198563 
/inception3a/branch3/branch3.0/conv/Conv_param_0 615.611816 585.142883 585.142883 615.611816 585.142883 585.142883 805.250793 585.142883 615.611816 585.142883 585.142883 585.142883 585.142883 585.142883 585.142883 585.142883 
/inception3a/branch3/branch3.1/conv/Conv_param_0 169.527374 200.911392 200.911392 200.911392 192.387878 169.527374 162.998718 169.527374 200.911392 169.527374 162.998718 192.387878 200.911392 162.998718 200.911392 196.557281 169.527374 200.911392 162.998718 192.387878 162.998718 162.998718 169.527374 162.998718 192.387878 162.998718 162.998718 200.911392 162.998718 162.998718 200.911392 196.557281 
/inception3a/branch4/branch4.1/conv/Conv_param_0 579.601135 549.015320 579.601135 549.015320 549.015320 549.015320 549.015320 579.601135 579.601135 588.452515 579.601135 549.015320 549.015320 549.015320 579.601135 549.015320 588.452515 549.015320 579.601135 549.015320 595.185364 579.601135 549.015320 608.056091 549.015320 549.015320 549.015320 549.015320 549.015320 549.015320 549.015320 549.015320 
/inception3b/branch1/conv/Conv_param_0 1134.551758 1134.551758 1407.826782 1134.551758 1134.551758 1134.551758 1407.826782 1577.534546 1134.551758 1134.551758 1407.826782 1473.631714 1134.551758 1134.551758 1134.551758 1577.534546 1134.551758 1134.551758 1473.631714 1134.551758 1134.551758 1134.551758 1134.551758 1733.973389 1134.551758 1473.631714 1407.826782 1407.826782 1134.551758 1134.551758 1473.631714 1134.551758 1134.551758 1134.551758 1134.551758 1134.551758 1134.551758 1134.551758 1134.551758 1134.551758 1134.551758 1134.551758 1134.551758 1134.551758 1134.551758 1407.826782 1134.551758 1134.551758 1134.551758 1134.551758 1134.551758 1134.551758 1134.551758 1134.551758 1577.534546 1733.973389 1407.826782 1134.551758 1407.826782 1134.551758 1134.551758 1134.551758 1134.551758 1134.551758 1134.551758 1134.551758 1407.826782 1134.551758 1134.551758 1134.551758 1407.826782 1134.551758 1407.826782 1134.551758 1134.551758 1577.534546 1134.551758 1407.826782 1134.551758 1134.551758 1134.551758 1134.551758 1407.826782 1134.551758 1134.551758 1134.551758 1134.551758 1407.826782 1407.826782 1407.826782 1473.631714 1134.551758 1134.551758 1134.551758 1407.826782 1526.609009 1473.631714 1134.551758 1134.551758 1134.551758 1134.551758 1407.826782 1134.551758 1134.551758 1134.551758 1134.551758 1577.534546 1407.826782 1134.551758 1134.551758 1134.551758 1407.826782 1134.551758 1134.551758 1886.462402 1134.551758 1134.551758 1134.551758 1473.631714 1407.826782 1577.534546 1473.631714 1134.551758 1526.609009 1407.826782 1473.631714 1134.551758 1134.551758 
/inception3b/branch2/branch2.0/conv/Conv_param_0 455.111115 462.392883 462.392883 455.111115 462.392883 455.111115 455.111115 455.111115 455.111115 455.111115 462.392883 455.111115 455.111115 455.111115 455.111115 455.111115 455.111115 455.111115 732.664795 455.111115 455.111115 455.111115 455.111115 462.392883 462.392883 462.392883 462.392883 462.392883 455.111115 455.111115 462.392883 455.111115 462.392883 455.111115 455.111115 462.392883 462.392883 525.711975 455.111115 487.984985 462.392883 525.711975 487.984985 455.111115 462.392883 455.111115 462.392883 455.111115 462.392883 487.984985 694.515381 711.130554 455.111115 462.392883 694.515381 455.111115 487.984985 462.392883 462.392883 694.515381 462.392883 455.111115 455.111115 455.111115 462.392883 525.711975 455.111115 462.392883 455.111115 455.111115 462.392883 487.984985 455.111115 462.392883 455.111115 455.111115 455.111115 455.111115 462.392883 462.392883 462.392883 525.711975 462.392883 462.392883 455.111115 455.111115 455.111115 462.392883 525.711975 487.984985 525.711975 487.984985 487.984985 455.111115 455.111115 462.392883 462.392883 462.392883 525.711975 462.392883 455.111115 455.111115 487.984985 455.111115 455.111115 462.392883 487.984985 455.111115 455.111115 455.111115 711.130554 455.111115 525.711975 487.984985 487.984985 462.392883 455.111115 487.984985 487.984985 462.392883 455.111115 455.111115 462.392883 455.111115 455.111115 462.392883 462.392883 455.111115 
/inception3b/branch2/branch2.1/conv/Conv_param_0 104.852188 104.852188 104.852188 140.150116 104.852188 104.852188 104.852188 104.852188 104.852188 104.852188 104.852188 104.852188 104.852188 104.852188 104.852188 104.852188 104.852188 104.852188 104.852188 104.852188 104.852188 104.852188 104.852188 104.852188 104.852188 104.852188 104.852188 104.852188 104.852188 104.852188 104.852188 104.852188 104.852188 121.975021 104.852188 104.852188 104.852188 104.852188 104.852188 104.852188 104.852188 104.852188 104.852188 104.852188 104.852188 104.852188 104.852188 104.852188 104.852188 104.852188 104.852188 104.852188 104.852188 104.852188 104.852188 104.852188 104.852188 104.852188 104.852188 104.852188 104.852188 104.852188 104.852188 104.852188 104.852188 104.852188 104.852188 104.852188 104.852188 104.852188 104.852188 104.852188 104.852188 104.852188 104.852188 104.852188 104.852188 104.852188 104.852188 104.852188 104.852188 104.852188 104.852188 104.852188 104.852188 121.975021 104.852188 104.852188 104.852188 104.852188 104.852188 104.852188 104.852188 104.852188 104.852188 104.852188 104.852188 104.852188 104.852188 104.852188 104.852188 104.852188 104.852188 104.852188 104.852188 104.852188 104.852188 104.852188 104.852188 104.852188 104.852188 104.852188 104.852188 104.852188 104.852188 104.852188 104.852188 104.852188 104.852188 104.852188 104.852188 104.852188 104.852188 104.852188 104.852188 104.852188 104.852188 104.852188 104.852188 104.852188 104.852188 104.852188 104.852188 104.852188 104.852188 104.852188 104.852188 104.852188 104.852188 104.852188 104.852188 104.852188 104.852188 104.852188 121.975021 104.852188 104.852188 104.852188 104.852188 104.852188 104.852188 104.852188 104.852188 104.852188 104.852188 104.852188 104.852188 104.852188 104.852188 104.852188 104.852188 104.852188 104.852188 104.852188 121.975021 104.852188 104.852188 104.852188 104.852188 104.852188 104.852188 104.852188 104.852188 104.852188 104.852188 104.852188 104.852188 104.852188 104.852188 104.852188 104.852188 104.852188 104.852188 104.852188 104.852188 104.852188 104.852188 104.852188 104.852188 104.852188 104.852188 104.852188 
/inception3b/branch3/branch3.0/conv/Conv_param_0 511.748169 511.748169 520.192017 511.748169 520.192017 511.748169 481.659271 511.748169 511.748169 511.748169 511.748169 715.532349 481.659271 511.748169 481.659271 481.659271 481.659271 481.659271 511.748169 481.659271 481.659271 511.748169 481.659271 481.659271 511.748169 481.659271 481.659271 520.192017 481.659271 481.659271 511.748169 481.659271 
/inception3b/branch3/branch3.1/conv/Conv_param_0 120.699623 145.198395 135.875870 135.875870 145.198395 145.198395 120.699623 135.875870 120.699623 120.699623 135.875870 120.699623 120.699623 161.855957 145.198395 145.198395 120.699623 135.875870 135.875870 161.855957 120.699623 120.699623 120.699623 145.198395 120.699623 120.699623 135.875870 120.699623 120.699623 120.699623 120.699623 120.699623 164.157730 135.875870 120.699623 135.875870 145.198395 120.699623 120.699623 120.699623 120.699623 120.699623 120.699623 120.699623 120.699623 120.699623 120.699623 120.699623 145.198395 135.875870 135.875870 120.699623 120.699623 120.699623 161.855957 120.699623 161.855957 120.699623 145.198395 135.875870 120.699623 135.875870 164.157730 135.875870 161.855957 135.875870 120.699623 120.699623 135.875870 120.699623 145.198395 120.699623 161.855957 120.699623 120.699623 135.875870 120.699623 135.875870 135.875870 135.875870 135.875870 135.875870 120.699623 120.699623 161.855957 120.699623 120.699623 135.875870 120.699623 145.198395 120.699623 120.699623 135.875870 120.699623 135.875870 178.337082 
/inception3b/branch4/branch4.1/conv/Conv_param_0 713.080200 1226.145020 713.080200 713.080200 713.080200 1252.720093 713.080200 1226.145020 713.080200 713.080200 1226.145020 1252.720093 1105.615356 713.080200 713.080200 1226.145020 1105.615356 713.080200 713.080200 1252.720093 713.080200 713.080200 1226.145020 713.080200 1226.145020 1105.615356 713.080200 713.080200 713.080200 1252.720093 1628.143921 1226.145020 1105.615356 1105.615356 713.080200 713.080200 1105.615356 1460.188110 1105.615356 713.080200 1105.615356 1460.188110 713.080200 1105.615356 713.080200 1226.145020 1105.615356 1105.615356 713.080200 713.080200 1460.188110 713.080200 713.080200 713.080200 713.080200 1105.615356 713.080200 713.080200 713.080200 1105.615356 1226.145020 1105.615356 713.080200 713.080200 
/inception4a/branch1/conv/Conv_param_0 424.646545 424.646545 424.646545 424.646545 424.646545 424.646545 439.722748 424.646545 424.646545 424.646545 424.646545 424.646545 828.991211 439.722748 424.646545 424.646545 424.646545 424.646545 439.722748 424.646545 424.646545 424.646545 424.646545 424.646545 424.646545 424.646545 439.722748 424.646545 424.646545 424.646545 424.646545 424.646545 424.646545 424.646545 424.646545 424.646545 424.646545 424.646545 424.646545 424.646545 424.646545 828.991211 424.646545 439.722748 439.722748 424.646545 424.646545 424.646545 439.722748 439.722748 424.646545 424.646545 424.646545 424.646545 424.646545 439.722748 424.646545 439.722748 424.646545 424.646545 424.646545 424.646545 424.646545 424.646545 424.646545 424.646545 439.722748 424.646545 424.646545 424.646545 424.646545 424.646545 424.646545 424.646545 424.646545 828.991211 424.646545 439.722748 424.646545 424.646545 424.646545 424.646545 424.646545 424.646545 424.646545 424.646545 439.722748 439.722748 424.646545 424.646545 424.646545 424.646545 828.991211 424.646545 424.646545 424.646545 828.991211 439.722748 828.991211 424.646545 439.722748 424.646545 424.646545 439.722748 424.646545 424.646545 424.646545 424.646545 439.722748 424.646545 424.646545 424.646545 424.646545 439.722748 424.646545 424.646545 424.646545 424.646545 424.646545 439.722748 424.646545 424.646545 424.646545 424.646545 424.646545 424.646545 424.646545 424.646545 424.646545 424.646545 424.646545 424.646545 424.646545 424.646545 439.722748 424.646545 424.646545 439.722748 424.646545 828.991211 439.722748 439.722748 424.646545 424.646545 439.722748 439.722748 424.646545 424.646545 424.646545 424.646545 424.646545 424.646545 424.646545 439.722748 424.646545 439.722748 424.646545 424.646545 424.646545 424.646545 424.646545 424.646545 439.722748 424.646545 424.646545 424.646545 424.646545 424.646545 424.646545 439.722748 439.722748 828.991211 424.646545 424.646545 424.646545 424.646545 439.722748 424.646545 424.646545 424.646545 424.646545 424.646545 424.646545 439.722748 439.722748 424.646545 424.646545 424.646545 424.646545 424.646545 424.646545 439.722748 
/inception4a/branch2/branch2.0/conv/Conv_param_0 839.019348 810.267883 810.267883 810.267883 810.267883 810.267883 810.267883 839.019348 810.267883 810.267883 810.267883 810.267883 839.019348 810.267883 810.267883 810.267883 839.019348 944.087097 810.267883 810.267883 839.019348 810.267883 810.267883 810.267883 839.019348 839.019348 810.267883 810.267883 810.267883 810.267883 810.267883 810.267883 810.267883 810.267883 839.019348 810.267883 810.267883 810.267883 810.267883 810.267883 810.267883 839.019348 810.267883 944.087097 839.019348 810.267883 810.267883 839.019348 944.087097 839.019348 839.019348 944.087097 810.267883 839.019348 810.267883 810.267883 810.267883 948.390137 810.267883 810.267883 810.267883 944.087097 839.019348 810.267883 810.267883 810.267883 810.267883 944.087097 810.267883 810.267883 810.267883 810.267883 810.267883 810.267883 810.267883 810.267883 810.267883 839.019348 839.019348 839.019348 810.267883 810.267883 810.267883 839.019348 810.267883 810.267883 810.267883 944.087097 810.267883 810.267883 810.267883 810.267883 810.267883 839.019348 810.267883 839.019348 
/inception4a/branch2/branch2.1/conv/Conv_param_0 116.813248 185.096207 116.813248 116.813248 116.813248 116.813248 116.813248 116.813248 116.813248 116.813248 116.813248 116.813248 116.813248 116.813248 116.813248 116.813248 116.813248 116.813248 116.813248 185.096207 116.813248 116.813248 116.813248 185.096207 116.813248 116.813248 116.813248 116.813248 116.813248 116.813248 185.096207 116.813248 116.813248 116.813248 116.813248 116.813248 116.813248 116.813248 116.813248 116.813248 116.813248 116.813248 116.813248 116.813248 116.813248 116.813248 116.813248 116.813248 116.813248 116.813248 116.813248 116.813248 116.813248 116.813248 116.813248 116.813248 116.813248 116.813248 116.813248 116.813248 116.813248 116.813248 116.813248 116.813248 116.813248 116.813248 116.813248 116.813248 116.813248 116.813248 116.813248 116.813248 116.813248 116.813248 116.813248 116.813248 185.096207 116.813248 116.813248 116.813248 116.813248 116.813248 116.813248 116.813248 116.813248 116.813248 116.813248 116.813248 116.813248 116.813248 116.813248 116.813248 116.813248 116.813248 116.813248 116.813248 185.096207 116.813248 116.813248 116.813248 116.813248 116.813248 116.813248 116.813248 116.813248 116.813248 185.096207 116.813248 185.096207 185.096207 116.813248 116.813248 116.813248 116.813248 116.813248 116.813248 116.813248 116.813248 116.813248 116.813248 116.813248 116.813248 116.813248 116.813248 185.096207 116.813248 116.813248 116.813248 116.813248 116.813248 116.813248 116.813248 116.813248 185.096207 116.813248 116.813248 116.813248 116.813248 116.813248 116.813248 116.813248 116.813248 116.813248 116.813248 185.096207 116.813248 116.813248 116.813248 116.813248 116.813248 116.813248 116.813248 116.813248 116.813248 116.813248 116.813248 116.813248 185.096207 116.813248 116.813248 116.813248 116.813248 116.813248 116.813248 116.813248 116.813248 116.813248 185.096207 116.813248 185.096207 116.813248 116.813248 116.813248 116.813248 116.813248 116.813248 116.813248 116.813248 116.813248 116.813248 116.813248 116.813248 116.813248 116.813248 116.813248 116.813248 116.813248 116.813248 116.813248 116.813248 116.813248 116.813248 185.096207 116.813248 116.813248 185.096207 116.813248 116.813248 116.813248 116.813248 185.096207 116.813248 116.813248 116.813248 116.813248 116.813248 116.813248 116.813248 
/inception4a/branch3/branch3.0/conv/Conv_param_0 544.703674 792.371643 792.371643 544.703674 972.321472 792.371643 544.703674 792.371643 544.703674 544.703674 544.703674 544.703674 544.703674 544.703674 972.321472 1289.998779 
/inception4a/branch3/branch3.1/conv/Conv_param_0 312.364075 329.380035 329.380035 279.221558 301.426697 301.426697 329.380035 301.426697 312.364075 279.221558 312.364075 279.221558 279.221558 279.221558 301.426697 301.426697 312.364075 279.221558 279.221558 301.426697 397.110229 279.221558 279.221558 301.426697 312.364075 312.364075 279.221558 387.712982 312.364075 301.426697 312.364075 279.221558 387.712982 312.364075 329.380035 301.426697 397.110229 312.364075 279.221558 279.221558 301.426697 279.221558 279.221558 301.426697 279.221558 408.282959 387.712982 301.426697 
/inception4a/branch4/branch4.1/conv/Conv_param_0 1298.856445 854.875916 854.875916 854.875916 854.875916 854.875916 854.875916 854.875916 854.875916 1298.856445 854.875916 854.875916 1427.138550 1298.856445 1298.856445 854.875916 1298.856445 1298.856445 1298.856445 854.875916 854.875916 1298.856445 854.875916 854.875916 854.875916 1427.138550 854.875916 854.875916 854.875916 854.875916 1298.856445 854.875916 1298.856445 854.875916 854.875916 854.875916 854.875916 854.875916 854.875916 854.875916 854.875916 854.875916 854.875916 1298.856445 854.875916 854.875916 1298.856445 854.875916 854.875916 854.875916 854.875916 854.875916 854.875916 1427.138550 854.875916 854.875916 854.875916 854.875916 854.875916 854.875916 854.875916 854.875916 854.875916 854.875916 
/inception4b/branch1/conv/Conv_param_0 555.760681 555.760681 802.765442 555.760681 858.402649 555.760681 555.760681 802.765442 555.760681 555.760681 555.760681 555.760681 555.760681 555.760681 802.765442 555.760681 555.760681 955.357239 555.760681 802.765442 555.760681 555.760681 555.760681 555.760681 555.760681 555.760681 555.760681 555.760681 555.760681 555.760681 555.760681 555.760681 555.760681 555.760681 555.760681 555.760681 555.760681 555.760681 555.760681 555.760681 555.760681 555.760681 555.760681 555.760681 555.760681 555.760681 555.760681 555.760681 555.760681 555.760681 555.760681 555.760681 555.760681 555.760681 555.760681 555.760681 555.760681 555.760681 555.760681 555.760681 555.760681 555.760681 555.760681 555.760681 555.760681 555.760681 555.760681 555.760681 555.760681 555.760681 555.760681 555.760681 555.760681 555.760681 555.760681 555.760681 555.760681 555.760681 555.760681 555.760681 555.760681 555.760681 555.760681 555.760681 555.760681 555.760681 555.760681 555.760681 555.760681 555.760681 555.760681 555.760681 555.760681 555.760681 555.760681 555.760681 555.760681 555.760681 555.760681 555.760681 555.760681 555.760681 555.760681 555.760681 555.760681 555.760681 555.760681 555.760681 555.760681 555.760681 555.760681 555.760681 555.760681 555.760681 555.760681 555.760681 858.402649 555.760681 555.760681 555.760681 555.760681 555.760681 555.760681 555.760681 555.760681 555.760681 555.760681 555.760681 555.760681 555.760681 555.760681 555.760681 555.760681 555.760681 555.760681 555.760681 555.760681 555.760681 802.765442 555.760681 555.760681 555.760681 555.760681 555.760681 555.760681 555.760681 555.760681 555.760681 555.760681 555.760681 555.760681 555.760681 555.760681 555.760681 555.760681 555.760681 555.760681 555.760681 555.760681 555.760681 
/inception4b/branch2/branch2.0/conv/Conv_param_0 262.855988 487.527649 262.855988 262.855988 302.437195 262.855988 262.855988 262.855988 262.855988 262.855988 262.855988 262.855988 411.870148 262.855988 262.855988 302.437195 262.855988 302.437195 302.437195 262.855988 262.855988 302.437195 262.855988 262.855988 262.855988 262.855988 302.437195 411.870148 262.855988 302.437195 262.855988 302.437195 262.855988 262.855988 262.855988 302.437195 262.855988 262.855988 262.855988 262.855988 262.855988 262.855988 262.855988 302.437195 262.855988 302.437195 262.855988 262.855988 262.855988 262.855988 262.855988 262.855988 262.855988 262.855988 262.855988 262.855988 302.437195 302.437195 262.855988 262.855988 262.855988 262.855988 262.855988 262.855988 302.437195 262.855988 302.437195 262.855988 262.855988 262.855988 302.437195 262.855988 302.437195 302.437195 262.855988 302.437195 262.855988 262.855988 262.855988 262.855988 262.855988 302.437195 262.855988 262.855988 262.855988 487.527649 302.437195 262.855988 262.855988 262.855988 262.855988 262.855988 262.855988 262.855988 262.855988 302.437195 302.437195 411.870148 262.855988 262.855988 262.855988 302.437195 262.855988 262.855988 262.855988 262.855988 262.855988 262.855988 411.870148 302.437195 262.855988 262.855988 
/inception4b/branch2/branch2.1/conv/Conv_param_0 89.990074 89.990074 89.990074 89.990074 89.990074 89.990074 89.990074 89.990074 90.697144 89.990074 89.990074 89.990074 89.990074 90.697144 89.990074 89.990074 89.990074 89.990074 89.990074 89.990074 89.990074 89.990074 89.990074 89.990074 89.990074 89.990074 89.990074 89.990074 89.990074 89.990074 89.990074 89.990074 90.697144 89.990074 89.990074 89.990074 89.990074 89.990074 89.990074 89.990074 89.990074 89.990074 89.990074 89.990074 90.697144 89.990074 89.990074 89.990074 89.990074 89.990074 89.990074 89.990074 89.990074 89.990074 89.990074 89.990074 89.990074 89.990074 89.990074 89.990074 89.990074 89.990074 89.990074 89.990074 89.990074 89.990074 89.990074 89.990074 89.990074 89.990074 89.990074 89.990074 89.990074 89.990074 89.990074 89.990074 89.990074 89.990074 89.990074 89.990074 89.990074 89.990074 89.990074 89.990074 89.990074 89.990074 89.990074 89.990074 89.990074 89.990074 89.990074 89.990074 89.990074 89.990074 89.990074 90.697144 89.990074 89.990074 89.990074 90.697144 89.990074 89.990074 89.990074 89.990074 89.990074 89.990074 89.990074 89.990074 89.990074 89.990074 89.990074 89.990074 89.990074 89.990074 89.990074 89.990074 90.697144 89.990074 89.990074 89.990074 89.990074 89.990074 89.990074 89.990074 89.990074 89.990074 90.697144 89.990074 89.990074 89.990074 89.990074 89.990074 89.990074 89.990074 89.990074 89.990074 89.990074 89.990074 89.990074 89.990074 89.990074 89.990074 89.990074 89.990074 89.990074 89.990074 89.990074 89.990074 89.990074 89.990074 89.990074 89.990074 89.990074 89.990074 89.990074 89.990074 89.990074 89.990074 89.990074 89.990074 89.990074 89.990074 89.990074 89.990074 89.990074 89.990074 89.990074 89.990074 89.990074 89.990074 89.990074 89.990074 89.990074 89.990074 89.990074 89.990074 89.990074 89.990074 89.990074 89.990074 89.990074 89.990074 89.990074 89.990074 89.990074 89.990074 89.990074 89.990074 89.990074 89.990074 89.990074 89.990074 89.990074 89.990074 89.990074 89.990074 89.990074 89.990074 89.990074 89.990074 90.697144 89.990074 89.990074 89.990074 89.990074 89.990074 89.990074 89.990074 89.990074 89.990074 89.990074 89.990074 89.990074 89.990074 89.990074 89.990074 89.990074 89.990074 89.990074 89.990074 89.990074 90.697144 90.697144 89.990074 
/inception4b/branch3/branch3.0/conv/Conv_param_0 1186.298706 1186.298706 1186.298706 1186.298706 1186.298706 1212.568726 1186.298706 1186.298706 1186.298706 1186.298706 1212.568726 1186.298706 1186.298706 1186.298706 1186.298706 1212.568726 1212.568726 1186.298706 1212.568726 1186.298706 1186.298706 1186.298706 1212.568726 1186.298706 
/inception4b/branch3/branch3.1/conv/Conv_param_0 313.134399 313.134399 291.563721 291.563721 291.563721 291.563721 323.094147 291.563721 251.188919 291.563721 323.094147 291.563721 251.188919 313.134399 313.134399 251.188919 251.188919 291.563721 291.563721 313.134399 313.134399 291.563721 251.188919 369.922791 323.094147 291.563721 313.134399 291.563721 251.188919 313.134399 251.188919 251.188919 323.094147 291.563721 251.188919 313.134399 291.563721 291.563721 313.134399 291.563721 291.563721 313.134399 251.188919 313.134399 313.134399 291.563721 366.188904 313.134399 323.094147 291.563721 251.188919 291.563721 251.188919 313.134399 366.188904 291.563721 251.188919 313.134399 313.134399 323.094147 251.188919 251.188919 251.188919 291.563721 
/inception4b/branch4/branch4.1/conv/Conv_param_0 998.449158 998.449158 1272.640991 998.449158 998.449158 998.449158 998.449158 1350.271240 1272.640991 998.449158 998.449158 998.449158 998.449158 1272.640991 998.449158 998.449158 998.449158 998.449158 1272.640991 998.449158 1272.640991 998.449158 998.449158 1272.640991 998.449158 1272.640991 998.449158 998.449158 998.449158 998.449158 998.449158 1272.640991 998.449158 998.449158 1272.640991 1272.640991 998.449158 1272.640991 998.449158 998.449158 1272.640991 998.449158 1272.640991 998.449158 998.449158 1272.640991 998.449158 1272.640991 1272.640991 1272.640991 1272.640991 998.449158 1350.271240 1272.640991 1272.640991 998.449158 998.449158 998.449158 998.449158 998.449158 1272.640991 998.449158 998.449158 998.449158 
/inception4c/branch1/conv/Conv_param_0 766.114868 766.114868 766.114868 965.105774 766.114868 766.114868 942.376831 942.376831 942.376831 766.114868 942.376831 766.114868 766.114868 766.114868 766.114868 766.114868 766.114868 766.114868 942.376831 766.114868 942.376831 942.376831 766.114868 942.376831 766.114868 942.376831 766.114868 965.105774 766.114868 942.376831 766.114868 766.114868 766.114868 766.114868 766.114868 766.114868 766.114868 942.376831 766.114868 942.376831 766.114868 766.114868 766.114868 942.376831 766.114868 766.114868 766.114868 766.114868 766.114868 766.114868 942.376831 766.114868 766.114868 942.376831 766.114868 766.114868 766.114868 766.114868 766.114868 766.114868 766.114868 766.114868 942.376831 766.114868 766.114868 766.114868 766.114868 766.114868 766.114868 766.114868 942.376831 766.114868 766.114868 965.105774 766.114868 766.114868 766.114868 766.114868 942.376831 766.114868 766.114868 766.114868 766.114868 766.114868 766.114868 766.114868 766.114868 766.114868 766.114868 766.114868 766.114868 766.114868 766.114868 766.114868 766.114868 766.114868 766.114868 766.114868 766.114868 766.114868 766.114868 766.114868 766.114868 942.376831 766.114868 766.114868 766.114868 766.114868 766.114868 942.376831 942.376831 766.114868 766.114868 766.114868 965.105774 965.105774 766.114868 766.114868 766.114868 766.114868 766.114868 766.114868 766.114868 942.376831 766.114868 766.114868 766.114868 766.114868 
/inception4c/branch2/branch2.0/conv/Conv_param_0 1404.974976 1541.309570 1404.974976 1404.974976 1404.974976 1404.974976 1404.974976 1404.974976 1404.974976 1404.974976 1404.974976 1404.974976 1404.974976 1404.974976 1404.974976 1404.974976 1404.974976 1404.974976 1404.974976 1541.309570 1404.974976 1404.974976 1633.255859 1404.974976 1541.309570 1404.974976 1404.974976 1404.974976 1404.974976 1404.974976 1541.309570 1404.974976 1404.974976 1404.974976 1404.974976 1404.974976 1541.309570 1404.974976 1404.974976 1404.974976 1404.974976 1404.974976 1404.974976 1404.974976 1404.974976 1541.309570 1738.319092 1404.974976 1541.309570 1404.974976 1404.974976 1404.974976 1404.974976 1541.309570 1633.255859 1404.974976 1404.974976 1404.974976 1404.974976 1404.974976 1404.974976 1404.974976 1404.974976 1404.974976 1404.974976 1404.974976 1404.974976 1404.974976 1404.974976 1404.974976 1404.974976 1404.974976 1541.309570 1404.974976 1404.974976 1404.974976 1404.974976 1404.974976 1404.974976 1404.974976 1633.255859 1404.974976 1404.974976 1404.974976 1404.974976 1404.974976 1404.974976 1404.974976 1404.974976 1404.974976 1633.255859 1404.974976 1541.309570 1932.003662 1541.309570 1404.974976 1404.974976 1404.974976 1404.974976 1541.309570 1404.974976 1404.974976 1404.974976 1404.974976 1404.974976 1404.974976 1404.974976 1541.309570 1404.974976 1541.309570 1541.309570 1404.974976 1404.974976 1404.974976 1404.974976 1404.974976 1404.974976 1404.974976 1404.974976 1541.309570 1404.974976 1404.974976 1404.974976 1541.309570 1404.974976 1404.974976 1404.974976 1404.974976 
/inception4c/branch2/branch2.1/conv/Conv_param_0 235.140747 235.140747 235.140747 235.140747 235.140747 235.140747 235.140747 235.140747 235.140747 235.140747 235.140747 235.140747 235.140747 235.140747 235.140747 235.140747 235.140747 235.140747 235.140747 235.140747 235.140747 262.754272 235.140747 235.140747 235.140747 262.754272 235.140747 235.140747 235.140747 235.140747 235.140747 235.140747 235.140747 235.140747 235.140747 235.140747 235.140747 235.140747 235.140747 235.140747 235.140747 235.140747 235.140747 235.140747 235.140747 235.140747 235.140747 235.140747 235.140747 235.140747 235.140747 235.140747 235.140747 235.140747 235.140747 235.140747 235.140747 235.140747 235.140747 235.140747 235.140747 235.140747 235.140747 235.140747 235.140747 235.140747 235.140747 235.140747 235.140747 235.140747 235.140747 235.140747 235.140747 235.140747 235.140747 235.140747 235.140747 235.140747 235.140747 235.140747 235.140747 235.140747 235.140747 235.140747 235.140747 235.140747 235.140747 235.140747 235.140747 235.140747 235.140747 235.140747 235.140747 235.140747 235.140747 235.140747 235.140747 235.140747 235.140747 235.140747 235.140747 235.140747 235.140747 235.140747 235.140747 235.140747 235.140747 235.140747 235.140747 235.140747 235.140747 235.140747 262.754272 235.140747 235.140747 235.140747 235.140747 235.140747 235.140747 235.140747 235.140747 235.140747 235.140747 235.140747 235.140747 235.140747 235.140747 235.140747 235.140747 235.140747 235.140747 235.140747 235.140747 262.754272 235.140747 235.140747 235.140747 235.140747 235.140747 235.140747 235.140747 235.140747 235.140747 235.140747 235.140747 235.140747 235.140747 235.140747 235.140747 235.140747 262.754272 235.140747 235.140747 235.140747 235.140747 235.140747 235.140747 235.140747 235.140747 235.140747 235.140747 235.140747 235.140747 235.140747 235.140747 235.140747 235.140747 235.140747 235.140747 235.140747 235.140747 235.140747 235.140747 235.140747 235.140747 235.140747 235.140747 235.140747 235.140747 235.140747 235.140747 235.140747 235.140747 235.140747 235.140747 235.140747 235.140747 235.140747 235.140747 235.140747 235.140747 235.140747 235.140747 235.140747 235.140747 235.140747 235.140747 235.140747 235.140747 235.140747 235.140747 235.140747 235.140747 235.140747 235.140747 235.140747 235.140747 235.140747 235.140747 235.140747 235.140747 235.140747 235.140747 235.140747 235.140747 235.140747 235.140747 235.140747 235.140747 235.140747 235.140747 235.140747 235.140747 235.140747 235.140747 235.140747 235.140747 235.140747 235.140747 235.140747 235.140747 235.140747 235.140747 235.140747 235.140747 235.140747 235.140747 235.140747 262.754272 262.754272 235.140747 235.140747 235.140747 235.140747 235.140747 235.140747 235.140747 235.140747 235.140747 235.140747 235.140747 235.140747 235.140747 235.140747 235.140747 235.140747 
/inception4c/branch3/branch3.0/conv/Conv_param_0 959.763855 945.803650 945.803650 963.318542 945.803650 945.803650 959.763855 945.803650 945.803650 945.803650 945.803650 945.803650 959.763855 945.803650 945.803650 945.803650 945.803650 959.763855 945.803650 945.803650 945.803650 945.803650 945.803650 945.803650 
/inception4c/branch3/branch3.1/conv/Conv_param_0 202.513550 202.513550 291.731201 169.188538 302.323822 284.859222 302.323822 169.188538 169.188538 169.188538 302.323822 202.513550 302.323822 169.188538 202.513550 291.731201 169.188538 169.188538 284.859222 169.188538 291.731201 202.513550 169.188538 302.323822 202.513550 169.188538 284.859222 169.188538 169.188538 169.188538 169.188538 284.859222 169.188538 169.188538 302.323822 284.859222 169.188538 202.513550 202.513550 169.188538 169.188538 169.188538 169.188538 169.188538 169.188538 284.859222 284.859222 169.188538 291.731201 284.859222 291.731201 169.188538 169.188538 169.188538 169.188538 169.188538 169.188538 169.188538 202.513550 202.513550 291.731201 169.188538 284.859222 291.731201 
/inception4c/branch4/branch4.1/conv/Conv_param_0 836.994385 836.994385 716.024780 716.024780 716.024780 716.024780 716.024780 716.024780 716.024780 716.024780 716.024780 1013.032104 716.024780 716.024780 716.024780 716.024780 716.024780 716.024780 716.024780 716.024780 716.024780 716.024780 716.024780 716.024780 716.024780 716.024780 772.371216 772.371216 716.024780 716.024780 716.024780 716.024780 716.024780 716.024780 716.024780 836.994385 716.024780 716.024780 716.024780 716.024780 716.024780 716.024780 716.024780 716.024780 716.024780 772.371216 716.024780 716.024780 716.024780 716.024780 716.024780 716.024780 772.371216 716.024780 716.024780 716.024780 772.371216 716.024780 716.024780 716.024780 716.024780 772.371216 716.024780 772.371216 
/inception4d/branch1/conv/Conv_param_0 803.385315 803.385315 803.385315 803.385315 803.385315 889.977783 803.385315 803.385315 803.385315 803.385315 803.385315 803.385315 803.385315 803.385315 803.385315 803.385315 803.385315 803.385315 803.385315 803.385315 803.385315 889.977783 803.385315 803.385315 803.385315 803.385315 889.977783 889.977783 803.385315 803.385315 889.977783 803.385315 803.385315 803.385315 803.385315 889.977783 803.385315 803.385315 803.385315 803.385315 803.385315 889.977783 803.385315 941.523987 803.385315 889.977783 889.977783 803.385315 803.385315 803.385315 803.385315 889.977783 803.385315 803.385315 889.977783 803.385315 803.385315 803.385315 974.142334 803.385315 803.385315 803.385315 889.977783 803.385315 889.977783 889.977783 889.977783 803.385315 803.385315 889.977783 803.385315 803.385315 803.385315 889.977783 803.385315 889.977783 889.977783 803.385315 803.385315 803.385315 803.385315 803.385315 889.977783 889.977783 889.977783 803.385315 803.385315 803.385315 803.385315 803.385315 803.385315 803.385315 803.385315 803.385315 803.385315 803.385315 803.385315 803.385315 803.385315 803.385315 803.385315 803.385315 803.385315 803.385315 803.385315 803.385315 803.385315 941.523987 803.385315 803.385315 803.385315 803.385315 
/inception4d/branch2/branch2.0/conv/Conv_param_0 831.641907 908.632324 831.641907 831.641907 831.641907 908.632324 831.641907 831.641907 831.641907 831.641907 831.641907 831.641907 831.641907 831.641907 831.641907 908.632324 908.632324 908.632324 908.632324 1065.967163 831.641907 908.632324 831.641907 831.641907 831.641907 831.641907 831.641907 831.641907 831.641907 831.641907 831.641907 831.641907 831.641907 831.641907 831.641907 831.641907 831.641907 831.641907 831.641907 1006.174072 831.641907 831.641907 831.641907 831.641907 831.641907 831.641907 831.641907 831.641907 831.641907 831.641907 908.632324 831.641907 831.641907 831.641907 831.641907 831.641907 831.641907 831.641907 831.641907 831.641907 1006.174072 831.641907 831.641907 831.641907 831.641907 831.641907 831.641907 831.641907 831.641907 831.641907 831.641907 831.641907 831.641907 831.641907 831.641907 831.641907 831.641907 831.641907 831.641907 908.632324 908.632324 831.641907 831.641907 908.632324 831.641907 1065.421387 831.641907 831.641907 908.632324 831.641907 908.632324 831.641907 831.641907 831.641907 908.632324 831.641907 831.641907 831.641907 831.641907 831.641907 908.632324 831.641907 831.641907 831.641907 831.641907 831.641907 908.632324 831.641907 831.641907 831.641907 908.632324 831.641907 831.641907 831.641907 908.632324 908.632324 908.632324 831.641907 831.641907 831.641907 831.641907 831.641907 831.641907 831.641907 831.641907 831.641907 831.641907 831.641907 831.641907 831.641907 831.641907 831.641907 831.641907 831.641907 831.641907 831.641907 908.632324 831.641907 908.632324 831.641907 831.641907 831.641907 1006.174072 831.641907 
/inception4d/branch2/branch2.1/conv/Conv_param_0 143.719299 143.719299 143.719299 143.719299 143.719299 143.719299 143.719299 143.719299 143.719299 143.719299 143.719299 143.719299 143.719299 143.719299 143.719299 143.719299 143.719299 143.719299 143.719299 143.719299 143.719299 143.719299 143.719299 143.719299 143.719299 143.719299 143.719299 143.719299 143.719299 143.719299 143.719299 143.719299 143.719299 143.719299 143.719299 143.719299 143.719299 143.719299 143.719299 143.719299 143.719299 143.719299 143.719299 143.719299 143.719299 143.719299 143.719299 143.719299 143.719299 143.719299 143.719299 143.719299 143.719299 143.719299 171.126678 143.719299 143.719299 143.719299 143.719299 143.719299 143.719299 171.126678 143.719299 143.719299 143.719299 143.719299 143.719299 143.719299 143.719299 143.719299 143.719299 143.719299 143.719299 143.719299 143.719299 143.719299 143.719299 143.719299 143.719299 143.719299 143.719299 143.719299 143.719299 143.719299 143.719299 143.719299 143.719299 143.719299 143.719299 143.719299 143.719299 143.719299 143.719299 143.719299 143.719299 143.719299 143.719299 171.126678 143.719299 171.126678 143.719299 143.719299 143.719299 143.719299 143.719299 143.719299 143.719299 143.719299 143.719299 143.719299 143.719299 143.719299 143.719299 143.719299 143.719299 143.719299 143.719299 143.719299 143.719299 143.719299 143.719299 143.719299 143.719299 143.719299 143.719299 143.719299 143.719299 143.719299 143.719299 143.719299 143.719299 143.719299 143.719299 143.719299 143.719299 143.719299 143.719299 143.719299 143.719299 143.719299 143.719299 143.719299 143.719299 143.719299 143.719299 143.719299 143.719299 171.126678 143.719299 143.719299 143.719299 143.719299 143.719299 143.719299 143.719299 143.719299 143.719299 143.719299 143.719299 143.719299 143.719299 143.719299 143.719299 143.719299 143.719299 143.719299 143.719299 143.719299 143.719299 143.719299 143.719299 143.719299 143.719299 143.719299 143.719299 143.719299 143.719299 143.719299 143.719299 143.719299 143.719299 143.719299 143.719299 143.719299 143.719299 143.719299 143.719299 143.719299 171.126678 143.719299 143.719299 143.719299 143.719299 143.719299 143.719299 143.719299 143.719299 143.719299 143.719299 143.719299 143.719299 143.719299 143.719299 143.719299 143.719299 143.719299 143.719299 143.719299 143.719299 143.719299 143.719299 143.719299 143.719299 143.719299 143.719299 143.719299 143.719299 143.719299 143.719299 143.719299 143.719299 143.719299 143.719299 143.719299 143.719299 143.719299 143.719299 143.719299 143.719299 143.719299 143.719299 143.719299 143.719299 143.719299 143.719299 143.719299 143.719299 143.719299 143.719299 143.719299 143.719299 171.126678 143.719299 143.719299 143.719299 143.719299 143.719299 143.719299 143.719299 143.719299 143.719299 143.719299 143.719299 143.719299 143.719299 143.719299 143.719299 143.719299 143.719299 143.719299 143.719299 143.719299 143.719299 143.719299 143.719299 143.719299 143.719299 143.719299 143.719299 143.719299 143.719299 143.719299 143.719299 143.719299 143.719299 143.719299 171.126678 143.719299 143.719299 143.719299 143.719299 143.719299 143.719299 143.719299 143.719299 143.719299 143.719299 143.719299 
/inception4d/branch3/branch3.0/conv/Conv_param_0 443.093689 404.503876 404.503876 443.093689 404.503876 404.503876 443.093689 404.503876 443.093689 404.503876 443.093689 404.503876 404.503876 404.503876 404.503876 443.093689 404.503876 404.503876 404.503876 404.503876 443.093689 404.503876 404.503876 443.093689 404.503876 443.093689 443.093689 404.503876 404.503876 404.503876 404.503876 404.503876 
/inception4d/branch3/branch3.1/conv/Conv_param_0 309.132080 145.865601 145.865601 145.865601 145.865601 145.865601 145.865601 145.865601 145.865601 145.865601 291.062469 204.305710 145.865601 291.062469 204.305710 145.865601 145.865601 145.865601 145.865601 145.865601 145.865601 145.865601 291.062469 293.925934 145.865601 293.925934 293.925934 204.305710 145.865601 145.865601 145.865601 204.305710 291.062469 145.865601 145.865601 204.305710 204.305710 291.062469 309.132080 291.062469 145.865601 204.305710 145.865601 145.865601 204.305710 204.305710 320.444153 145.865601 145.865601 145.865601 291.062469 145.865601 291.062469 204.305710 145.865601 291.062469 334.808167 204.305710 204.305710 145.865601 145.865601 145.865601 145.865601 145.865601 
/inception4d/branch4/branch4.1/conv/Conv_param_0 1705.547485 1705.547485 1705.547485 1705.547485 1705.547485 1705.547485 1705.547485 1705.547485 1705.547485 1705.547485 1722.490112 1705.547485 1705.547485 1722.490112 1705.547485 1705.547485 1705.547485 1705.547485 1705.547485 1705.547485 1722.490112 1722.490112 1722.490112 1705.547485 1705.547485 1705.547485 1722.490112 1705.547485 1705.547485 1722.490112 1705.547485 1705.547485 1705.547485 1705.547485 1705.547485 1705.547485 1722.490112 1705.547485 1705.547485 1705.547485 1705.547485 1705.547485 1722.490112 1705.547485 1722.490112 1705.547485 1722.490112 1705.547485 1722.490112 1826.837524 1705.547485 1705.547485 1705.547485 1705.547485 1705.547485 1705.547485 1705.547485 1722.490112 1705.547485 1705.547485 1705.547485 1705.547485 1705.547485 1705.547485 
/inception4e/branch1/conv/Conv_param_0 628.251221 708.708435 864.106323 628.251221 628.251221 628.251221 628.251221 1001.332031 628.251221 864.106323 628.251221 628.251221 708.708435 628.251221 628.251221 628.251221 628.251221 628.251221 628.251221 628.251221 864.106323 628.251221 708.708435 628.251221 708.708435 628.251221 628.251221 628.251221 708.708435 628.251221 628.251221 628.251221 628.251221 628.251221 628.251221 628.251221 628.251221 628.251221 864.106323 628.251221 708.708435 628.251221 628.251221 628.251221 708.708435 628.251221 628.251221 628.251221 708.708435 708.708435 628.251221 628.251221 628.251221 628.251221 708.708435 628.251221 864.106323 628.251221 628.251221 708.708435 628.251221 628.251221 628.251221 628.251221 708.708435 628.251221 628.251221 628.251221 708.708435 1001.332031 628.251221 628.251221 1001.332031 628.251221 628.251221 628.251221 628.251221 628.251221 708.708435 628.251221 628.251221 628.251221 628.251221 628.251221 628.251221 628.251221 708.708435 708.708435 628.251221 628.251221 628.251221 628.251221 628.251221 628.251221 628.251221 628.251221 628.251221 628.251221 708.708435 628.251221 708.708435 628.251221 628.251221 708.708435 628.251221 628.251221 628.251221 628.251221 628.251221 628.251221 628.251221 628.251221 864.106323 628.251221 708.708435 628.251221 628.251221 708.708435 708.708435 628.251221 628.251221 708.708435 628.251221 628.251221 628.251221 628.251221 628.251221 628.251221 628.251221 628.251221 628.251221 628.251221 628.251221 628.251221 628.251221 628.251221 628.251221 628.251221 628.251221 628.251221 628.251221 628.251221 628.251221 628.251221 628.251221 628.251221 628.251221 628.251221 628.251221 628.251221 628.251221 708.708435 628.251221 864.106323 628.251221 864.106323 628.251221 628.251221 628.251221 628.251221 628.251221 628.251221 708.708435 628.251221 628.251221 628.251221 628.251221 628.251221 628.251221 628.251221 628.251221 628.251221 628.251221 628.251221 628.251221 708.708435 628.251221 628.251221 628.251221 628.251221 628.251221 628.251221 708.708435 628.251221 628.251221 628.251221 864.106323 708.708435 708.708435 628.251221 628.251221 628.251221 628.251221 628.251221 628.251221 628.251221 628.251221 628.251221 628.251221 628.251221 628.251221 708.708435 628.251221 864.106323 708.708435 628.251221 708.708435 628.251221 628.251221 628.251221 628.251221 628.251221 864.106323 708.708435 628.251221 628.251221 628.251221 628.251221 628.251221 628.251221 628.251221 628.251221 628.251221 628.251221 628.251221 708.708435 708.708435 628.251221 628.251221 708.708435 628.251221 628.251221 628.251221 628.251221 628.251221 628.251221 864.106323 628.251221 628.251221 628.251221 628.251221 628.251221 628.251221 628.251221 628.251221 628.251221 628.251221 708.708435 628.251221 864.106323 628.251221 628.251221 628.251221 628.251221 708.708435 628.251221 
/inception4e/branch2/branch2.0/conv/Conv_param_0 439.722748 439.722748 439.722748 439.722748 439.722748 658.054382 658.054382 439.722748 439.722748 439.722748 439.722748 439.722748 439.722748 439.722748 439.722748 439.722748 439.722748 439.722748 439.722748 439.722748 439.722748 439.722748 439.722748 439.722748 439.722748 439.722748 439.722748 439.722748 439.722748 439.722748 658.054382 658.054382 439.722748 439.722748 439.722748 439.722748 439.722748 658.054382 439.722748 439.722748 439.722748 439.722748 439.722748 439.722748 439.722748 439.722748 439.722748 439.722748 439.722748 439.722748 439.722748 439.722748 439.722748 439.722748 677.774597 658.054382 439.722748 439.722748 658.054382 439.722748 439.722748 439.722748 658.054382 439.722748 439.722748 439.722748 439.722748 439.722748 663.087341 439.722748 677.774597 439.722748 439.722748 439.722748 439.722748 439.722748 439.722748 439.722748 439.722748 439.722748 658.054382 658.054382 439.722748 439.722748 439.722748 439.722748 439.722748 439.722748 439.722748 439.722748 658.054382 439.722748 658.054382 439.722748 439.722748 439.722748 439.722748 439.722748 439.722748 663.087341 658.054382 439.722748 439.722748 439.722748 439.722748 439.722748 439.722748 439.722748 439.722748 658.054382 439.722748 439.722748 439.722748 439.722748 439.722748 439.722748 439.722748 439.722748 439.722748 439.722748 658.054382 439.722748 663.087341 439.722748 439.722748 439.722748 439.722748 439.722748 439.722748 439.722748 439.722748 439.722748 663.087341 439.722748 439.722748 658.054382 439.722748 658.054382 439.722748 663.087341 663.087341 439.722748 439.722748 439.722748 439.722748 439.722748 439.722748 439.722748 439.722748 663.087341 439.722748 663.087341 439.722748 439.722748 439.722748 439.722748 439.722748 439.722748 439.722748 439.722748 
/inception4e/branch2/branch2.1/conv/Conv_param_0 81.186699 81.186699 81.186699 81.186699 81.186699 81.186699 81.186699 81.186699 81.186699 81.186699 81.186699 81.186699 81.186699 81.186699 81.186699 81.186699 81.186699 81.186699 81.186699 81.186699 81.186699 81.186699 81.186699 81.186699 81.186699 81.186699 81.186699 81.186699 81.186699 81.186699 81.186699 81.186699 81.186699 81.186699 81.186699 81.186699 81.186699 81.186699 81.186699 81.186699 81.186699 81.186699 81.186699 81.186699 81.186699 81.186699 81.186699 81.186699 81.186699 81.186699 81.186699 81.186699 81.186699 81.186699 81.186699 81.186699 81.186699 81.186699 81.186699 81.186699 81.186699 81.186699 81.186699 81.186699 81.186699 81.186699 81.186699 81.186699 81.186699 89.419716 81.186699 81.186699 81.186699 81.186699 81.186699 81.186699 81.186699 81.186699 81.186699 81.186699 81.186699 81.186699 81.186699 81.186699 81.186699 81.186699 81.186699 81.186699 81.186699 81.186699 81.186699 81.186699 81.186699 81.186699 81.186699 81.186699 81.186699 81.186699 81.186699 81.186699 81.186699 81.186699 81.186699 81.186699 81.186699 81.186699 81.186699 81.186699 81.186699 81.186699 81.186699 81.186699 81.186699 81.186699 81.186699 81.186699 81.186699 81.186699 81.186699 81.186699 81.186699 81.186699 81.186699 81.186699 81.186699 81.186699 81.186699 81.186699 81.186699 81.186699 81.186699 81.186699 81.186699 81.186699 81.186699 81.186699 81.186699 81.186699 81.186699 81.186699 81.186699 81.186699 81.186699 81.186699 81.186699 81.186699 81.186699 81.186699 81.186699 81.186699 81.186699 81.186699 81.186699 81.186699 81.186699 81.186699 81.186699 81.186699 81.186699 81.186699 81.186699 81.186699 81.186699 81.186699 81.186699 81.186699 81.186699 81.186699 81.186699 81.186699 81.186699 81.186699 81.186699 81.186699 81.186699 81.186699 81.186699 81.186699 81.186699 81.186699 81.186699 81.186699 81.186699 81.186699 81.186699 81.186699 81.186699 81.186699 81.186699 81.186699 81.186699 81.186699 81.186699 81.186699 81.186699 81.186699 81.186699 81.186699 89.419716 81.186699 81.186699 81.186699 81.186699 81.186699 81.186699 81.186699 81.186699 81.186699 81.186699 81.186699 81.186699 81.186699 81.186699 81.186699 81.186699 81.186699 81.186699 81.186699 81.186699 81.186699 81.186699 81.186699 81.186699 81.186699 81.186699 81.186699 81.186699 81.186699 81.186699 81.186699 81.186699 81.186699 81.186699 81.186699 81.186699 81.186699 81.186699 81.186699 89.419716 81.186699 81.186699 81.186699 81.186699 81.186699 81.186699 81.186699 81.186699 81.186699 81.186699 81.186699 81.186699 81.186699 81.186699 81.186699 81.186699 81.186699 81.186699 81.186699 81.186699 81.186699 81.186699 81.186699 81.186699 81.186699 81.186699 81.186699 81.186699 81.186699 81.186699 81.186699 81.186699 81.186699 81.186699 81.186699 81.186699 81.186699 81.186699 81.186699 81.186699 81.186699 81.186699 81.186699 81.186699 81.186699 81.186699 81.186699 81.186699 81.186699 81.186699 81.186699 81.186699 81.186699 81.186699 81.186699 81.186699 81.186699 81.186699 81.186699 81.186699 81.186699 81.186699 81.186699 81.186699 81.186699 81.186699 81.186699 81.186699 81.186699 81.186699 81.186699 81.186699 81.186699 81.186699 81.186699 81.186699 81.186699 81.186699 81.186699 81.186699 81.186699 
/inception4e/branch3/branch3.0/conv/Conv_param_0 665.207153 765.551147 665.207153 665.207153 665.207153 665.207153 665.207153 665.207153 765.551147 665.207153 665.207153 665.207153 732.149170 732.149170 665.207153 665.207153 665.207153 665.207153 665.207153 665.207153 665.207153 665.207153 665.207153 665.207153 665.207153 665.207153 665.207153 665.207153 665.207153 765.551147 665.207153 665.207153 
/inception4e/branch3/branch3.1/conv/Conv_param_0 218.171814 218.171814 218.171814 303.407410 218.171814 218.171814 218.171814 218.171814 220.062393 303.407410 218.171814 218.171814 303.407410 218.171814 218.171814 218.171814 218.171814 218.171814 220.062393 218.171814 218.171814 218.171814 218.171814 220.062393 322.888733 218.171814 218.171814 218.171814 218.171814 218.171814 218.171814 218.171814 220.062393 218.171814 218.171814 218.171814 303.407410 220.062393 218.171814 218.171814 220.062393 218.171814 220.062393 218.171814 322.888733 218.171814 303.407410 303.407410 218.171814 303.407410 218.171814 303.407410 322.888733 220.062393 218.171814 220.062393 218.171814 218.171814 218.171814 220.062393 218.171814 218.171814 356.924805 303.407410 218.171814 220.062393 220.062393 218.171814 218.171814 218.171814 218.171814 220.062393 218.171814 218.171814 218.171814 220.062393 220.062393 218.171814 218.171814 303.407410 218.171814 220.062393 220.062393 220.062393 218.171814 220.062393 218.171814 220.062393 218.171814 218.171814 220.062393 218.171814 220.062393 218.171814 303.407410 218.171814 218.171814 220.062393 218.171814 220.062393 218.171814 303.407410 303.407410 220.062393 218.171814 303.407410 218.171814 218.171814 218.171814 218.171814 218.171814 322.888733 303.407410 220.062393 218.171814 218.171814 220.062393 218.171814 218.171814 356.924805 218.171814 220.062393 218.171814 218.171814 218.171814 220.062393 220.062393 218.171814 
/inception4e/branch4/branch4.1/conv/Conv_param_0 843.098877 843.098877 843.098877 843.098877 843.098877 843.098877 843.098877 843.098877 843.098877 843.098877 919.067139 843.098877 843.098877 843.098877 843.098877 843.098877 843.098877 843.098877 919.067139 843.098877 843.098877 843.098877 843.098877 843.098877 843.098877 843.098877 843.098877 843.098877 843.098877 1154.699219 843.098877 919.067139 843.098877 843.098877 843.098877 843.098877 843.098877 919.067139 843.098877 843.098877 919.067139 843.098877 843.098877 919.067139 843.098877 843.098877 843.098877 843.098877 843.098877 843.098877 919.067139 843.098877 843.098877 843.098877 919.067139 919.067139 843.098877 843.098877 843.098877 843.098877 843.098877 843.098877 843.098877 843.098877 843.098877 919.067139 919.067139 843.098877 843.098877 843.098877 843.098877 843.098877 843.098877 843.098877 843.098877 843.098877 1154.699219 843.098877 1154.699219 843.098877 919.067139 843.098877 843.098877 1154.699219 843.098877 843.098877 843.098877 843.098877 843.098877 843.098877 843.098877 1154.699219 843.098877 843.098877 843.098877 843.098877 843.098877 843.098877 843.098877 843.098877 843.098877 843.098877 843.098877 843.098877 843.098877 843.098877 919.067139 843.098877 843.098877 843.098877 919.067139 919.067139 843.098877 843.098877 843.098877 843.098877 843.098877 843.098877 843.098877 843.098877 843.098877 919.067139 919.067139 843.098877 843.098877 843.098877 919.067139 843.098877 
/inception5a/branch1/conv/Conv_param_0 757.745056 757.745056 813.435486 757.745056 757.745056 757.745056 757.745056 757.745056 757.745056 757.745056 757.745056 757.745056 757.745056 757.745056 757.745056 757.745056 757.745056 757.745056 757.745056 757.745056 757.745056 757.745056 757.745056 757.745056 757.745056 757.745056 757.745056 757.745056 813.435486 757.745056 757.745056 757.745056 757.745056 757.745056 757.745056 757.745056 757.745056 757.745056 757.745056 757.745056 757.745056 757.745056 757.745056 757.745056 757.745056 757.745056 757.745056 757.745056 757.745056 813.435486 757.745056 757.745056 757.745056 813.435486 813.435486 757.745056 757.745056 813.435486 757.745056 757.745056 757.745056 757.745056 757.745056 757.745056 757.745056 757.745056 813.435486 757.745056 757.745056 757.745056 757.745056 757.745056 757.745056 813.435486 757.745056 757.745056 757.745056 757.745056 757.745056 757.745056 757.745056 757.745056 757.745056 757.745056 757.745056 757.745056 757.745056 757.745056 757.745056 757.745056 757.745056 757.745056 757.745056 757.745056 757.745056 757.745056 757.745056 813.435486 757.745056 757.745056 757.745056 757.745056 757.745056 757.745056 757.745056 757.745056 757.745056 757.745056 757.745056 757.745056 757.745056 757.745056 757.745056 757.745056 757.745056 757.745056 757.745056 813.435486 757.745056 757.745056 757.745056 757.745056 757.745056 757.745056 757.745056 757.745056 757.745056 757.745056 813.435486 757.745056 757.745056 757.745056 757.745056 757.745056 757.745056 757.745056 757.745056 757.745056 757.745056 757.745056 757.745056 757.745056 757.745056 757.745056 757.745056 757.745056 757.745056 757.745056 757.745056 757.745056 757.745056 813.435486 757.745056 757.745056 757.745056 757.745056 757.745056 757.745056 757.745056 757.745056 757.745056 757.745056 757.745056 757.745056 757.745056 757.745056 846.528870 757.745056 757.745056 813.435486 757.745056 757.745056 757.745056 813.435486 757.745056 757.745056 757.745056 757.745056 757.745056 757.745056 757.745056 757.745056 757.745056 757.745056 757.745056 757.745056 757.745056 757.745056 757.745056 757.745056 757.745056 757.745056 757.745056 757.745056 757.745056 757.745056 757.745056 757.745056 813.435486 757.745056 757.745056 813.435486 757.745056 757.745056 813.435486 757.745056 757.745056 757.745056 757.745056 757.745056 757.745056 757.745056 757.745056 757.745056 757.745056 757.745056 757.745056 757.745056 757.745056 757.745056 757.745056 813.435486 757.745056 813.435486 757.745056 813.435486 813.435486 757.745056 757.745056 757.745056 757.745056 813.435486 757.745056 813.435486 757.745056 757.745056 757.745056 757.745056 757.745056 757.745056 757.745056 757.745056 757.745056 757.745056 757.745056 757.745056 757.745056 757.745056 757.745056 757.745056 757.745056 757.745056 757.745056 757.745056 757.745056 757.745056 
/inception5a/branch2/branch2.0/conv/Conv_param_0 799.680237 799.680237 799.680237 799.680237 799.680237 799.680237 799.680237 799.680237 799.680237 799.680237 799.680237 799.680237 799.680237 799.680237 799.680237 799.680237 799.680237 799.680237 799.680237 799.680237 799.680237 799.680237 799.680237 799.680237 799.680237 799.680237 799.680237 799.680237 799.680237 799.680237 799.680237 799.680237 799.680237 799.680237 799.680237 799.680237 799.680237 799.680237 799.680237 893.033447 799.680237 799.680237 799.680237 799.680237 799.680237 799.680237 893.033447 799.680237 799.680237 799.680237 799.680237 799.680237 799.680237 799.680237 799.680237 799.680237 799.680237 893.033447 893.033447 893.033447 799.680237 799.680237 893.033447 893.033447 799.680237 893.033447 799.680237 799.680237 799.680237 799.680237 799.680237 799.680237 893.033447 799.680237 799.680237 799.680237 799.680237 799.680237 799.680237 799.680237 799.680237 799.680237 799.680237 799.680237 799.680237 799.680237 799.680237 799.680237 799.680237 799.680237 799.680237 799.680237 799.680237 799.680237 799.680237 799.680237 893.033447 799.680237 799.680237 799.680237 799.680237 799.680237 799.680237 799.680237 799.680237 799.680237 893.033447 893.033447 799.680237 799.680237 799.680237 799.680237 799.680237 799.680237 799.680237 799.680237 799.680237 799.680237 799.680237 799.680237 799.680237 799.680237 893.033447 799.680237 799.680237 799.680237 799.680237 799.680237 799.680237 799.680237 799.680237 799.680237 799.680237 799.680237 799.680237 799.680237 799.680237 799.680237 799.680237 799.680237 799.680237 893.033447 893.033447 799.680237 799.680237 799.680237 799.680237 799.680237 799.680237 799.680237 799.680237 799.680237 799.680237 799.680237 799.680237 799.680237 799.680237 799.680237 799.680237 799.680237 
/inception5a/branch2/branch2.1/conv/Conv_param_0 273.213562 273.213562 273.213562 273.213562 273.213562 273.213562 273.213562 273.213562 273.213562 273.213562 273.213562 273.213562 273.213562 273.213562 300.534912 273.213562 273.213562 273.213562 273.213562 273.213562 273.213562 273.213562 273.213562 273.213562 273.213562 273.213562 273.213562 273.213562 273.213562 273.213562 273.213562 273.213562 273.213562 273.213562 273.213562 273.213562 273.213562 273.213562 273.213562 273.213562 273.213562 273.213562 273.213562 273.213562 273.213562 273.213562 273.213562 273.213562 273.213562 273.213562 273.213562 273.213562 273.213562 273.213562 273.213562 273.213562 273.213562 273.213562 273.213562 273.213562 273.213562 273.213562 273.213562 273.213562 273.213562 273.213562 273.213562 273.213562 273.213562 273.213562 273.213562 273.213562 273.213562 273.213562 273.213562 273.213562 273.213562 273.213562 273.213562 273.213562 273.213562 273.213562 273.213562 273.213562 273.213562 273.213562 273.213562 273.213562 273.213562 273.213562 273.213562 273.213562 273.213562 273.213562 273.213562 273.213562 273.213562 273.213562 300.534912 273.213562 273.213562 273.213562 273.213562 273.213562 273.213562 273.213562 273.213562 273.213562 273.213562 273.213562 273.213562 273.213562 300.534912 273.213562 273.213562 273.213562 273.213562 273.213562 273.213562 273.213562 273.213562 273.213562 273.213562 273.213562 273.213562 273.213562 300.534912 273.213562 273.213562 273.213562 273.213562 273.213562 273.213562 273.213562 273.213562 273.213562 273.213562 273.213562 273.213562 273.213562 273.213562 273.213562 273.213562 273.213562 273.213562 273.213562 273.213562 273.213562 273.213562 273.213562 273.213562 273.213562 273.213562 273.213562 273.213562 273.213562 273.213562 273.213562 273.213562 273.213562 273.213562 273.213562 273.213562 273.213562 273.213562 273.213562 273.213562 273.213562 273.213562 273.213562 273.213562 273.213562 273.213562 273.213562 273.213562 273.213562 273.213562 273.213562 273.213562 273.213562 273.213562 273.213562 273.213562 273.213562 273.213562 273.213562 273.213562 273.213562 273.213562 273.213562 273.213562 273.213562 273.213562 273.213562 273.213562 273.213562 273.213562 273.213562 273.213562 273.213562 273.213562 273.213562 273.213562 273.213562 273.213562 273.213562 273.213562 273.213562 273.213562 273.213562 273.213562 273.213562 273.213562 273.213562 273.213562 273.213562 273.213562 273.213562 273.213562 273.213562 273.213562 273.213562 273.213562 273.213562 300.534912 273.213562 273.213562 273.213562 273.213562 300.534912 273.213562 273.213562 273.213562 273.213562 273.213562 273.213562 273.213562 273.213562 273.213562 273.213562 273.213562 273.213562 300.534912 273.213562 273.213562 273.213562 273.213562 273.213562 273.213562 273.213562 273.213562 273.213562 273.213562 273.213562 273.213562 300.534912 273.213562 273.213562 273.213562 273.213562 273.213562 273.213562 273.213562 273.213562 273.213562 273.213562 273.213562 273.213562 273.213562 273.213562 273.213562 273.213562 273.213562 273.213562 273.213562 273.213562 273.213562 300.534912 273.213562 273.213562 273.213562 273.213562 273.213562 273.213562 273.213562 273.213562 273.213562 273.213562 273.213562 273.213562 273.213562 273.213562 273.213562 273.213562 273.213562 273.213562 273.213562 273.213562 273.213562 273.213562 273.213562 273.213562 273.213562 273.213562 273.213562 273.213562 273.213562 273.213562 273.213562 273.213562 273.213562 273.213562 273.213562 273.213562 273.213562 273.213562 273.213562 273.213562 273.213562 273.213562 
/inception5a/branch3/branch3.0/conv/Conv_param_0 598.265686 598.265686 584.813965 584.813965 584.813965 598.265686 584.813965 584.813965 584.813965 584.813965 584.813965 584.813965 584.813965 584.813965 584.813965 584.813965 584.813965 584.813965 584.813965 584.813965 584.813965 584.813965 584.813965 584.813965 584.813965 584.813965 598.265686 584.813965 584.813965 584.813965 584.813965 584.813965 
/inception5a/branch3/branch3.1/conv/Conv_param_0 166.963837 182.567932 173.583054 196.405258 166.963837 166.963837 166.963837 166.963837 166.963837 166.963837 166.963837 173.583054 166.963837 166.963837 181.653793 166.963837 166.963837 173.583054 166.963837 173.583054 166.963837 166.963837 173.583054 181.653793 166.963837 196.405258 166.963837 166.963837 173.583054 166.963837 173.583054 166.963837 166.963837 173.583054 166.963837 181.653793 190.797897 166.963837 166.963837 166.963837 173.583054 182.567932 181.653793 173.583054 173.583054 166.963837 166.963837 166.963837 166.963837 166.963837 166.963837 166.963837 166.963837 166.963837 166.963837 182.567932 166.963837 166.963837 166.963837 166.963837 166.963837 173.583054 166.963837 166.963837 166.963837 166.963837 166.963837 173.583054 166.963837 173.583054 173.583054 173.583054 166.963837 166.963837 166.963837 166.963837 181.653793 181.653793 166.963837 181.653793 166.963837 166.963837 173.583054 166.963837 166.963837 173.583054 166.963837 166.963837 166.963837 173.583054 182.567932 166.963837 166.963837 173.583054 173.583054 166.963837 181.653793 173.583054 166.963837 166.963837 166.963837 181.653793 181.653793 181.653793 166.963837 166.963837 190.797897 181.653793 173.583054 166.963837 166.963837 173.583054 173.583054 181.653793 166.963837 166.963837 166.963837 166.963837 166.963837 166.963837 173.583054 166.963837 181.653793 166.963837 166.963837 173.583054 166.963837 166.963837 
/inception5a/branch4/branch4.1/conv/Conv_param_0 343.134552 343.134552 343.134552 343.134552 581.870239 343.134552 343.134552 343.134552 343.134552 343.134552 343.134552 343.134552 343.134552 343.134552 343.134552 343.134552 343.134552 343.134552 343.134552 343.134552 343.134552 343.134552 343.134552 343.134552 343.134552 343.134552 343.134552 343.134552 343.134552 343.134552 343.134552 581.870239 343.134552 343.134552 343.134552 343.134552 581.870239 343.134552 581.870239 343.134552 343.134552 343.134552 343.134552 343.134552 343.134552 581.870239 343.134552 343.134552 343.134552 343.134552 343.134552 343.134552 581.870239 581.870239 343.134552 581.870239 343.134552 343.134552 343.134552 343.134552 343.134552 343.134552 343.134552 343.134552 343.134552 343.134552 343.134552 343.134552 343.134552 343.134552 343.134552 343.134552 343.134552 343.134552 343.134552 343.134552 343.134552 343.134552 343.134552 343.134552 343.134552 343.134552 343.134552 343.134552 343.134552 343.134552 343.134552 611.990601 343.134552 343.134552 343.134552 343.134552 343.134552 343.134552 581.870239 343.134552 343.134552 581.870239 581.870239 343.134552 343.134552 343.134552 343.134552 343.134552 581.870239 343.134552 343.134552 581.870239 343.134552 343.134552 343.134552 343.134552 343.134552 343.134552 343.134552 343.134552 343.134552 343.134552 343.134552 343.134552 343.134552 343.134552 343.134552 581.870239 343.134552 343.134552 343.134552 343.134552 
/inception5b/branch1/conv/Conv_param_0 764.988220 764.988220 764.988220 764.988220 764.988220 764.988220 764.988220 796.618713 764.988220 764.988220 764.988220 816.627930 764.988220 764.988220 764.988220 764.988220 764.988220 764.988220 764.988220 764.988220 764.988220 764.988220 764.988220 764.988220 764.988220 764.988220 764.988220 764.988220 764.988220 764.988220 764.988220 796.618713 764.988220 764.988220 796.618713 764.988220 764.988220 764.988220 764.988220 764.988220 764.988220 764.988220 764.988220 764.988220 764.988220 764.988220 764.988220 764.988220 764.988220 764.988220 764.988220 764.988220 764.988220 764.988220 764.988220 764.988220 764.988220 764.988220 764.988220 764.988220 764.988220 764.988220 764.988220 764.988220 764.988220 764.988220 796.618713 764.988220 796.618713 764.988220 764.988220 764.988220 764.988220 764.988220 764.988220 764.988220 796.618713 764.988220 816.627930 764.988220 764.988220 764.988220 764.988220 764.988220 796.618713 764.988220 764.988220 764.988220 764.988220 764.988220 764.988220 764.988220 764.988220 764.988220 764.988220 764.988220 764.988220 764.988220 764.988220 764.988220 796.618713 764.988220 764.988220 764.988220 764.988220 764.988220 764.988220 764.988220 764.988220 764.988220 764.988220 764.988220 764.988220 764.988220 764.988220 764.988220 764.988220 764.988220 764.988220 764.988220 764.988220 764.988220 764.988220 764.988220 764.988220 764.988220 764.988220 764.988220 764.988220 764.988220 764.988220 764.988220 764.988220 796.618713 764.988220 764.988220 764.988220 764.988220 764.988220 764.988220 764.988220 764.988220 764.988220 764.988220 764.988220 764.988220 764.988220 764.988220 764.988220 764.988220 796.618713 764.988220 764.988220 764.988220 764.988220 764.988220 764.988220 764.988220 764.988220 764.988220 764.988220 764.988220 764.988220 764.988220 764.988220 764.988220 764.988220 764.988220 764.988220 764.988220 764.988220 764.988220 764.988220 764.988220 764.988220 764.988220 764.988220 796.618713 764.988220 764.988220 796.618713 764.988220 764.988220 764.988220 764.988220 764.988220 764.988220 796.618713 796.618713 764.988220 764.988220 764.988220 764.988220 764.988220 764.988220 764.988220 796.618713 764.988220 764.988220 764.988220 764.988220 764.988220 796.618713 764.988220 764.988220 764.988220 764.988220 764.988220 764.988220 764.988220 764.988220 764.988220 764.988220 764.988220 764.988220 764.988220 764.988220 764.988220 764.988220 764.988220 764.988220 764.988220 796.618713 764.988220 764.988220 764.988220 764.988220 764.988220 764.988220 764.988220 764.988220 764.988220 764.988220 764.988220 764.988220 764.988220 796.618713 796.618713 764.988220 764.988220 764.988220 764.988220 764.988220 764.988220 764.988220 764.988220 796.618713 764.988220 764.988220 764.988220 764.988220 764.988220 764.988220 764.988220 764.988220 764.988220 764.988220 796.618713 796.618713 764.988220 764.988220 764.988220 764.988220 764.988220 764.988220 764.988220 764.988220 796.618713 764.988220 764.988220 764.988220 796.618713 764.988220 764.988220 764.988220 764.988220 764.988220 764.988220 764.988220 764.988220 764.988220 764.988220 764.988220 796.618713 764.988220 764.988220 816.627930 764.988220 764.988220 764.988220 764.988220 764.988220 764.988220 764.988220 764.988220 764.988220 764.988220 764.988220 764.988220 764.988220 764.988220 764.988220 764.988220 764.988220 764.988220 764.988220 764.988220 764.988220 764.988220 764.988220 764.988220 764.988220 764.988220 764.988220 796.618713 796.618713 796.618713 764.988220 764.988220 764.988220 764.988220 764.988220 796.618713 764.988220 764.988220 764.988220 764.988220 764.988220 764.988220 764.988220 764.988220 764.988220 764.988220 764.988220 764.988220 764.988220 764.988220 764.988220 764.988220 796.618713 764.988220 764.988220 764.988220 764.988220 764.988220 764.988220 764.988220 764.988220 764.988220 796.618713 764.988220 796.618713 796.618713 764.988220 764.988220 764.988220 764.988220 764.988220 764.988220 764.988220 764.988220 764.988220 764.988220 796.618713 764.988220 764.988220 764.988220 764.988220 764.988220 764.988220 764.988220 764.988220 764.988220 764.988220 764.988220 764.988220 764.988220 764.988220 764.988220 796.618713 764.988220 764.988220 764.988220 764.988220 
/inception5b/branch2/branch2.0/conv/Conv_param_0 1118.091309 1118.091309 1118.091309 1118.091309 1118.091309 1118.091309 1118.091309 1118.091309 1118.091309 1118.091309 1118.091309 1118.091309 1118.091309 1118.091309 1118.091309 1118.091309 1118.091309 1118.091309 1118.091309 1118.091309 1118.091309 1118.091309 1159.848389 1118.091309 1159.848389 1118.091309 1118.091309 1118.091309 1118.091309 1159.848389 1118.091309 1118.091309 1118.091309 1118.091309 1118.091309 1118.091309 1118.091309 1118.091309 1118.091309 1118.091309 1118.091309 1118.091309 1118.091309 1118.091309 1118.091309 1118.091309 1118.091309 1159.848389 1118.091309 1118.091309 1118.091309 1118.091309 1118.091309 1118.091309 1159.848389 1118.091309 1118.091309 1118.091309 1118.091309 1118.091309 1118.091309 1118.091309 1118.091309 1159.848389 1118.091309 1118.091309 1118.091309 1118.091309 1118.091309 1118.091309 1159.848389 1118.091309 1118.091309 1118.091309 1118.091309 1118.091309 1118.091309 1118.091309 1159.848389 1118.091309 1118.091309 1118.091309 1159.848389 1118.091309 1118.091309 1118.091309 1118.091309 1118.091309 1118.091309 1118.091309 1118.091309 1118.091309 1118.091309 1118.091309 1118.091309 1118.091309 1118.091309 1118.091309 1118.091309 1118.091309 1118.091309 1118.091309 1118.091309 1118.091309 1118.091309 1118.091309 1118.091309 1118.091309 1425.183594 1118.091309 1118.091309 1118.091309 1118.091309 1118.091309 1118.091309 1118.091309 1159.848389 1118.091309 1118.091309 1118.091309 1118.091309 1118.091309 1118.091309 1118.091309 1118.091309 1118.091309 1118.091309 1118.091309 1118.091309 1118.091309 1118.091309 1159.848389 1118.091309 1118.091309 1118.091309 1159.848389 1118.091309 1159.848389 1118.091309 1118.091309 1118.091309 1118.091309 1159.848389 1159.848389 1118.091309 1118.091309 1118.091309 1118.091309 1118.091309 1118.091309 1118.091309 1118.091309 1118.091309 1118.091309 1118.091309 1118.091309 1118.091309 1159.848389 1118.091309 1118.091309 1159.848389 1118.091309 1118.091309 1118.091309 1118.091309 1118.091309 1118.091309 1159.848389 1118.091309 1159.848389 1118.091309 1118.091309 1118.091309 1118.091309 1118.091309 1118.091309 1159.848389 1118.091309 1118.091309 1118.091309 1118.091309 1118.091309 1118.091309 1118.091309 1118.091309 1159.848389 1118.091309 1118.091309 1118.091309 1118.091309 1118.091309 1118.091309 
/inception5b/branch2/branch2.1/conv/Conv_param_0 168.403183 168.403183 168.403183 168.403183 168.403183 168.403183 168.403183 168.403183 168.403183 168.403183 168.403183 168.403183 168.403183 168.403183 168.403183 168.403183 168.403183 168.403183 168.403183 168.403183 168.403183 168.403183 168.403183 168.403183 168.403183 168.403183 168.403183 168.403183 168.403183 168.403183 168.403183 168.403183 168.403183 168.403183 168.403183 168.403183 168.403183 168.403183 168.403183 168.403183 168.403183 168.403183 168.403183 168.403183 168.403183 168.403183 168.403183 168.403183 168.403183 168.403183 168.403183 168.403183 168.403183 168.403183 168.403183 168.403183 168.403183 168.403183 168.403183 168.403183 168.403183 168.403183 168.403183 168.403183 168.403183 168.403183 168.403183 168.403183 168.403183 168.403183 168.403183 168.403183 168.403183 168.403183 168.403183 168.403183 168.403183 168.403183 168.403183 168.403183 168.403183 168.403183 168.403183 168.403183 168.403183 168.403183 168.403183 168.403183 168.403183 168.403183 168.403183 168.403183 168.403183 168.403183 168.403183 168.403183 168.403183 168.403183 168.403183 168.403183 168.403183 168.403183 168.403183 168.403183 168.403183 168.403183 168.403183 168.403183 168.403183 168.403183 168.403183 168.403183 168.403183 168.403183 168.403183 168.403183 168.403183 168.403183 168.403183 168.403183 168.403183 168.403183 168.403183 168.403183 168.403183 168.403183 168.403183 168.403183 168.403183 168.403183 168.403183 168.403183 168.403183 168.403183 168.403183 168.403183 168.403183 168.403183 168.403183 168.403183 168.403183 168.403183 168.403183 168.403183 168.403183 168.403183 168.403183 168.403183 168.403183 168.403183 168.403183 168.403183 168.403183 168.403183 168.403183 168.403183 168.403183 168.403183 168.403183 168.403183 168.403183 168.403183 168.403183 168.403183 168.403183 168.403183 168.403183 168.403183 168.403183 168.403183 168.403183 168.403183 168.403183 168.403183 168.403183 168.403183 168.403183 168.403183 168.403183 168.403183 168.403183 168.403183 168.403183 168.403183 168.403183 168.403183 168.403183 168.403183 168.403183 184.692368 168.403183 168.403183 168.403183 168.403183 168.403183 168.403183 168.403183 168.403183 168.403183 168.403183 168.403183 168.403183 168.403183 168.403183 168.403183 168.403183 168.403183 168.403183 168.403183 168.403183 168.403183 168.403183 168.403183 168.403183 168.403183 168.403183 168.403183 168.403183 168.403183 168.403183 168.403183 168.403183 168.403183 168.403183 168.403183 168.403183 168.403183 168.403183 168.403183 168.403183 168.403183 168.403183 168.403183 168.403183 168.403183 168.403183 168.403183 168.403183 168.403183 168.403183 168.403183 168.403183 168.403183 168.403183 168.403183 168.403183 168.403183 168.403183 168.403183 168.403183 168.403183 168.403183 168.403183 168.403183 168.403183 168.403183 168.403183 168.403183 168.403183 168.403183 168.403183 168.403183 168.403183 168.403183 168.403183 168.403183 168.403183 168.403183 168.403183 168.403183 168.403183 168.403183 168.403183 168.403183 168.403183 168.403183 168.403183 168.403183 168.403183 168.403183 168.403183 168.403183 168.403183 168.403183 168.403183 168.403183 168.403183 168.403183 168.403183 168.403183 168.403183 168.403183 168.403183 168.403183 168.403183 168.403183 168.403183 168.403183 168.403183 168.403183 168.403183 168.403183 168.403183 168.403183 168.403183 168.403183 168.403183 168.403183 168.403183 168.403183 168.403183 168.403183 168.403183 168.403183 168.403183 168.403183 168.403183 168.403183 168.403183 168.403183 168.403183 168.403183 168.403183 168.403183 168.403183 168.403183 168.403183 168.403183 168.403183 168.403183 168.403183 168.403183 168.403183 168.403183 168.403183 168.403183 168.403183 168.403183 168.403183 168.403183 168.403183 168.403183 168.403183 168.403183 168.403183 168.403183 168.403183 168.403183 168.403183 168.403183 168.403183 168.403183 168.403183 168.403183 168.403183 168.403183 168.403183 168.403183 168.403183 168.403183 168.403183 168.403183 168.403183 168.403183 168.403183 168.403183 168.403183 168.403183 168.403183 168.403183 168.403183 168.403183 168.403183 168.403183 168.403183 168.403183 168.403183 168.403183 168.403183 168.403183 168.403183 168.403183 168.403183 168.403183 
/inception5b/branch3/branch3.0/conv/Conv_param_0 181.758209 181.758209 181.758209 245.837433 181.758209 181.758209 181.758209 245.837433 181.758209 181.758209 181.758209 181.758209 181.758209 181.758209 181.758209 245.837433 181.758209 181.758209 245.837433 181.758209 245.837433 245.837433 181.758209 181.758209 181.758209 181.758209 181.758209 181.758209 181.758209 181.758209 181.758209 181.758209 181.758209 181.758209 181.758209 181.758209 181.758209 181.758209 181.758209 181.758209 181.758209 181.758209 181.758209 181.758209 181.758209 245.837433 181.758209 181.758209 
/inception5b/branch3/branch3.1/conv/Conv_param_0 196.253479 179.344635 179.344635 196.253479 196.253479 179.344635 179.344635 179.344635 179.344635 179.344635 201.389374 179.344635 179.344635 179.344635 179.344635 179.344635 201.389374 179.344635 196.253479 196.253479 179.344635 205.462784 179.344635 179.344635 179.344635 196.253479 196.253479 213.405045 196.253479 179.344635 179.344635 179.344635 179.344635 179.344635 179.344635 179.344635 179.344635 196.253479 179.344635 179.344635 196.253479 179.344635 179.344635 179.344635 201.389374 179.344635 179.344635 179.344635 179.344635 201.389374 179.344635 179.344635 196.253479 196.253479 179.344635 179.344635 179.344635 179.344635 179.344635 179.344635 196.253479 179.344635 201.389374 196.253479 179.344635 196.253479 179.344635 179.344635 179.344635 196.253479 179.344635 196.253479 179.344635 179.344635 179.344635 196.253479 196.253479 196.253479 179.344635 179.344635 201.389374 196.253479 179.344635 179.344635 196.253479 179.344635 179.344635 179.344635 179.344635 179.344635 196.253479 205.462784 179.344635 179.344635 179.344635 179.344635 196.253479 196.253479 196.253479 196.253479 179.344635 179.344635 179.344635 179.344635 179.344635 179.344635 179.344635 179.344635 196.253479 179.344635 179.344635 201.389374 179.344635 196.253479 179.344635 179.344635 196.253479 179.344635 179.344635 196.253479 179.344635 179.344635 196.253479 205.462784 201.389374 179.344635 179.344635 196.253479 
/inception5b/branch4/branch4.1/conv/Conv_param_0 485.253723 485.253723 406.717743 406.717743 406.717743 406.717743 406.717743 406.717743 406.717743 406.717743 406.717743 406.717743 406.717743 406.717743 406.717743 406.717743 406.717743 485.253723 406.717743 485.253723 406.717743 406.717743 406.717743 406.717743 406.717743 406.717743 406.717743 406.717743 406.717743 406.717743 406.717743 406.717743 406.717743 485.253723 406.717743 406.717743 406.717743 485.253723 406.717743 406.717743 406.717743 406.717743 406.717743 406.717743 485.253723 406.717743 485.253723 406.717743 485.253723 406.717743 406.717743 406.717743 406.717743 485.253723 406.717743 406.717743 406.717743 406.717743 406.717743 406.717743 406.717743 406.717743 406.717743 406.717743 406.717743 406.717743 406.717743 406.717743 406.717743 406.717743 406.717743 406.717743 406.717743 406.717743 406.717743 406.717743 406.717743 406.717743 406.717743 406.717743 485.253723 406.717743 406.717743 406.717743 406.717743 406.717743 406.717743 406.717743 406.717743 406.717743 406.717743 406.717743 406.717743 406.717743 406.717743 406.717743 406.717743 406.717743 406.717743 406.717743 406.717743 406.717743 406.717743 406.717743 406.717743 406.717743 406.717743 406.717743 485.253723 406.717743 485.253723 406.717743 485.253723 541.021301 485.253723 406.717743 406.717743 406.717743 406.717743 485.253723 406.717743 406.717743 406.717743 406.717743 406.717743 406.717743 485.253723 406.717743 
/fc/Gemm_param_0 735.773682 735.773682 735.773682 735.773682 735.773682 735.773682 735.773682 735.773682 735.773682 735.773682 735.773682 735.773682 735.773682 735.773682 735.773682 735.773682 735.773682 735.773682 735.773682 735.773682 735.773682 735.773682 735.773682 735.773682 735.773682 735.773682 735.773682 735.773682 987.081604 735.773682 735.773682 735.773682 735.773682 735.773682 987.081604 735.773682 735.773682 735.773682 735.773682 735.773682 735.773682 735.773682 735.773682 735.773682 735.773682 735.773682 735.773682 735.773682 735.773682 735.773682 735.773682 735.773682 735.773682 735.773682 735.773682 735.773682 735.773682 735.773682 735.773682 735.773682 735.773682 735.773682 735.773682 735.773682 735.773682 735.773682 735.773682 735.773682 735.773682 735.773682 735.773682 735.773682 735.773682 735.773682 735.773682 735.773682 735.773682 735.773682 735.773682 735.773682 735.773682 735.773682 735.773682 735.773682 735.773682 735.773682 735.773682 735.773682 735.773682 735.773682 735.773682 735.773682 735.773682 735.773682 735.773682 735.773682 735.773682 735.773682 735.773682 987.081604 735.773682 735.773682 987.081604 735.773682 735.773682 735.773682 735.773682 735.773682 735.773682 735.773682 735.773682 735.773682 735.773682 735.773682 735.773682 735.773682 735.773682 735.773682 987.081604 735.773682 735.773682 735.773682 735.773682 735.773682 735.773682 735.773682 735.773682 735.773682 735.773682 735.773682 735.773682 735.773682 735.773682 735.773682 735.773682 735.773682 735.773682 735.773682 735.773682 735.773682 735.773682 735.773682 735.773682 735.773682 735.773682 735.773682 735.773682 735.773682 735.773682 735.773682 735.773682 735.773682 735.773682 735.773682 735.773682 735.773682 987.081604 735.773682 735.773682 735.773682 735.773682 735.773682 735.773682 735.773682 735.773682 735.773682 735.773682 735.773682 735.773682 735.773682 735.773682 735.773682 735.773682 735.773682 735.773682 987.081604 735.773682 735.773682 735.773682 735.773682 735.773682 735.773682 735.773682 987.081604 735.773682 735.773682 735.773682 735.773682 735.773682 735.773682 735.773682 735.773682 735.773682 735.773682 735.773682 735.773682 735.773682 735.773682 735.773682 735.773682 735.773682 735.773682 735.773682 735.773682 735.773682 735.773682 735.773682 735.773682 735.773682 735.773682 735.773682 735.773682 735.773682 735.773682 735.773682 735.773682 735.773682 735.773682 735.773682 735.773682 735.773682 735.773682 1149.595581 735.773682 735.773682 735.773682 735.773682 735.773682 735.773682 735.773682 735.773682 735.773682 735.773682 735.773682 735.773682 735.773682 735.773682 735.773682 735.773682 987.081604 735.773682 735.773682 735.773682 735.773682 735.773682 735.773682 735.773682 735.773682 735.773682 735.773682 735.773682 735.773682 735.773682 735.773682 735.773682 735.773682 987.081604 735.773682 735.773682 735.773682 735.773682 735.773682 735.773682 735.773682 735.773682 735.773682 735.773682 735.773682 735.773682 735.773682 987.081604 735.773682 735.773682 735.773682 735.773682 735.773682 735.773682 735.773682 735.773682 735.773682 735.773682 735.773682 735.773682 735.773682 735.773682 735.773682 735.773682 735.773682 735.773682 735.773682 735.773682 987.081604 735.773682 735.773682 735.773682 735.773682 735.773682 735.773682 735.773682 735.773682 735.773682 735.773682 735.773682 735.773682 735.773682 735.773682 735.773682 735.773682 735.773682 735.773682 735.773682 735.773682 1149.595581 735.773682 735.773682 735.773682 735.773682 735.773682 735.773682 735.773682 735.773682 735.773682 735.773682 735.773682 735.773682 735.773682 735.773682 735.773682 735.773682 735.773682 735.773682 735.773682 735.773682 735.773682 735.773682 735.773682 735.773682 735.773682 735.773682 735.773682 735.773682 735.773682 735.773682 987.081604 735.773682 735.773682 735.773682 735.773682 735.773682 735.773682 735.773682 735.773682 735.773682 735.773682 735.773682 735.773682 735.773682 735.773682 735.773682 735.773682 735.773682 735.773682 735.773682 735.773682 735.773682 987.081604 735.773682 735.773682 735.773682 735.773682 735.773682 735.773682 735.773682 735.773682 987.081604 735.773682 735.773682 735.773682 987.081604 735.773682 735.773682 735.773682 735.773682 987.081604 735.773682 735.773682 735.773682 735.773682 735.773682 735.773682 735.773682 987.081604 735.773682 735.773682 735.773682 735.773682 735.773682 735.773682 735.773682 735.773682 735.773682 735.773682 987.081604 735.773682 735.773682 735.773682 735.773682 735.773682 735.773682 735.773682 735.773682 735.773682 735.773682 735.773682 735.773682 735.773682 735.773682 735.773682 735.773682 735.773682 735.773682 735.773682 735.773682 735.773682 735.773682 735.773682 735.773682 735.773682 735.773682 735.773682 735.773682 735.773682 735.773682 735.773682 735.773682 735.773682 735.773682 735.773682 735.773682 735.773682 735.773682 735.773682 735.773682 735.773682 735.773682 735.773682 735.773682 735.773682 735.773682 735.773682 735.773682 735.773682 735.773682 735.773682 735.773682 735.773682 735.773682 735.773682 987.081604 735.773682 735.773682 735.773682 735.773682 735.773682 735.773682 735.773682 735.773682 735.773682 735.773682 735.773682 735.773682 735.773682 735.773682 735.773682 735.773682 735.773682 735.773682 735.773682 735.773682 735.773682 735.773682 735.773682 735.773682 735.773682 735.773682 735.773682 735.773682 735.773682 735.773682 735.773682 735.773682 735.773682 735.773682 735.773682 735.773682 735.773682 735.773682 735.773682 735.773682 735.773682 735.773682 987.081604 735.773682 735.773682 735.773682 735.773682 735.773682 735.773682 735.773682 735.773682 735.773682 735.773682 735.773682 735.773682 735.773682 735.773682 735.773682 735.773682 735.773682 735.773682 735.773682 735.773682 735.773682 735.773682 735.773682 735.773682 735.773682 987.081604 735.773682 735.773682 735.773682 987.081604 735.773682 735.773682 735.773682 735.773682 735.773682 735.773682 735.773682 735.773682 735.773682 735.773682 735.773682 735.773682 735.773682 735.773682 735.773682 735.773682 735.773682 735.773682 735.773682 735.773682 735.773682 735.773682 735.773682 735.773682 735.773682 735.773682 735.773682 735.773682 735.773682 987.081604 735.773682 735.773682 735.773682 735.773682 735.773682 735.773682 735.773682 735.773682 735.773682 735.773682 735.773682 735.773682 735.773682 735.773682 735.773682 735.773682 735.773682 735.773682 735.773682 987.081604 735.773682 735.773682 735.773682 735.773682 735.773682 735.773682 735.773682 735.773682 735.773682 735.773682 735.773682 735.773682 735.773682 735.773682 987.081604 735.773682 735.773682 735.773682 735.773682 735.773682 735.773682 735.773682 735.773682 735.773682 735.773682 735.773682 735.773682 735.773682 735.773682 735.773682 735.773682 735.773682 735.773682 735.773682 735.773682 735.773682 735.773682 735.773682 735.773682 735.773682 735.773682 735.773682 735.773682 735.773682 735.773682 735.773682 987.081604 735.773682 735.773682 735.773682 735.773682 735.773682 735.773682 735.773682 735.773682 735.773682 735.773682 735.773682 735.773682 735.773682 735.773682 735.773682 735.773682 735.773682 735.773682 735.773682 735.773682 735.773682 735.773682 735.773682 735.773682 735.773682 735.773682 735.773682 735.773682 735.773682 735.773682 735.773682 735.773682 987.081604 735.773682 987.081604 735.773682 735.773682 735.773682 735.773682 735.773682 735.773682 735.773682 735.773682 735.773682 735.773682 735.773682 735.773682 735.773682 735.773682 735.773682 735.773682 735.773682 987.081604 735.773682 735.773682 735.773682 735.773682 735.773682 987.081604 987.081604 735.773682 735.773682 735.773682 735.773682 735.773682 735.773682 735.773682 735.773682 735.773682 735.773682 735.773682 735.773682 735.773682 735.773682 735.773682 735.773682 735.773682 735.773682 735.773682 735.773682 735.773682 735.773682 735.773682 735.773682 735.773682 735.773682 735.773682 735.773682 735.773682 735.773682 735.773682 735.773682 735.773682 735.773682 735.773682 735.773682 735.773682 735.773682 735.773682 735.773682 735.773682 735.773682 735.773682 735.773682 735.773682 735.773682 735.773682 735.773682 735.773682 735.773682 735.773682 735.773682 735.773682 735.773682 735.773682 735.773682 735.773682 735.773682 735.773682 735.773682 735.773682 735.773682 735.773682 735.773682 735.773682 735.773682 735.773682 735.773682 735.773682 735.773682 735.773682 735.773682 735.773682 735.773682 735.773682 735.773682 735.773682 735.773682 735.773682 735.773682 735.773682 735.773682 735.773682 735.773682 735.773682 735.773682 735.773682 735.773682 735.773682 735.773682 735.773682 735.773682 735.773682 735.773682 735.773682 735.773682 735.773682 735.773682 735.773682 735.773682 735.773682 735.773682 735.773682 735.773682 735.773682 735.773682 735.773682 735.773682 735.773682 735.773682 735.773682 735.773682 735.773682 987.081604 735.773682 735.773682 735.773682 735.773682 735.773682 735.773682 735.773682 735.773682 735.773682 735.773682 735.773682 987.081604 735.773682 735.773682 735.773682 735.773682 735.773682 735.773682 735.773682 735.773682 735.773682 735.773682 735.773682 735.773682 735.773682 735.773682 735.773682 735.773682 735.773682 735.773682 735.773682 735.773682 735.773682 987.081604 735.773682 735.773682 735.773682 735.773682 735.773682 735.773682 735.773682 735.773682 735.773682 735.773682 735.773682 735.773682 735.773682 735.773682 735.773682 735.773682 735.773682 735.773682 735.773682 735.773682 735.773682 735.773682 735.773682 735.773682 735.773682 735.773682 735.773682 735.773682 735.773682 735.773682 735.773682 735.773682 735.773682 735.773682 735.773682 735.773682 735.773682 735.773682 735.773682 735.773682 735.773682 735.773682 735.773682 735.773682 735.773682 735.773682 735.773682 735.773682 735.773682 735.773682 735.773682 735.773682 735.773682 735.773682 735.773682 735.773682 987.081604 735.773682 735.773682 735.773682 735.773682 735.773682 735.773682 735.773682 735.773682 735.773682 735.773682 735.773682 735.773682 735.773682 735.773682 735.773682 735.773682 735.773682 735.773682 735.773682 735.773682 735.773682 735.773682 735.773682 735.773682 735.773682 987.081604 735.773682 735.773682 735.773682 735.773682 735.773682 735.773682 735.773682 735.773682 735.773682 735.773682 735.773682 735.773682 735.773682 735.773682 735.773682 735.773682 735.773682 735.773682 735.773682 735.773682 735.773682 735.773682 735.773682 987.081604 735.773682 735.773682 735.773682 735.773682 735.773682 735.773682 735.773682 735.773682 987.081604 735.773682 735.773682 735.773682 735.773682 735.773682 735.773682 735.773682 735.773682 735.773682 735.773682 735.773682 735.773682 735.773682 735.773682 735.773682 735.773682 735.773682 735.773682 735.773682 735.773682 735.773682 735.773682 735.773682 735.773682 735.773682 735.773682 735.773682 735.773682 735.773682 735.773682 735.773682 735.773682 735.773682 735.773682 735.773682 735.773682 735.773682 735.773682 735.773682 735.773682 735.773682 735.773682 735.773682 735.773682 987.081604 735.773682 735.773682 
/conv1/conv/Conv 111.476562 
/conv2/conv/Conv 7.571425 
/conv3/conv/Conv 4.653388 
/inception3a/branch1/conv/Conv 2.388225 
/inception3a/branch2/branch2.0/conv/Conv 2.388225 
/inception3a/branch2/branch2.1/conv/Conv 3.556740 
/inception3a/branch3/branch3.0/conv/Conv 2.388225 
/inception3a/branch3/branch3.1/conv/Conv 4.387390 
/inception3a/branch4/branch4.1/conv/Conv 2.279391 
/inception3b/branch1/conv/Conv 3.006539 
/inception3b/branch2/branch2.0/conv/Conv 3.006539 
/inception3b/branch2/branch2.1/conv/Conv 9.220181 
/inception3b/branch3/branch3.0/conv/Conv 3.006539 
/inception3b/branch3/branch3.1/conv/Conv 4.568354 
/inception3b/branch4/branch4.1/conv/Conv 2.871903 
/inception4a/branch1/conv/Conv 8.487468 
/inception4a/branch2/branch2.0/conv/Conv 8.487468 
/inception4a/branch2/branch2.1/conv/Conv 30.769558 
/inception4a/branch3/branch3.0/conv/Conv 8.487468 
/inception4a/branch3/branch3.1/conv/Conv 19.479584 
/inception4a/branch4/branch4.1/conv/Conv 7.948658 
/inception4b/branch1/conv/Conv 31.027777 
/inception4b/branch2/branch2.0/conv/Conv 31.027777 
/inception4b/branch2/branch2.1/conv/Conv 49.416260 
/inception4b/branch3/branch3.0/conv/Conv 31.027777 
/inception4b/branch3/branch3.1/conv/Conv 63.879204 
/inception4b/branch4/branch4.1/conv/Conv 29.436182 
/inception4c/branch1/conv/Conv 32.640114 
/inception4c/branch2/branch2.0/conv/Conv 32.640114 
/inception4c/branch2/branch2.1/conv/Conv 151.647385 
/inception4c/branch3/branch3.0/conv/Conv 32.640114 
/inception4c/branch3/branch3.1/conv/Conv 160.950684 
/inception4c/branch4/branch4.1/conv/Conv 31.399805 
/inception4d/branch1/conv/Conv 136.286911 
/inception4d/branch2/branch2.0/conv/Conv 136.286911 
/inception4d/branch2/branch2.1/conv/Conv 598.376892 
/inception4d/branch3/branch3.0/conv/Conv 136.286911 
/inception4d/branch3/branch3.1/conv/Conv 478.094299 
/inception4d/branch4/branch4.1/conv/Conv 118.256737 
/inception4e/branch1/conv/Conv 273.400818 
/inception4e/branch2/branch2.0/conv/Conv 273.400818 
/inception4e/branch2/branch2.1/conv/Conv 357.180145 
/inception4e/branch3/branch3.0/conv/Conv 273.400818 
/inception4e/branch3/branch3.1/conv/Conv 970.873047 
/inception4e/branch4/branch4.1/conv/Conv 273.400818 
/inception5a/branch1/conv/Conv 122.231102 
/inception5a/branch2/branch2.0/conv/Conv 122.231102 
/inception5a/branch2/branch2.1/conv/Conv inf 
/inception5a/branch3/branch3.0/conv/Conv 122.231102 
/inception5a/branch3/branch3.1/conv/Conv 241.602112 
/inception5a/branch4/branch4.1/conv/Conv 127.691483 
/inception5b/branch1/conv/Conv 87.731682 
/inception5b/branch2/branch2.0/conv/Conv 87.731682 
/inception5b/branch2/branch2.1/conv/Conv 421.728729 
/inception5b/branch3/branch3.0/conv/Conv 87.731682 
/inception5b/branch3/branch3.1/conv/Conv 130.505463 
/inception5b/branch4/branch4.1/conv/Conv 87.818100 
/fc/Gemm 213.839218 
