/features/features.0/features.0.0/Conv_param_0 23628.308594 395.282684 392.597748 350.297638 3433.610596 1799.972290 947.526428 2080.768066 1237.079712 120733.593750 877.220886 4629.072266 420.867310 936.439270 78473.281250 87381.335938 29025.535156 190377.625000 6605.612793 1008.124023 1286.807617 1392.749634 532.165710 147148.234375 1122.918457 658.470886 1504.532227 654.329590 1807.791504 979.645935 694.515381 3353.373047 
/features/features.1/conv/conv.0/conv.0.0/Conv_param_0 151.836548 52.951141 25.559748 54.872574 24.481928 23.610748 18.990654 27.740614 20.564199 12534.747070 77.594269 29.369467 45.856136 14.360424 18599.042969 14350.124023 1197.219849 5454.175781 8.427164 62.703953 25.105791 51.647339 159.274948 8554.031250 55.623611 14.684733 17.962431 112.986969 76.319252 243.307770 111.247223 30.729679 
/features/features.1/conv/conv.1/Conv_param_0 169.223160 159.080124 155.373947 255.371628 146.863922 230.377319 171.680527 189.712616 209.585815 154.085312 122.686790 169.223160 210.263535 220.047379 125.528961 167.803864 
/features/features.2/conv/conv.0/conv.0.0/Conv_param_0 347.257690 498.268188 1300.479980 476.366302 882.429199 833.641052 681.325500 772.371216 318.549896 1055.156128 283.020660 597.235352 2296.653320 1437.987549 1222.542847 424.300171 656.393677 430.622528 421.208099 809.637329 407.035980 694.979309 1643.576660 1348.521118 759.404358 325.323334 917.446228 378.596802 724.501404 1389.958618 366.849091 1926.637085 1134.551758 597.235352 374.238861 854.875916 321.701904 457.915497 1551.653931 462.392883 338.887299 486.160736 1136.410645 1429.098877 1009.101868 506.516052 508.248169 1109.742920 779.313843 1846.289307 318.160248 413.836121 263.121887 742.071350 260.226105 1406.874878 331.543671 346.332886 1195.156860 673.387695 367.886841 485.706818 1094.564941 1450.012573 365.817169 1164.391724 1100.353271 445.751495 779.313843 1037.789551 626.737366 282.866760 5304.698730 446.900330 1414.526123 695.909058 524.651550 364.791016 968.700195 468.641449 260.747864 418.834137 576.390015 393.191223 346.794678 253.504868 1157.912109 280.426941 218.384552 1163.089966 1163.740479 276.697876 294.726349 210.774719 701.067383 1352.026001 
/features/features.2/conv/conv.1/conv.1.0/Conv_param_0 253.258026 202.409332 63.252918 178.760132 94.442993 124.686478 300.515320 98.745636 224.607941 63.007751 274.507660 205.935074 38.498520 38.704762 40.362507 234.955734 122.686790 233.899277 116.322006 158.017014 170.890930 83.150894 42.863548 41.390198 88.048744 276.845123 94.649200 70.031235 111.629181 34.679466 210.945663 36.633240 73.266479 285.349426 362.250702 94.925545 657.223022 190.267746 43.846256 385.899109 285.662811 201.312698 95.623528 58.213070 69.768242 315.650482 137.544159 43.378254 49.260605 31.231508 84.832352 306.355713 96.189346 147.865829 370.507111 30.875593 290.935120 203.517990 93.358223 130.635864 331.966827 299.995392 30.585136 113.777779 167.479721 40.921333 65.980721 323.502502 124.926033 99.960030 256.252228 187.524155 19.970516 274.797668 93.965317 225.191345 197.341431 623.731445 62.223923 99.730064 200.073853 568.205322 162.661667 291.424103 187.254135 247.710480 42.638687 302.613159 588.452515 65.980721 38.843487 187.930634 408.955963 363.516418 145.712051 80.775154 
/features/features.2/conv/conv.2/Conv_param_0 228.756378 235.594208 248.657745 241.052826 263.388367 241.500458 234.320724 209.080383 214.247116 205.609482 263.922882 187.389053 168.129288 182.908585 188.748917 169.223160 195.560898 197.341431 255.874084 268.972076 218.751892 195.708054 331.755096 182.780045 
/features/features.3/conv/conv.0/conv.0.0/Conv_param_0 379.702179 1039.864014 772.945007 705.823608 1393.682495 697.776001 652.278381 621.867310 617.805237 788.767273 970.507446 780.483093 867.709778 975.969971 692.204895 542.431702 691.285034 618.172302 1025.008911 865.544067 1241.508301 881.681335 712.104065 584.485413 754.995667 763.304504 917.446228 775.826965 756.093018 1621.798950 1412.605591 1038.307373 827.014282 856.283142 476.366302 805.874512 746.329956 520.712708 781.069092 494.009491 784.012085 1304.556763 1407.826782 672.082703 1937.400391 800.911499 2098.606201 645.399475 798.452820 384.757385 660.561279 807.124878 584.157227 1202.061279 989.899170 912.617554 693.589355 1100.353271 681.771973 914.221436 650.239990 759.404358 633.222168 1359.979126 859.111450 724.501404 587.787598 1599.360474 592.811401 601.378052 820.492126 681.325500 1232.682495 850.681946 1054.621338 620.754150 779.313843 780.483093 639.449280 1403.080200 1203.451660 1267.215576 589.452698 1072.008301 967.799072 542.149048 683.563721 2078.689209 1234.144775 809.637329 1152.141724 1190.370728 443.471436 757.745056 883.178284 1523.256226 1191.734253 1436.994507 551.927856 414.826141 487.984985 772.371216 678.658813 1213.983643 763.864929 639.056519 1667.282104 1439.977905 858.402649 437.503784 3807.443848 439.351349 973.231079 691.744690 1564.487183 1784.535156 834.309570 548.436462 695.443848 748.477722 1342.430908 770.084412 948.390137 466.539917 459.939880 605.931274 1123.524780 547.282471 1518.808716 422.576752 765.551147 1194.470703 522.806030 628.630798 587.787598 817.911926 696.374817 792.371643 2409.690674 928.914307 897.656616 845.153503 1024.000000 1026.019775 
/features/features.3/conv/conv.1/conv.1.0/Conv_param_0 56.542610 60.263206 62.343239 65.548386 88.891319 55.339573 110.679146 70.986900 50.211582 34.996769 47.846947 69.174469 89.936378 46.478912 184.334518 83.257362 90.499649 48.453056 43.698925 49.297955 73.473450 32.560841 70.296219 48.165924 84.119019 57.088673 50.959248 99.730064 78.247894 28.246742 26.454027 80.825356 33.796257 64.252968 52.608414 39.313179 50.523697 77.779907 26.432520 37.521061 66.691284 38.003506 37.959137 77.640594 29.556364 56.249134 31.082218 84.173462 122.455742 82.465439 58.422283 52.951141 80.475250 51.524563 76.951477 47.118839 90.123352 106.771759 256.000000 71.730835 49.980015 65.089088 275.963928 79.297562 45.535015 48.927013 72.978676 26.518761 81.483711 69.100960 82.517769 37.981308 88.048744 75.829735 112.790977 139.088776 67.981178 40.088779 102.804741 37.456223 94.856308 46.478912 103.623901 64.700500 41.258884 84.887726 40.287483 26.869421 50.289249 159.470261 29.184919 92.036804 45.953358 44.054199 54.141548 44.690033 62.105061 26.891645 49.111782 170.219894 74.826241 441.589142 82.360985 96.978371 33.691193 48.890224 76.769775 70.755165 79.882065 41.076439 96.618126 124.686478 86.238724 80.326126 41.390198 27.646259 160.059082 55.011845 63.007751 37.092983 52.651012 78.912621 53.650166 62.343239 105.131767 49.186081 53.738842 106.596718 44.813232 53.517696 90.311111 68.123627 33.831425 70.334236 39.916512 70.220299 46.578796 86.640907 43.581768 62.764481 44.659340 164.721970 37.199085 55.528606 
/features/features.3/conv/conv.2/Conv_param_0 187.659454 159.470261 205.609482 166.621399 137.326294 201.781219 131.894516 210.604050 177.297882 229.969940 178.270050 246.536499 185.253555 162.763458 140.973434 175.859360 264.190948 181.125351 254.996078 232.021408 164.721970 143.303589 104.792908 143.067108 
/features/features.4/conv/conv.0/conv.0.0/Conv_param_0 663.087341 2690.068604 1223.981201 1722.490112 920.693787 2024.093384 1014.019470 522.806030 1335.537842 1005.201904 900.765381 856.988464 1282.050537 762.186096 1102.685791 1107.970215 943.231201 807.124878 755.543945 710.159729 651.053833 1204.845337 758.297363 1062.158203 604.522949 1052.487549 2672.791260 871.343384 1140.771973 889.977783 1080.357178 790.565369 1326.174683 830.314453 746.865784 704.867188 849.293091 911.019287 762.744873 705.345093 1016.000000 544.133911 652.278381 1302.107666 645.800110 1052.487549 1584.743286 749.016541 979.645935 885.433167 639.842529 814.071960 821.139709 486.160736 711.130554 1084.298096 807.751526 1112.115479 682.218994 1110.335083 882.429199 956.235291 6706.746094 4649.760742 729.582031 1150.231079 869.886292 907.839417 551.927856 882.429199 2262.934082 794.186279 506.023346 1195.843628 905.469116 476.366302 1227.591797 1009.101868 1249.710571 2157.354004 1189.010254 2633.883545 3978.523926 796.618713 1092.266724 1333.825684 1031.615234 1078.118164 527.845764 406.082733 715.532349 722.488892 1160.495239 827.014282 644.999390 3358.786133 986.145996 1991.165527 1818.853149 893.033447 1286.807617 3427.953857 910.222229 1171.603638 796.009155 733.181091 2736.052490 4595.843262 1261.071533 644.599731 4420.112793 1122.312866 1017.490479 637.490173 1129.624268 4479.586426 1377.080078 1014.019470 1656.662476 1033.151978 2310.680664 766.114868 2499.421143 792.975586 1237.815552 873.538208 839.019348 1690.307007 875.007568 827.672241 604.171875 1240.028564 403.249603 1048.245850 1095.141113 2157.354004 1004.231689 658.887878 444.988892 1324.486328 1585.951172 827.672241 1346.775391 669.918884 
/features/features.4/conv/conv.1/conv.1.0/Conv_param_0 271.924713 72.856026 178.026016 117.266006 155.559814 82.413177 278.475372 283.328979 179.376556 149.223175 144.177383 146.698257 206.261703 77.179825 139.761414 177.782639 257.903809 327.783234 183.943420 114.177345 151.571091 158.209244 193.956741 167.049454 310.562378 77.271538 59.005444 251.300476 103.789307 128.760391 208.076797 138.128525 118.548767 170.778732 132.297043 159.274948 305.995300 257.011871 221.170074 170.442993 117.160362 106.422256 94.033264 245.373581 189.023254 192.663696 184.465256 188.612045 119.091576 241.724915 263.255066 132.702042 104.540192 118.982620 315.650482 105.472832 210.433655 178.514755 266.765137 78.673927 224.027557 215.489639 21.502645 39.006599 210.774719 125.893517 198.395111 264.190948 193.092804 154.543076 101.125969 254.372620 237.747711 148.966782 60.826942 192.663696 201.937881 173.860962 51.811951 78.912621 123.035004 66.249619 71.376511 122.802643 147.781815 160.850952 267.313477 157.347855 196.150833 94.237679 140.592438 245.142319 130.832993 142.988449 140.062469 44.113976 227.158081 77.919716 97.268509 198.850159 115.393082 53.650166 156.590012 179.252930 101.918495 197.191818 129.918076 37.914867 118.765297 251.543518 57.799110 140.213470 170.666672 235.380997 71.298248 35.300758 182.395508 243.080368 85.670616 166.514725 60.543762 268.833069 77.501785 301.910614 250.574188 167.371948 196.744324 127.186310 158.595123 138.496277 364.025208 74.440758 361.998596 107.123558 207.578613 80.624924 210.945663 144.177383 357.029510 148.966782 104.205132 189.574341 241.500458 204.961380 
/features/features.4/conv/conv.2/Conv_param_0 179.624313 234.955734 274.652588 239.719818 256.378510 146.285721 223.450165 187.930634 223.066895 190.267746 277.880341 227.555557 228.354691 207.247803 255.874084 235.807800 257.011871 201.312698 222.114426 198.698242 283.947601 227.954422 186.448746 186.181824 221.546844 231.814621 238.839310 195.413971 237.097534 255.246323 186.181824 250.815811 
/features/features.5/conv/conv.0/conv.0.0/Conv_param_0 1191.734253 1321.961914 2159.593262 1206.942017 783.421692 2968.285400 1851.217041 1760.379028 1037.789551 927.258484 2989.609131 691.744690 2309.398438 2248.263672 1033.151978 1031.104004 1273.419800 1500.193237 2008.463379 1778.434204 2591.242920 828.331238 1503.445068 1590.801270 1330.414307 3686.037109 1186.975464 1563.311768 1187.652954 1176.905029 1309.482666 1542.452148 1066.513550 1413.565186 1363.543945 2460.991211 3059.952881 1757.405396 2746.888428 2331.392822 1068.704712 1356.432861 4036.407471 1862.818237 1695.817383 1332.117798 2549.960693 2352.479248 4694.344238 1197.219849 1722.490112 2091.224121 1513.285767 1011.063171 2987.463135 3647.270752 1817.264648 1260.307739 2645.604492 1206.242310 3289.751709 1124.739502 1544.742432 2763.304199 804.627991 2957.737061 1704.150757 2983.179932 898.431763 912.617554 2155.119629 1131.467041 782.832214 925.608521 1050.892944 2191.435547 3098.686523 1804.655640 2144.016602 1416.452026 840.374817 1250.461548 1444.977783 689.452637 950.122375 2081.808838 2156.236328 1116.890991 1126.566284 1884.753662 1185.622803 2870.024902 1504.532227 1375.259766 941.523987 1514.387207 1055.156128 2344.527344 1553.971680 2238.588379 1111.521362 2012.348145 2151.776611 1236.344604 1556.296143 1444.977783 1529.976440 1063.243774 1748.544556 2607.478760 2260.475830 2267.866943 686.269104 2864.099121 2164.085205 1815.678833 1093.414551 2508.460449 2123.232666 1203.451660 1294.815186 1942.827271 1303.739380 1231.952637 906.257812 1869.513062 1361.759155 1682.108276 1647.480591 1432.049561 1479.920288 1495.879272 1496.955444 3066.717773 2789.233154 1349.395630 3126.623535 1596.905640 999.408264 1168.314453 1181.583252 1163.740479 2300.462158 1009.101868 1729.649170 967.799072 1302.922974 2856.236084 1856.171265 2391.687256 2097.548340 1972.291992 1353.785278 1186.298706 2090.173828 660.561279 1255.744141 1831.661987 1072.560791 1476.769287 1660.628906 1966.699463 1437.987549 1237.815552 2322.285645 1383.489380 960.650024 823.740295 866.986694 1414.526123 1203.451660 2002.664062 1671.299561 2008.463379 1200.673950 1364.437988 2534.431152 1359.979126 953.605896 1473.631714 1682.108276 1412.605591 2077.651611 1396.488647 1431.064697 1439.977905 4359.912109 3569.070312 3068.979248 1204.148193 1598.132080 966.001831 
/features/features.5/conv/conv.1/conv.1.0/Conv_param_0 47.428154 91.261757 80.574966 109.468010 82.308861 39.843136 112.790977 66.794044 290.610046 78.484009 37.629631 39.624619 34.241180 93.762077 41.816078 125.650238 39.990158 82.049210 71.259178 82.152878 35.148109 51.361771 56.006889 69.211281 72.530952 31.382240 51.936104 104.038399 69.656136 111.247223 220.420334 86.067505 36.305973 23.474369 117.903900 39.456310 58.527454 38.092560 55.481228 81.534798 139.836563 60.263206 26.758848 81.585945 69.137695 81.483711 32.269974 87.692513 28.148918 89.441544 74.826241 53.738842 80.177559 63.686581 28.695499 50.839718 60.940956 44.659340 61.575756 111.533447 24.445112 51.280758 88.830605 46.914864 371.565704 53.124184 75.042122 70.106735 56.839161 51.079342 43.875843 44.690033 228.354691 298.960907 215.311264 43.875843 43.205315 60.713352 101.362434 43.964840 134.416534 201.312698 83.632156 57.088673 67.382385 189.023254 113.479927 72.774483 83.364105 81.791199 113.777779 19.340868 103.789307 43.816711 201.156998 81.330833 60.713352 30.671698 88.227951 58.685921 65.913834 42.499348 193.379929 91.583099 57.747780 104.121696 115.701065 97.780449 123.973305 35.825897 140.213470 64.700500 127.310814 49.410336 92.101982 68.052330 65.089088 91.197754 29.529518 86.814423 67.874741 54.504612 77.317482 65.350754 44.264126 83.417572 122.340546 60.543762 106.859489 44.445660 63.937069 86.756508 66.452736 41.628681 62.583252 20.642540 28.695499 57.696541 73.349129 113.183640 102.561516 128.000000 75.215729 90.752266 83.847839 48.273201 79.540062 38.498520 72.611946 58.580181 50.602333 61.227871 81.739784 78.060020 60.826942 47.706532 69.100960 66.759750 90.185852 82.885918 39.576385 28.100260 47.255814 43.875843 60.656715 60.487442 116.114288 82.465439 77.594269 43.757740 149.394608 60.770092 34.205154 34.735043 262.061462 106.161636 50.959248 65.780472 58.057144 58.685921 47.153011 75.433876 62.946758 83.793816 92.232628 41.548882 23.272728 37.413120 50.760342 99.501144 97.268509 115.701065 
/features/features.5/conv/conv.2/Conv_param_0 284.257935 287.716827 226.959854 294.226257 210.945663 293.893799 182.651688 236.236145 291.914703 222.684937 178.147949 343.134552 348.888000 253.752197 263.388367 260.878632 163.994949 259.188843 298.275238 153.358490 225.386475 380.814056 295.731659 159.372543 244.451126 290.123810 224.027557 187.254135 257.138916 159.862320 308.353302 213.718979 
/features/features.6/conv/conv.0/conv.0.0/Conv_param_0 2157.354004 3225.996826 4155.303223 6822.189941 2821.380371 1161.142822 37449.144531 1190.370728 1252.720093 2719.958252 1694.436523 1106.791504 1698.586182 2102.847900 1849.571533 1839.759521 2669.362305 2609.113525 1053.553467 1682.108276 2664.235596 1106.791504 1352.905029 2281.543945 2274.063477 1939.205933 1434.023438 4595.843262 3055.459717 2765.140137 1512.186035 2781.775391 2102.847900 1425.183594 1181.583252 1180.242798 1933.799316 2032.992676 1135.170776 1933.799316 1634.538940 1695.817383 2955.636475 3402.727783 1360.868530 1184.947632 2399.963135 1640.984253 1744.147583 1611.749023 1718.222900 1002.296753 955.357239 1937.400391 1903.721924 1460.188110 3084.904297 2912.201660 1259.544800 1400.247681 2716.407227 4028.592529 6022.483398 2214.760986 1723.917114 1409.734375 2092.275635 1592.018311 821.788330 1917.758545 1495.879272 1766.356567 1669.958252 1223.261597 1553.971680 3308.057129 3491.221436 1402.134766 1473.631714 1631.974854 1536.756226 1640.984253 2218.302734 1460.188110 1522.141968 1457.120483 1560.966187 2439.352783 2276.551514 1433.035767 1673.988770 3790.105713 1195.156860 1713.976929 2080.768066 1544.742432 1367.127441 2280.293701 1725.346558 3366.938477 1761.869629 2672.791260 1776.915405 962.427368 2581.597900 2032.992676 996.536377 1511.087891 2324.880371 1757.405396 1545.890015 1395.552002 1272.640991 1795.313232 1619.274658 1893.328491 2968.285400 4362.197266 2136.312012 1188.331299 2632.217529 1197.909058 1688.935059 2599.335449 1575.146118 2191.435547 1543.596436 1770.866333 1522.141968 1661.955322 1731.088135 3037.617432 1066.513550 1494.804565 2310.680664 2306.838135 1751.488159 1631.974854 3147.909180 1308.659180 1528.852295 1648.786011 1675.336548 1600.590820 1264.904541 1977.916382 1228.316406 1410.690186 2104.975098 1264.904541 2093.327881 1470.507446 1422.261108 2114.601562 1556.296143 1278.113037 1705.547485 2140.707764 1923.075806 1924.854736 1342.430908 1795.313232 2267.866943 1324.486328 1251.213501 2122.149902 3479.545166 1716.805298 1957.448730 2334.007812 1851.217041 2642.245117 1335.537842 1201.367188 1640.984253 1599.360474 2129.752197 1378.905273 2739.655029 1401.190552 2220.670166 1488.389160 1886.462402 1419.350586 1480.973633 1761.869629 1652.714844 2128.662842 1851.217041 1833.275757 1321.961914 1831.661987 
/features/features.6/conv/conv.1/conv.1.0/Conv_param_0 86.295952 43.349335 77.919716 25.183578 148.287338 157.729538 3238.549316 166.195526 93.965317 71.929207 128.189255 119.419655 80.925949 82.622620 72.248886 56.346619 36.448429 50.562984 180.873428 111.917381 53.605934 56.006889 108.283096 52.822094 57.441696 66.283386 213.718979 49.674561 68.302521 132.973419 185.782852 52.354267 73.349129 219.675674 98.521210 72.450142 49.148903 93.024323 227.754822 75.172256 41.896908 105.472832 57.645390 50.328175 102.238991 179.006195 28.771681 53.872410 99.806602 103.376785 130.767227 85.557892 177.539932 107.834160 47.882179 98.149437 60.207409 57.189095 120.862457 82.465439 55.671234 25.885351 26.540409 85.333336 233.689133 46.050991 105.816109 173.281815 175.148819 76.229774 54.231861 66.725502 122.340546 61.751186 74.826241 31.657253 35.205196 178.637360 107.923653 69.285027 36.004429 111.247223 76.007011 54.734005 85.557892 360.993744 71.770416 74.355629 94.787170 81.739784 110.773422 36.571430 100.656349 85.896965 77.686974 30.934349 66.148521 110.023689 38.182034 34.642513 87.456627 71.298248 62.283524 39.194695 47.290180 154.268097 105.046852 86.067505 102.238991 34.959141 62.105061 194.101486 69.955887 71.494225 73.639862 78.389389 34.959141 48.344982 47.566936 66.588837 61.809887 59.220402 108.463722 55.245541 69.805687 54.096504 201.781219 56.839161 135.466660 41.495853 126.752434 70.220299 57.189095 70.639870 132.162598 76.634064 54.367893 105.644188 32.840405 79.588737 49.712540 135.185028 63.068867 158.788773 110.210167 93.090912 82.517769 190.826126 47.917465 73.225227 109.837837 52.102566 161.050156 87.989174 116.949638 64.221237 164.305756 90.499649 38.774002 39.006599 113.678322 77.594269 79.980316 66.828369 158.885773 73.349129 64.991501 84.010338 92.495018 58.580181 33.813831 44.143925 233.269958 45.439552 57.492485 78.106911 78.673927 31.082218 50.562984 384.757385 49.674561 147.949936 93.829727 81.330833 205.935074 125.407906 150.344513 87.515480 58.422283 101.758995 85.054283 108.013290 
/features/features.6/conv/conv.2/Conv_param_0 214.955368 231.608185 220.047379 287.876038 210.945663 189.574341 203.996857 214.423737 250.092300 182.780045 134.416534 356.784637 333.029449 304.740479 326.753754 205.935074 141.587372 198.698242 301.735504 152.728134 192.663696 181.631287 247.710480 217.471573 182.780045 156.120041 185.385605 227.954422 216.026581 160.157639 175.030960 169.775452 
/features/features.7/conv/conv.0/conv.0.0/Conv_param_0 724.501404 1357.317627 1713.976929 953.605896 1834.892456 2159.593262 1987.361938 1170.944336 872.073792 1128.399170 1375.259766 1072.560791 1888.174194 2446.523193 3094.078857 1212.568726 1790.678101 1161.791138 2141.809570 775.248901 1088.837280 1433.035767 5563.550781 775.826965 1261.071533 2645.604492 1406.874878 1012.046692 1136.410645 929.744385 1234.144775 1112.710205 1333.825684 1062.158203 1337.254517 1695.817383 1168.314453 1080.357178 882.429199 1312.787354 1728.212646 2397.198242 1333.825684 835.649780 1172.924438 1866.159668 1029.573486 999.408264 1776.915405 1680.749634 794.792969 1184.947632 1721.065308 1917.758545 954.480713 1856.171265 1651.403198 913.418762 1465.329590 1359.090820 1565.664429 3347.977539 965.105774 1178.237793 1856.171265 1186.298706 1615.503052 1476.769287 1201.367188 1353.785278 763.304504 905.469116 1098.610352 1523.256226 918.255981 2943.094727 4235.660156 1285.218018 2989.609131 827.672241 1392.749634 1021.486511 809.637329 2614.030029 1098.030640 3944.583984 1669.958252 1223.981201 1126.566284 1012.046692 1458.141602 1507.802856 1000.369202 944.087097 2024.093384 2560.945312 1064.331421 940.672668 958.879272 797.840515 811.531982 2378.020508 940.672668 1626.870972 1443.974976 878.702698 1624.330933 1957.448730 1110.927979 1672.643066 2267.866943 1779.955566 1354.666626 1836.511963 1053.553467 1317.775757 987.081604 1213.983643 3292.354492 949.255493 1353.785278 1186.975464 1006.174072 1786.066895 1610.501587 916.637878 2100.724854 1341.565430 1381.652100 1059.993896 1072.008301 1441.973633 1286.807617 1508.896362 928.085632 1981.683838 984.280029 1252.720093 1145.166748 1790.678101 1515.490112 1637.110962 2083.893799 1018.985291 934.756531 1556.296143 896.110229 1154.058838 1195.156860 2586.411377 930.576050 964.211304 1222.542847 1165.043701 1675.336548 1466.362183 2026.064209 841.054138 3082.619141 1518.808716 1005.201904 926.432739 1442.973633 1324.486328 1516.594727 825.701599 986.145996 1080.918457 1451.023682 1385.331543 902.327820 2429.384766 1661.955322 864.106323 872.805359 1037.272217 708.226013 1276.544800 924.785767 1219.676392 1866.159668 583.829407 1410.690186 1299.667725 1577.534546 1647.480591 1301.293335 1815.678833 1478.868530 1269.535034 1044.562256 965.105774 
/features/features.7/conv/conv.1/conv.1.0/Conv_param_0 336.911926 275.525421 121.540184 189.436264 232.852280 152.997650 165.666245 199.154678 322.499695 168.455963 189.023254 230.991119 223.258362 155.932861 165.140320 205.284927 179.872757 152.191925 114.579735 297.592682 172.706512 286.134216 57.189095 173.628845 238.183151 82.308861 191.669861 282.713043 205.935074 212.670486 259.706451 229.766785 170.554749 161.349869 220.982162 140.364807 219.675674 184.596161 191.669861 241.500458 293.727844 84.721825 108.013290 266.491791 218.018448 84.227982 157.062805 216.206146 181.251572 193.379929 311.119629 245.837433 147.196381 192.094528 338.666656 215.133163 252.520386 202.409332 197.341431 283.637939 216.386017 63.376217 267.726196 139.163193 233.899277 230.173447 203.836990 120.862457 190.826126 363.770630 182.395508 369.980072 226.170441 209.924133 189.989777 151.659470 51.811951 153.448975 97.854027 175.266846 156.307693 193.379929 214.955368 86.295952 271.357330 77.179825 207.082809 204.800003 212.323273 239.940964 266.491791 222.684937 301.211334 199.307281 151.571091 73.765175 175.740540 386.185608 154.819046 285.506042 279.823547 171.793930 141.279739 261.271729 154.634964 273.210083 216.026581 158.885773 134.416534 177.418823 140.744583 193.236252 265.946838 141.203033 235.168167 319.724640 391.710846 162.357056 88.769966 147.446716 211.804565 160.256317 200.227875 281.489166 223.834763 337.787018 246.070007 228.957748 302.613159 196.595612 206.098251 101.918495 216.746674 199.920059 181.631287 178.883087 313.746674 276.257050 224.802078 80.574966 223.258362 78.342171 86.988632 189.023254 167.156815 218.568069 351.718719 246.303024 142.128967 89.998619 139.987076 280.578217 219.675674 137.471466 189.023254 200.382126 115.495560 203.358871 172.021164 292.078613 215.668320 181.631287 135.891327 201.312698 203.517990 185.121704 125.407906 211.804565 304.205841 244.681091 261.009521 94.374458 87.929680 315.650482 343.814941 176.097488 270.651398 204.317368 218.018448 359.000702 233.479355 292.242706 288.354767 161.952682 257.776001 298.789215 170.219894 77.088326 202.094788 191.811203 184.073608 98.372162 
/features/features.7/conv/conv.2/Conv_param_0 337.348907 235.594208 331.543671 270.651398 293.065918 243.535583 357.274719 265.133545 359.496887 272.351837 348.420624 304.740479 326.343781 260.356354 333.242798 308.353302 317.577545 347.954529 311.865723 248.420242 218.936020 183.683609 310.562378 249.852066 326.753754 325.119995 304.562073 267.726196 295.563629 346.332886 300.168488 306.355713 313.557556 359.745514 319.921265 251.543518 316.611084 280.881195 296.405701 323.502502 287.716827 219.675674 338.006500 248.895691 294.226257 288.674805 289.800568 212.323273 342.006561 314.886200 304.562073 359.496887 232.852280 259.836151 291.424103 317.190247 333.670288 342.006561 303.142181 305.635712 281.184875 340.217133 308.170624 268.278503 
/features/features.8/conv/conv.0/conv.0.0/Conv_param_0 2846.467773 2607.478760 1757.405396 2698.791260 1339.837769 2055.079590 1664.614380 1285.218018 2908.131348 1270.310181 1804.655640 3566.011963 2286.558350 1562.138184 1558.627686 2168.596191 1688.935059 1955.609009 2711.098389 2145.121582 2505.440186 1445.981934 2382.104248 1907.211792 2576.802490 2586.411377 1639.691040 1843.018555 2091.224121 2239.793213 2748.702881 2372.597412 1690.307007 1549.343262 1213.983643 1095.141113 1709.751831 3084.904297 2091.224121 1425.183594 1514.387207 3712.342529 2568.849365 3136.048340 1900.244751 2053.051758 2484.499023 2430.803711 1479.920288 1421.289673 2030.017578 3436.445801 2714.635254 1160.495239 2262.934082 2054.065186 1551.653931 3345.286133 2922.427002 2382.104248 2763.304199 2737.852539 1773.885742 2660.828613 2373.950928 1159.202271 2660.828613 2096.491699 1826.837524 1755.922363 1628.143921 2384.834473 1184.273193 2348.496582 2211.230713 4489.251465 2330.087402 1994.983643 1953.772827 2395.818115 3261.391846 1881.345337 2757.810547 2556.226074 3903.879883 1671.299561 1654.028564 979.645935 2049.008301 3380.614014 2889.955566 2317.113525 1028.555664 2134.121094 2856.236084 1560.966187 1881.345337 2695.295410 1671.299561 1433.035767 2057.111328 1735.419556 2695.295410 2889.955566 1072.560791 1976.037964 1854.516968 1790.678101 1663.283813 1231.952637 3080.337646 1735.419556 1307.836548 3305.429688 2239.793213 2491.937744 4044.252686 2115.676758 2418.091797 2064.253906 1919.527710 2502.427002 1939.205933 1571.577026 2588.020020 1229.768311 2688.330811 1388.104126 2584.804932 2300.462158 3096.380859 4805.468750 4071.953125 2012.348145 1742.686768 2877.964111 3383.362549 2317.113525 1532.229736 1307.015015 3089.484863 1414.526123 1732.529541 4020.807617 2228.996338 1500.193237 2405.512207 2539.070068 1605.530884 2294.121338 1955.609009 1917.758545 1578.731445 1452.036255 1836.511963 2022.126343 1939.205933 1547.039429 1841.387573 2022.126343 1881.345337 1441.973633 3228.499512 2078.689209 2610.750244 2348.496582 2130.842773 3442.130615 2408.296387 1773.885742 2126.487549 1690.307007 1471.547363 1351.148071 4998.842285 1590.801270 1874.565796 1577.534546 1818.853149 1776.915405 2564.101074 1396.488647 2932.724365 3377.870117 1686.197754 2351.150391 3380.614014 2741.459717 1976.037964 2974.650391 2844.522217 2104.975098 2121.068359 4550.613281 1784.535156 2789.233154 2633.883545 1959.291870 1760.379028 1609.255981 3456.425293 2429.384766 2889.955566 3541.732666 2156.236328 2600.959961 3442.130615 2864.099121 2176.535645 2040.969116 3107.943359 2540.620361 1513.285767 1744.147583 2455.183594 2856.236084 1083.733276 1851.217041 1307.836548 3970.931396 1289.998779 3397.172363 2364.509033 1150.867310 1950.110596 1766.356567 3356.077393 1473.631714 2270.341553 1861.152100 951.860962 1871.194214 2412.484619 2175.397705 1327.867310 1294.010010 1941.014893 2728.875977 1451.023682 2016.248047 1884.753662 1849.571533 2119.987793 1959.291870 3903.879883 1581.130737 1635.823853 2981.042969 3800.489502 2379.380127 2914.240967 1672.643066 2704.052002 1715.389893 1184.273193 2032.992676 1942.827271 1467.396362 2517.565674 1295.621460 1964.842285 2351.150391 1342.430908 2378.020508 1856.171265 3155.069092 2160.714355 2693.550781 1373.444214 2945.177734 1432.049561 2794.853027 2127.574707 1656.662476 3064.459473 1847.928955 3006.890137 3157.462891 3933.398926 2592.857422 2219.485840 2170.858643 2372.597412 3243.597900 1659.304565 1425.183594 2581.597900 1761.869629 2189.129883 3505.927490 894.569214 2116.752686 3004.719238 2281.543945 3233.516602 2221.855957 2987.463135 3337.238281 1678.038696 2199.543457 2351.150391 2491.937744 2766.978760 2378.020508 1408.779907 2938.937744 1608.012329 3419.503662 2697.042236 2073.510742 2014.296265 1343.297607 2757.810547 2581.597900 1313.616211 1600.590820 1088.267822 2139.607178 2282.795410 2798.612061 1436.002808 2233.781982 1919.527710 2347.172119 1457.120483 2766.978760 1675.336548 3011.241699 2269.103516 2600.959961 3039.836426 1480.973633 1480.973633 2018.203735 2034.980957 2205.371582 2230.190674 2543.726074 2134.121094 2117.830078 2627.232422 3485.373535 1891.607300 1216.112183 1693.057739 1787.601318 1540.168823 980.569275 2284.048340 2282.795410 2953.538574 1781.479492 1638.400024 1810.938232 2468.289551 1718.222900 2067.330322 2522.143066 1555.133057 1185.622803 1092.266724 1375.259766 2449.403076 1959.291870 3174.321777 2674.509033 3279.382080 2282.795410 1648.786011 4281.415527 2099.665039 1482.028442 1705.547485 2309.398438 1416.452026 4694.344238 1812.515625 1441.973633 1820.444458 2071.446533 1687.565308 1843.018555 1723.917114 1625.599976 
/features/features.8/conv/conv.1/conv.1.0/Conv_param_0 38.889954 81.585945 63.376217 39.941032 87.929680 69.100960 77.134048 275.088318 81.330833 43.291611 90.499649 40.462975 74.017075 71.415703 72.652512 109.560234 119.200737 72.248886 96.618126 83.364105 178.760132 257.648346 82.049210 242.626862 56.103539 67.173553 88.648941 109.930687 98.223564 100.500771 51.770702 85.501640 100.812401 233.689133 95.413063 103.955238 246.070007 82.622620 88.347824 277.583771 97.780449 45.155556 31.796577 66.486710 92.363640 91.133850 48.890224 41.575447 54.734005 91.841805 28.246742 56.690498 62.703953 67.733330 90.436714 100.268311 330.910950 36.305973 105.988586 85.109947 81.127884 38.475739 63.655407 50.367157 99.425079 266.082855 82.152878 172.021164 73.473450 71.181168 60.600185 43.581768 391.710846 91.454292 48.743629 48.707115 89.380066 95.343109 52.908054 90.311111 30.300093 39.123947 53.872410 70.832245 80.078819 270.510651 139.536484 69.843178 133.041428 49.000755 62.045803 56.297836 229.969940 213.543518 116.949638 251.543518 76.095963 99.653641 273.066681 51.361771 61.809887 68.917862 58.369839 59.819687 85.783638 80.574966 54.367893 134.208466 78.578850 44.324471 93.425285 84.832352 288.995544 55.386711 70.448540 102.400002 35.493450 58.109024 62.583252 41.602047 100.113937 83.204094 292.242706 41.024605 83.471115 238.183151 91.325844 264.459595 68.087959 64.031509 66.554756 83.417572 35.416122 55.910576 40.064079 62.045803 33.345642 94.856308 79.345940 310.747894 74.398170 109.652611 91.906715 60.263206 112.790977 52.523426 57.543362 96.546402 96.546402 22.960451 118.118073 85.896965 85.333336 303.850464 94.169441 102.319435 98.521210 64.031509 180.622223 191.811203 253.258026 92.692802 46.445713 94.237679 89.998619 52.102566 72.815231 34.151260 57.189095 31.503876 269.111237 140.820786 93.157593 80.425476 75.259262 174.913254 81.739784 59.274384 174.678314 140.668472 67.981178 82.049210 62.343239 102.804741 73.890907 56.249134 68.844894 35.377583 87.692513 100.578499 111.533447 104.456223 50.999214 60.826942 51.200001 58.951950 51.443039 75.085449 276.403839 162.255768 59.985241 77.873055 94.306023 69.805687 62.403072 83.364105 46.578796 69.507217 65.154312 83.364105 75.565369 86.583221 285.349426 257.520782 63.314507 71.025665 98.595909 188.475357 108.103073 54.550335 59.005444 65.680809 81.997475 98.745636 77.594269 74.355629 136.461700 47.882179 91.261757 64.539948 53.342083 51.811951 38.820297 93.627068 50.602333 100.191063 108.463722 69.507217 40.947102 106.684166 86.872414 64.348343 72.490524 207.744415 70.755165 70.296219 55.433929 96.906113 52.396454 54.413387 106.422256 92.363640 81.534798 113.678322 59.600368 244.911484 105.387360 316.226135 94.101303 197.341431 52.865040 113.380997 76.997040 188.885986 74.783211 49.865032 42.527142 65.581444 53.254711 63.007751 44.875088 78.960533 45.953358 100.578499 69.470085 85.054283 108.735786 70.106735 60.487442 100.268311 44.875088 67.035049 80.029541 36.924477 101.520683 513.262939 105.902283 84.337227 63.252918 58.161003 334.528625 71.454948 37.284405 74.483391 55.910576 63.655407 45.281338 40.639999 191.528717 98.670715 96.546402 199.002289 121.200371 82.049210 51.688393 37.607864 79.735130 52.102566 48.816818 73.514977 115.393082 269.949158 87.222000 92.429283 239.719818 75.829735 205.447083 83.578407 84.446754 71.651794 91.390022 137.471466 264.190948 106.422256 38.983215 97.414230 109.560234 53.254711 76.007011 118.118073 86.410629 49.712540 42.086731 99.425079 123.973305 72.652512 130.373932 89.441544 80.078819 61.927620 105.216827 53.517696 96.403259 248.420242 109.652611 49.674561 112.986969 49.223316 39.576385 66.418793 40.716343 51.079342 95.064331 37.651417 54.780117 71.691292 44.384983 247.004745 51.119495 72.978676 263.121887 53.738842 125.771759 171.793930 131.627533 90.499649 48.237389 315.650482 113.579041 52.144348 68.954399 376.950714 45.920902 165.140320 93.024323 44.384983 67.910179 68.590714 83.793816 75.433876 79.056534 122.571159 81.791199 367.107971 
/features/features.8/conv/conv.2/Conv_param_0 355.808472 419.848267 355.808472 324.107178 364.025208 377.771973 328.404053 233.689133 328.404053 403.562439 411.870148 333.884460 386.185608 329.027191 332.603577 430.979279 332.391052 509.243256 314.886200 392.006042 451.163910 343.134552 327.576813 240.606842 315.076935 337.348907 338.006500 436.769104 260.096008 290.610046 266.628387 388.783264 492.140015 472.901825 230.991119 477.240356 260.747864 333.670288 436.036896 530.808167 352.194977 417.154785 397.093140 350.297638 296.574677 439.351349 331.543671 234.532013 322.100311 412.523407 326.959137 182.140060 221.546844 355.808472 341.781860 351.956696 268.694214 395.884308 356.295898 219.861374 280.124939 297.763031 433.132385 402.313995 
/features/features.9/conv/conv.0/conv.0.0/Conv_param_0 1744.147583 2796.731201 2101.785889 2049.008301 1838.134277 2497.920654 2379.380127 1985.465698 2684.861816 2065.278320 1912.470581 3430.779785 3084.904297 2419.497559 3269.077881 2737.852539 3019.982666 1265.673950 2254.353271 1898.510986 3133.686768 2475.631104 2584.804932 2676.229004 1330.414307 1941.014893 4691.697754 1895.052856 1316.941772 1725.346558 2529.809082 1751.488159 4720.971191 2331.392822 2411.086914 4257.325684 1389.958618 2435.070801 1514.387207 2936.863770 2475.631104 1908.961426 2573.615234 1713.976929 3055.459717 2269.103516 1758.890991 2599.335449 3752.512207 1757.405396 2108.174316 1784.535156 1745.610718 3345.286133 3867.598633 2774.357422 3575.202637 2559.370117 2893.974854 2139.607178 2739.655029 2796.731201 3098.686523 2734.254883 2166.338379 3143.154053 1891.607300 2836.766113 1741.228394 3814.423584 2638.894043 3618.727051 2419.497559 3078.059082 1425.183594 1817.264648 3462.176270 2910.165039 2588.020020 2809.949951 9826.531250 2018.203735 2698.791260 1570.390991 2328.783447 1799.972290 2145.121582 3885.654541 2068.357910 3310.688965 2304.283447 3188.916504 52182.269531 3769.507324 1948.284668 3100.995605 1903.721924 7000.060547 2804.269531 1939.205933 2000.738403 3315.964844 1543.596436 2415.284912 4694.344238 1261.836304 1964.842285 2044.980835 1905.465210 2032.992676 3436.445801 5029.046387 2034.980957 2588.020020 11002.078125 1447.994385 2332.699463 1521.029297 4895.924805 2732.459717 2440.783691 2570.436035 3817.922852 1886.462402 1575.146118 3157.462891 3208.585938 3080.337646 2509.973389 2239.793213 2640.568604 3482.456787 2168.596191 1951.939941 2217.120850 1558.627686 1953.772827 2014.296265 2572.024658 3103.307861 1741.228394 1888.174194 1998.816528 1896.780273 2144.016602 1910.714478 2991.758545 2114.601562 5820.330078 2778.061523 1640.984253 3444.980225 2376.662598 1917.758545 2520.615479 2296.653320 1778.434204 3388.873047 3263.949707 2355.142090 3258.837891 1968.560059 1891.607300 1932.003662 2607.478760 2534.431152 3321.257812 1344.165405 3274.221924 4498.958008 1387.178711 2112.454834 1646.177246 1407.826782 1504.532227 1297.236938 2466.826416 2700.542480 2959.840576 2564.101074 2643.923828 2113.527588 3055.459717 2190.282227 1633.255859 3068.979248 2676.229004 1628.143921 1886.462402 1723.917114 2840.638916 2384.834473 1933.799316 2487.469238 3080.337646 2324.880371 2128.662842 5035.131348 1436.994507 1814.095947 2122.149902 3062.204590 3982.331055 2372.597412 1663.283813 4783.374512 2173.125732 2300.462158 1767.857300 2387.570801 1948.284668 2637.221680 3302.806396 1461.213501 3590.626465 2491.937744 3790.105713 1841.387573 14047.378906 2118.908447 2618.965332 2397.198242 2704.052002 2045.986206 1950.110596 2711.098389 1989.261963 1942.827271 2460.991211 2136.312012 2425.137451 1766.356567 2191.435547 2517.565674 1754.441772 3903.879883 2455.183594 2247.049561 2891.963867 3402.727783 2934.792725 2754.160156 1563.311768 2334.007812 2264.165283 2638.894043 2783.636230 2516.043457 1682.108276 2860.162109 2614.030029 1570.390991 1688.935059 3334.564209 2654.040771 2765.140137 1177.571045 2367.198975 2211.230713 2158.473145 2249.479004 2063.230469 2537.521973 2723.518311 2020.163086 2111.383057 136025.687500 2511.488281 2556.226074 2427.967285 1948.284668 2361.825195 2794.853027 3364.216553 2513.004883 1779.955566 1915.992676 1841.387573 1968.560059 1708.348145 2607.478760 4308.008301 2230.190674 1939.205933 2604.215332 1405.924316 3900.221191 2477.104736 4764.208496 2360.485596 2750.519531 2081.808838 2743.267090 2405.512207 3050.979492 2427.967285 2475.631104 4670.635254 3494.152832 1869.513062 1719.642944 3397.172363 1838.134277 2928.596680 2380.741455 1817.264648 1809.363525 2070.416016 1957.448730 1767.857300 1488.389160 3790.105713 2785.499268 2548.399170 2150.664551 3179.171875 58561.632812 1831.661987 1559.796143 2405.512207 2453.735840 1642.279419 2761.470459 3334.564209 1935.598145 2092.275635 1847.928955 3520.758057 1451.023682 2584.804932 2010.403809 3176.745117 2433.646729 3315.964844 3676.268555 2817.559814 4550.613281 2236.182617 1656.662476 3169.486572 2539.070068 2201.870850 2361.825195 2732.459717 4654.961914 1381.652100 3094.078857 1846.289307 3098.686523 2761.470459 2642.245117 1325.329956 2289.073730 4890.171387 3110.266113 1998.816528 2754.160156 3864.007324 2082.850830 2301.734619 2384.834473 1570.390991 1638.400024 1809.363525 2148.444092 4403.741699 2179.956055 2164.085205 2395.818115 2643.923828 1820.444458 2010.403809 1784.535156 2097.548340 1883.047974 2319.696777 2891.963867 2045.986206 1823.635376 1719.642944 2344.527344 1900.244751 2838.701172 1739.772583 
/features/features.9/conv/conv.1/conv.1.0/Conv_param_0 81.330833 51.647339 81.997475 69.285027 30.846300 68.230850 48.201630 72.937744 77.826454 83.632156 85.221497 30.934349 68.374344 95.133873 60.096119 79.249237 57.543362 254.000000 63.376217 89.380066 43.033752 87.339157 91.971710 54.051537 83.956100 57.038597 25.222652 227.555557 65.747223 263.121887 58.161003 102.804741 40.947102 95.905602 90.752266 67.662849 61.809887 199.154678 74.185966 53.037521 45.124218 238.401474 99.197556 53.917080 68.195068 89.318680 69.993538 100.423164 71.259178 185.253555 110.679146 92.298080 269.250519 96.260551 83.956100 89.441544 49.560974 75.433876 50.562984 43.262806 55.766724 126.752434 62.643547 87.163536 178.514755 104.121696 339.329407 87.633423 44.690033 41.816078 48.707115 79.297562 79.588737 116.426140 156.778778 43.234043 83.150894 123.385201 91.841805 72.978676 20.332708 155.373947 60.940956 39.218334 86.067505 73.514977 208.577393 40.014771 117.266006 78.484009 41.682053 75.346466 169.443649 39.265701 40.895599 63.068867 292.900909 36.044346 69.027603 68.159332 209.754837 68.338409 109.284035 266.355347 35.905025 84.777054 190.966232 71.533554 257.520782 80.276543 98.971077 43.234043 101.520683 75.962616 11.242047 182.780045 67.347488 56.006889 38.114887 69.618843 254.000000 77.501785 45.092926 377.497833 130.767227 116.739677 74.955620 62.643547 69.432999 104.877419 96.331848 49.074718 88.709412 289.800568 80.078819 197.491272 262.855988 185.650253 97.633636 114.478874 156.495789 299.822479 89.626465 291.750977 133.177673 54.550335 132.837585 110.585037 37.673233 80.775154 196.595612 64.959038 107.655632 171.341232 80.725014 80.574966 146.781036 49.297955 64.475952 113.977211 87.870270 70.524948 91.390022 126.752434 71.415703 66.182190 54.006645 82.413177 121.540184 87.280540 180.747742 129.723694 76.679245 294.893433 224.220688 78.578850 264.325195 172.477448 52.693680 78.626358 64.000000 325.934845 100.113937 241.052826 72.329254 126.137733 123.855240 58.109024 77.088326 96.189346 106.161636 53.605934 50.484470 88.769966 84.666664 73.184021 93.024323 58.161003 66.486710 76.815125 92.101982 58.005352 43.964840 121.996246 123.855240 50.879498 99.197556 50.919342 178.026016 85.277374 39.289425 93.829727 248.895691 50.562984 88.528252 268.416931 60.600185 204.317368 14.062284 53.961826 77.640594 219.120468 72.329254 63.007751 129.853226 59.764706 106.947365 230.173447 102.158684 90.311111 127.062042 60.319111 366.074585 101.838684 231.814621 72.450142 97.927711 49.712540 71.810051 110.116852 150.344513 72.896858 173.744827 23.107321 88.830605 81.534798 56.297836 54.872574 56.493484 76.319252 186.716446 80.624924 104.624298 76.951477 61.868698 74.740227 146.039307 230.786163 78.721550 180.246704 108.013290 100.812401 94.856308 192.521103 87.810936 70.258240 2121.068359 46.379459 76.997040 117.690498 73.473450 152.281036 64.539948 44.875088 160.355118 266.082855 204.477982 94.306023 61.227871 74.228310 103.459030 64.189537 73.639862 109.375946 85.165688 106.161636 46.712643 82.675140 40.869892 93.291245 39.867565 121.653885 70.031235 96.618126 47.016632 90.060944 41.102402 25.559748 86.872414 63.314507 72.088692 79.491440 95.413063 43.994587 47.221497 198.546570 158.017014 88.168137 61.517502 50.999214 181.631287 70.220299 89.936378 142.440308 57.088673 36.695259 510.492645 62.643547 50.484470 87.397850 41.762363 270.651398 106.684166 60.826942 96.833954 61.809887 90.752266 62.463017 135.185028 84.446754 79.345940 74.313141 46.914864 33.972832 48.237389 64.475952 44.844139 74.101425 52.019199 103.294678 75.565369 56.395489 59.709827 51.770702 33.673744 195.413971 167.479721 85.333336 68.844894 269.669250 61.401321 96.260551 36.987484 29.184919 91.197754 255.748276 57.239437 81.178528 128.000000 85.783638 80.128159 36.695259 49.712540 73.142860 136.175919 50.959248 53.429745 88.769966 84.666664 52.396454 85.670616 285.506042 105.216827 286.923340 123.619774 80.177559 46.512161 76.769775 62.403072 265.810944 42.086731 70.948174 130.113052 63.130096 
/features/features.9/conv/conv.2/Conv_param_0 318.940521 372.897491 402.625397 268.694214 384.757385 367.367218 306.175385 366.332397 246.070007 349.826508 370.771210 344.954895 325.323334 411.218964 317.190247 433.854889 336.041351 507.009735 275.963928 396.185822 493.540802 362.755920 378.046509 256.884949 368.407928 403.562439 311.119629 294.726349 280.881195 276.992554 188.475357 296.913239 388.492920 508.000000 210.604050 497.315491 328.819214 330.490479 359.000702 487.071167 346.794678 298.104309 435.671692 256.884949 254.124084 394.982544 314.695709 303.673096 398.920258 480.768951 259.188843 180.873428 274.362854 357.274719 327.989899 353.631531 254.124084 318.160248 386.185608 235.168167 291.260925 405.449738 478.557495 385.327393 
/features/features.10/conv/conv.0/conv.0.0/Conv_param_0 93583.382812 1405.924316 3131.328857 3221.003174 3292.354492 3248.661865 1612.998413 1722.490112 2281.543945 2181.098633 2390.313721 2433.646729 2363.166504 2700.542480 1500.193237 2224.230957 1654.028564 2100.724854 2340.571533 2572.024658 3004.719238 2523.672607 2426.551514 4720.971191 1493.731567 1704.150757 2500.923096 2783.636230 2714.635254 1480.973633 1712.566284 3066.717773 1921.300049 3797.021973 1320.284302 1941.014893 2505.440186 1688.935059 2046.992676 2068.357910 1739.772583 2399.963135 2543.726074 1701.363892 2088.076172 2276.551514 2090.173828 1635.823853 1905.465210 2036.973022 1912.470581 3982.331055 3603.061523 1205.543457 2267.866943 1806.222168 2625.574707 1961.138550 1573.954590 2254.353271 2238.588379 2401.347900 2043.976440 2792.977295 1898.510986 2201.870850 3364.216553 1926.637085 2490.446533 1709.751831 2588.020020 1806.222168 1569.206665 1959.291870 2494.925781 2579.997559 1861.152100 2291.594727 1838.134277 2520.615479 1847.928955 2071.446533 2691.808594 1486.262817 3634.529297 3292.354492 2327.480957 3692.578613 2525.203857 2134.121094 3004.719238 4764.208496 2604.215332 2112.454834 2514.523193 3028.774414 4901.691406 2301.734619 3361.499268 2430.803711 2091.224121 1874.565796 3000.386475 2535.975586 2158.473145 2189.129883 1933.799316 2991.758545 1425.183594 2429.384766 3383.362549 2654.040771 1810.938232 2898.005615 2068.357910 2648.972656 2251.913330 2922.427002 1675.336548 1694.436523 1948.284668 2196.061279 2549.960693 3618.727051 2386.201904 3152.678711 1488.389160 2609.113525 1822.038574 2584.804932 1744.147583 2306.838135 2447.962402 2156.236328 1488.389160 2286.558350 2383.468506 3152.678711 2838.701172 2471.220947 2284.048340 2104.975098 1769.360596 2730.666748 3216.024658 1437.987549 2681.402100 2620.614502 3152.678711 209385.453125 1941.014893 2529.809082 2496.422363 2000.738403 2446.523193 2308.117676 27110.984375 2074.544434 2328.783447 2659.128418 2279.044922 1741.228394 3497.089111 2721.737061 2540.620361 2177.674561 2395.818115 1846.289307 2830.976807 2352.479248 2654.040771 1779.955566 3100.995605 2815.653564 1271.086182 2214.760986 2906.100586 4772.403809 3427.953857 2289.073730 2499.421143 1886.462402 26655.154297 2889.955566 2200.706543 1846.289307 2509.973389 1422.261108 2469.754395 1959.291870 1809.363525 1856.171265 1693.057739 3284.558838 2328.783447 3022.175781 1948.284668 2204.203369 2028.038940 2124.316406 5747.978027 2781.775391 1404.974976 3640.888916 1849.571533 1754.441772 3218.511963 3042.058594 2667.651367 2586.411377 1886.462402 1888.174194 1998.816528 2604.215332 2357.810791 1729.649170 2520.615479 2340.571533 2737.852539 2796.731201 1935.598145 3133.686768 2500.923096 1509.991333 1575.146118 1563.311768 3044.283936 1250.461548 2575.208008 2239.793213 2879.955811 3174.321777 1783.005981 2549.960693 2875.975098 2893.974854 2256.798340 2230.190674 1292.402466 3326.567627 3039.836426 2576.802490 2134.121094 2761.470459 3502.976318 2355.142090 2702.296143 2069.386475 2488.957031 1891.607300 2238.588379 2334.007812 1614.249756 1668.619141 2405.512207 2014.296265 3228.499512 1646.177246 2922.427002 2010.403809 2981.042969 4434.241699 2102.847900 2245.836914 2276.551514 1847.928955 1445.981934 6402.363281 3759.291748 2032.000000 2355.142090 46497.609375 2759.639160 2137.409424 1981.683838 3271.647705 2553.089600 1946.462158 2233.781982 2171.991699 2058.128662 2033.986328 1757.405396 3310.688965 2811.848633 2660.828613 3184.036621 2829.052246 2071.446533 2763.304199 2124.316406 2363.166504 2291.594727 3372.395508 1921.300049 1836.511963 2427.967285 2062.208008 1983.572876 2375.305908 2138.507812 3456.425293 2000.738403 2311.964355 2712.865723 2560.945312 1942.827271 2182.242188 2600.959961 2844.522217 2560.945312 1611.749023 2402.734375 2049.008301 2232.583740 1866.159668 1726.778442 1859.488770 2481.536133 3824.941162 1624.330933 1926.637085 1687.565308 2217.120850 2609.113525 2233.781982 1944.642944 2297.921631 2614.030029 2949.352295 2018.203735 2423.725098 1838.134277 2698.791260 2652.349365 2716.407227 2858.197754 2310.680664 2232.583740 3511.844727 2111.383057 2650.659912 1907.211792 2194.902832 5432.814453 2564.101074 1675.336548 2113.527588 2993.910889 2129.752197 2253.132568 2578.398926 3538.721191 3735.669678 1833.275757 2035.976562 3024.372070 2142.912354 2809.949951 2509.973389 2819.468750 3241.071533 2109.242676 2850.367188 1735.419556 1725.346558 1463.268677 6653.135254 2282.795410 3198.720947 2181.098633 1556.296143 2161.836914 1587.160889 1996.898315 2279.044922 3952.075928 2471.220947 2256.798340 2987.463135 3022.175781 4357.629395 2511.488281 1893.328491 
/features/features.10/conv/conv.1/conv.1.0/Conv_param_0 532.165710 67.208267 81.842667 164.409607 91.261757 78.200844 53.254711 75.873978 73.307777 83.044701 96.189346 70.832245 60.375114 191.952774 398.920258 74.017075 94.101303 66.215889 56.988605 64.094627 106.509422 82.727737 114.984970 35.034481 86.238724 214.423737 74.826241 85.953735 84.446754 207.578613 393.488647 51.729515 50.484470 29.028572 114.177345 200.846329 54.141548 216.206146 63.717785 207.578613 254.248291 101.599998 69.321960 109.468010 127.811302 92.167259 82.360985 152.997650 79.008507 69.768242 83.257362 57.902046 58.265232 197.641342 66.081299 147.279724 81.229233 208.912445 126.629013 101.918495 80.425476 73.390518 56.006889 108.463722 73.932915 45.920902 71.298248 222.304276 49.903301 97.195816 60.431229 85.670616 83.097763 79.735130 93.694527 105.046852 86.181580 60.151711 89.812157 55.528606 102.480690 88.048744 71.064484 79.200974 102.158684 67.981178 77.042656 94.994888 57.189095 112.986969 87.633423 38.727814 81.026794 61.868698 63.874264 77.594269 70.410393 63.314507 106.947365 250.815811 143.145844 87.456627 48.525372 68.410309 195.413971 52.186195 177.177109 30.758751 50.523697 32.094769 93.694527 75.390144 89.812157 60.375114 66.081299 67.803963 134.764771 76.498825 132.566772 77.919716 72.208771 140.137924 73.473450 50.799999 93.965317 54.687973 112.401039 75.302834 80.078819 113.977211 58.845249 223.642303 64.894211 57.543362 98.670715 242.626862 120.303421 50.959248 73.974968 74.017075 291.424103 58.738934 98.446632 140.213470 178.514755 91.390022 50.919342 117.266006 59.220402 2481.536133 29.664234 61.927620 173.744827 157.729538 77.640594 107.211868 116.844566 54.872574 84.173462 106.859489 85.277374 49.712540 46.679111 106.248367 70.448540 45.281338 94.306023 181.377960 80.574966 98.446632 122.802643 57.038597 114.883392 60.940956 176.336273 68.482361 87.989174 56.938705 49.186081 83.901932 85.221497 54.006645 169.003250 47.636631 56.103539 126.876099 60.713352 65.614532 97.780449 91.133850 145.061905 251.543518 215.133163 56.789520 121.087524 267.039001 73.932915 61.517502 67.382385 246.770401 43.291611 73.807037 90.123352 45.920902 123.035004 57.289867 104.877419 76.543846 69.955887 96.978371 71.103333 35.091202 244.911484 56.249134 117.160362 93.627068 52.396454 49.826820 63.130096 185.517838 76.364067 127.560570 76.095963 73.266479 84.998695 198.850159 156.778778 402.313995 212.323273 106.509422 65.252380 26.605564 64.063057 94.649200 40.921333 40.538654 69.918282 35.865417 58.898552 169.775452 223.834763 58.161003 85.896965 44.384983 58.898552 94.787170 45.888496 45.249825 86.468086 77.826454 201.781219 77.686974 95.834930 160.355118 180.496872 128.505936 41.655350 113.183640 58.685921 49.074718 102.804741 48.597908 83.417572 256.631470 97.123230 343.587860 99.501144 36.468872 75.042122 85.783638 135.537262 155.188538 71.337357 105.558441 85.501640 70.031235 104.288696 70.524948 95.623528 74.059227 123.151512 125.287094 139.686356 64.507935 64.380196 82.675140 53.429745 69.918282 146.946899 101.998428 63.438049 77.826454 60.319111 34.223160 114.378189 45.249825 34.115425 69.805687 57.239437 86.525612 69.321960 64.797211 83.739861 55.198643 57.492485 76.679245 294.726349 55.151825 73.019653 63.314507 199.613205 83.417572 54.231861 76.815125 85.333336 95.273262 284.102661 38.498520 81.127884 36.305973 112.595673 157.538467 206.753571 54.322472 66.249619 75.609299 113.085220 133.382568 103.130852 61.459358 116.114288 121.996246 90.060944 137.471466 188.612045 116.530464 55.292519 138.570053 76.007011 113.579041 118.440804 155.188538 54.051537 70.220299 44.751549 254.124084 110.210167 66.588837 47.601757 201.624802 89.318680 69.470085 39.600487 66.215889 85.277374 63.191448 70.486717 174.210312 166.301788 108.373337 76.997040 51.079342 245.142319 64.700500 122.225563 63.593155 203.836990 37.892773 78.389389 154.911255 62.343239 28.771681 189.160721 118.118073 83.257362 25.009232 47.988194 155.746109 77.455627 122.110802 96.689964 41.390198 92.560852 98.521210 
/features/features.10/conv/conv.2/Conv_param_0 376.133057 369.717133 157.825241 355.079865 386.185608 349.591400 386.759857 290.935120 303.673096 250.092300 344.042328 405.133942 306.355713 380.257324 520.973450 400.147705 407.035980 491.674866 276.992554 429.910736 385.613037 395.282684 380.257324 209.417068 286.134216 306.536255 247.946609 349.122162 292.406982 298.104309 206.425400 277.880341 208.912445 447.284607 293.231110 292.736084 193.812225 411.544312 343.134552 209.248596 377.771973 326.959137 393.191223 322.900055 330.700562 406.082733 316.226135 323.905365 285.662811 499.704132 302.613159 308.902618 287.240204 309.453888 392.006042 362.503143 281.489166 205.284927 342.682465 289.478027 160.157639 296.743866 466.121857 432.053162 
/features/features.11/conv/conv.0/conv.0.0/Conv_param_0 2361.825195 2600.959961 1403.080200 2485.983154 2056.094971 1869.513062 2121.068359 1241.508301 1648.786011 2983.179932 4163.617676 1941.014893 1490.521484 1332.971191 1226.145020 2145.121582 1946.462158 1989.261963 2543.726074 1814.095947 1557.461060 1732.529541 2024.093384 1838.134277 2591.242920 2478.580078 2542.172363 1818.853149 1618.015503 2038.969116 2562.522217 2659.128418 1633.255859 3112.592285 1702.756104 3155.069092 1731.088135 2456.632812 1558.627686 1820.444458 1801.530762 1815.678833 3467.946777 2082.850830 1492.659912 1680.749634 2087.029053 2295.386719 1944.642944 1555.133057 3476.638184 2460.991211 2368.546387 2119.987793 2194.902832 3274.221924 2159.593262 1090.549316 2551.524170 3157.462891 1981.683838 2327.480957 2796.731201 1362.651001 1333.825684 2468.289551 2719.958252 2718.181641 1872.878540 3544.749512 2010.403809 1590.801270 4364.484375 1592.018311 1664.614380 2928.596680 1807.791504 1679.393066 2089.124512 2089.124512 1275.762085 1640.984253 1594.458252 1412.605591 1350.271240 1359.090820 966.001831 1436.002808 1427.138550 1921.300049 2068.357910 1905.465210 1414.526123 1856.171265 1466.362183 1581.130737 1772.374756 2164.085205 1919.527710 1413.565186 2700.542480 2683.130859 2274.063477 1903.721924 2128.662842 1509.991333 1695.817383 1393.682495 1657.982422 1082.042603 2114.601562 1872.878540 3517.781982 2193.745850 2243.415527 1872.878540 1919.527710 1757.405396 3762.690674 1595.681030 1383.489380 2609.113525 2591.242920 1706.946655 2382.104248 2483.016602 2206.540771 1478.868530 2036.973022 1626.870972 2104.975098 1578.731445 1989.261963 1921.300049 2531.347900 1769.360596 1793.765503 2108.174316 1399.306030 1901.981689 1672.643066 1733.973389 1437.987549 1214.692383 1764.858398 1556.296143 1869.513062 1869.513062 1179.573730 1549.343262 2240.999512 1683.469238 2906.100586 2198.381348 2588.020020 1726.778442 1773.885742 1716.805298 1886.462402 4578.147461 2422.314209 2016.248047 2212.406250 3126.623535 1872.878540 3933.398926 1272.640991 2085.982910 1623.063965 1625.599976 2212.406250 2351.150391 2499.421143 2778.061523 994.630981 1928.422607 2092.275635 2684.861816 1549.343262 1803.091797 1335.537842 3289.751709 1826.837524 2436.496582 1366.229858 1468.431885 1893.328491 1066.513550 899.208313 1731.088135 1979.798340 1543.596436 1439.977905 1693.057739 1896.780273 1370.729858 1462.240356 2091.224121 1083.733276 3216.024658 2079.728027 2469.754395 1480.973633 2185.680664 1082.605591 2032.000000 1715.389893 2500.923096 3450.693115 1698.586182 1655.344482 1111.521362 1847.928955 1379.819580 1814.095947 2145.121582 989.899170 2496.422363 1896.780273 1795.313232 1706.946655 1579.930176 2271.580811 1584.743286 3313.324951 1471.547363 1491.589966 1415.488403 1374.351440 1582.333130 1898.510986 1532.229736 3538.721191 1251.966309 1738.319092 2506.949463 2008.463379 2106.040527 2943.094727 1923.075806 1744.147583 2576.802490 1573.954590 1199.289917 1524.372192 1684.832397 2309.398438 1549.343262 1401.190552 1102.101685 3206.114014 1423.233887 1377.080078 2398.579834 3017.792725 1955.609009 1884.753662 1589.585938 2126.487549 3948.326416 1380.735229 2718.181641 2364.509033 1254.230225 1924.854736 1874.565796 1492.659912 1268.760986 3388.873047 1332.971191 2206.540771 1583.537231 1770.866333 2821.380371 1841.387573 1683.469238 1924.854736 2102.847900 1603.057007 1690.307007 1772.374756 1218.961914 2607.478760 2102.847900 2203.036621 1522.141968 1854.516968 2304.283447 1342.430908 2602.586670 1514.387207 1573.954590 1443.974976 1723.917114 1693.057739 2004.593506 2311.964355 2026.064209 1750.015137 1019.984314 988.958191 2353.810059 1063.243774 2650.659912 1915.992676 1135.170776 1484.142700 2073.510742 1524.372192 1306.194580 1489.454590 1693.057739 2443.650146 3839.055420 1381.652100 1773.885742 2062.208008 3692.578613 3436.445801 1506.711060 1776.915405 1764.858398 1688.935059 1639.691040 2020.163086 1469.468872 2514.523193 3479.545166 1757.405396 1319.447021 1687.565308 1612.998413 1572.764893 2211.230713 2010.403809 2468.289551 3462.176270 1502.359619 3044.283936 1532.229736 1893.328491 1390.887695 5163.195801 2922.427002 1725.346558 1536.756226 1907.211792 1769.360596 1452.036255 1932.003662 2390.313721 1618.015503 1686.197754 2966.169678 1763.362671 1751.488159 1697.200684 1646.177246 1905.465210 1750.015137 1558.627686 1712.566284 2326.179932 2393.062744 2284.048340 1592.018311 1691.681274 1615.503052 1900.244751 1499.112427 1365.333374 1570.390991 1438.982056 1300.479980 1732.529541 2139.607178 2638.894043 1628.143921 2068.357910 2581.597900 1432.049561 1721.065308 1836.511963 1382.570068 
/features/features.11/conv/conv.1/conv.1.0/Conv_param_0 110.397285 61.634125 99.121948 159.080124 64.063057 233.479355 78.436668 130.373932 101.838684 100.036926 28.222221 225.973938 224.996536 65.647652 108.554260 53.298359 66.691284 64.412086 104.708534 94.580360 66.759750 68.663147 74.313141 226.170441 61.227871 43.033752 54.141548 60.151711 163.069595 61.401321 71.025665 53.650166 61.170273 45.566925 67.839333 80.276543 74.483391 123.619774 72.289047 80.475250 60.319111 122.455742 32.158260 160.652252 62.583252 111.152138 65.647652 112.498268 188.475357 88.769966 32.990360 82.465439 69.730827 60.543762 41.390198 69.618843 48.780193 58.161003 56.690498 45.695011 57.645390 234.955734 79.200974 122.686790 62.223923 108.554260 84.721825 51.483768 70.144554 60.151711 93.090912 75.215729 28.494303 200.073853 131.295303 64.252968 100.345680 66.828369 152.728134 35.034481 69.993538 60.713352 73.225227 154.543076 69.507217 57.289867 205.772156 192.094528 93.694527 57.289867 55.766724 65.482376 64.604073 56.200520 67.662849 388.202972 87.515480 82.413177 74.654419 66.862724 49.335358 51.770702 214.423737 132.297043 70.678261 126.137733 210.263535 63.686581 78.153847 110.210167 113.380997 74.869316 24.686409 97.706985 42.722733 65.747223 71.533554 228.354691 84.010338 110.585037 69.064262 136.892639 96.474777 57.239437 71.572922 73.932915 110.867859 86.698669 91.712273 98.372162 101.125969 86.353256 48.309063 118.333031 201.781219 98.595909 103.376785 111.342468 70.258240 56.591820 201.468628 248.657745 75.829735 47.671555 262.325775 104.288696 52.822094 104.205132 81.997475 64.094627 192.378693 124.567047 171.454193 64.991501 84.010338 54.734005 49.865032 83.150894 229.361557 52.779221 66.862724 62.045803 88.952118 72.008858 90.752266 24.555891 64.764938 89.013008 51.647339 241.052826 56.641113 41.258884 47.776634 158.209244 250.092300 69.730827 79.735130 63.562073 69.955887 102.238991 66.588837 113.678322 184.203964 64.571999 58.213070 55.151825 66.283386 76.229774 103.789307 51.688393 62.643547 53.254711 179.997238 110.023689 151.747955 68.302521 145.957352 232.852280 68.772079 62.343239 192.378693 84.173462 315.076935 55.766724 75.302834 107.566582 110.397285 46.346401 32.774193 70.909485 57.492485 70.448540 104.708534 60.600185 128.569458 279.974152 77.640594 82.938774 87.633423 68.087959 55.528606 67.452286 57.645390 74.740227 28.271305 157.443100 74.826241 226.959854 59.545788 59.491310 61.459358 54.006645 61.401321 100.268311 156.873337 37.782684 100.113937 53.298359 63.842907 60.883896 69.656136 49.980015 64.348343 122.340546 172.363159 51.361771 119.200737 51.606350 225.973938 220.233704 39.006599 51.811951 87.280540 147.614075 132.364380 67.138878 73.473450 262.193542 57.492485 27.931271 64.252968 64.000000 42.863548 83.524727 123.502373 111.533447 227.555557 104.372391 53.429745 202.251938 183.943420 301.910614 51.729515 34.277279 266.082855 120.414818 65.089088 73.807037 159.470261 70.068962 67.522324 68.123627 59.929955 50.641743 52.651012 62.703953 52.693680 182.395508 64.604073 53.037521 215.489639 111.437874 69.248138 95.413063 145.061905 78.626358 52.144348 61.343395 85.896965 60.998123 57.747780 70.448540 65.056526 60.600185 266.902008 160.454041 101.125969 54.051537 114.984970 78.769234 77.686974 70.220299 42.891819 33.726143 57.038597 68.374344 81.026794 32.447105 49.560974 70.296219 52.481033 61.112782 244.451126 48.059128 202.409332 50.172840 54.186668 45.566925 99.197556 80.875626 76.140518 98.297806 77.548004 272.780273 225.581955 74.313141 48.561615 76.724487 33.500259 71.181168 126.629013 155.839432 19.491608 32.222000 51.729515 52.523426 147.446716 47.952801 177.297882 60.770092 61.809887 70.182404 106.161636 33.726143 71.889442 80.128159 81.739784 208.577393 61.401321 159.470261 128.569458 72.856026 69.918282 74.313141 49.372818 61.112782 82.727737 42.471588 48.165924 56.103539 86.010582 69.843178 57.696541 67.000519 74.483391 121.426704 26.649179 130.701508 205.935074 77.594269 58.422283 71.298248 265.268738 75.259262 
/features/features.11/conv/conv.2/Conv_param_0 422.576752 537.388428 520.192017 501.148376 471.188416 497.791382 489.362183 531.621887 471.615601 511.496552 457.915497 439.351349 459.533569 419.509674 404.503876 345.413025 464.042816 557.249084 485.253723 338.446320 416.153595 503.574066 398.004578 402.003082 484.801483 445.369873 447.284607 555.760681 429.555725 391.710846 451.163910 580.571411 397.700317 358.012390 461.982239 485.253723 410.569855 399.226410 459.127991 345.413025 363.770630 385.613037 402.003082 481.213684 380.814056 494.009491 426.736664 518.894775 455.111115 427.087036 531.350342 450.382690 456.709381 473.332123 358.012390 483.000916 353.872101 364.025208 550.176636 427.789459 410.569855 399.226410 375.318909 360.243774 365.817169 448.055115 407.354736 325.526917 520.973450 511.496552 383.622406 529.727112 544.418640 494.949585 425.340973 358.258942 483.899536 312.615387 494.009491 395.282684 488.902252 379.148682 493.540802 463.629242 368.407928 441.214600 204.961380 330.700562 278.177551 342.908386 335.824402 503.574066 458.723114 480.325012 421.549438 344.726318 
/features/features.12/conv/conv.0/conv.0.0/Conv_param_0 1770.866333 1397.426514 1421.289673 1491.589966 2185.680664 1587.160889 1583.537231 1534.489624 1349.395630 1488.389160 1635.823853 2978.909180 2261.704346 1702.756104 1402.134766 1708.348145 1833.275757 1691.681274 1263.368530 1049.303101 1668.619141 1278.113037 1680.749634 1744.147583 2018.203735 1450.012573 1394.616577 1722.490112 1268.760986 1867.834839 2145.121582 1748.544556 1964.842285 3274.221924 2422.314209 1778.434204 2276.551514 1806.222168 1479.920288 1596.905640 1539.029541 2048.000000 1286.012329 2633.883545 1304.556763 1282.840942 1445.981934 1075.332275 923.144653 2181.098633 1732.529541 1770.866333 1644.875854 2361.825195 1896.780273 963.318542 1693.057739 1631.974854 2058.128662 1571.577026 1921.300049 1113.901489 1465.329590 2262.934082 1864.487427 1729.649170 1576.339355 1970.424194 1668.619141 1736.868164 1893.328491 1263.368530 1744.147583 1655.344482 1535.622192 1279.685059 1652.714844 1932.003662 2468.289551 1381.652100 2792.977295 1467.396362 1463.268677 1443.974976 1137.031738 1192.417236 1422.261108 1495.879272 2387.570801 79314.562500 82662.414062 1441.973633 1053.553467 1713.976929 1220.391846 1181.583252 1735.419556 2018.203735 1376.169312 2146.228027 1784.535156 1551.653931 1896.780273 1437.987549 2184.533447 1757.405396 1769.360596 1675.336548 2412.484619 1592.018311 1979.798340 1159.848389 1300.479980 1781.479492 2056.094971 1846.289307 1335.537842 55302.804688 1534.489624 1612.998413 1795.313232 1849.571533 1163.089966 2178.814697 2060.166260 2128.662842 1648.786011 2006.526489 1555.133057 1432.049561 1979.798340 831.641907 1944.642944 1321.961914 1812.515625 1151.504150 1413.565186 1380.735229 2955.636475 2140.707764 1831.661987 1343.297607 1403.080200 1830.051025 1377.992065 1578.731445 1697.200684 1047.718018 1471.547363 1533.358887 1601.822998 2331.392822 1924.854736 1515.490112 1884.753662 1669.958252 1664.614380 1793.765503 1537.892090 1961.138550 1334.681152 2575.208008 1688.935059 69035.328125 1876.256104 1812.515625 1529.976440 1083.169189 1852.865479 1248.211182 1249.710571 2068.357910 2068.357910 3121.932373 1676.686523 1237.815552 1619.274658 1243.734619 1032.126953 1747.076416 2487.469238 2151.776611 1423.233887 941.523987 1303.739380 1610.501587 1712.566284 2155.119629 1961.138550 1094.564941 1686.197754 1372.538208 1352.905029 1264.136108 1758.890991 1619.274658 1362.651001 1364.437988 1444.977783 1680.749634 1996.898315 2039.968628 1760.379028 1373.444214 1470.507446 1522.141968 1679.393066 1464.298340 2203.036621 1093.989502 1752.963745 1891.607300 1233.413208 1930.211548 1680.749634 1323.643799 1458.141602 1309.482666 1507.802856 1810.938232 1298.856445 1096.295044 1423.233887 1910.714478 1550.497803 2221.855957 1466.362183 1096.872925 1406.874878 2035.976562 1758.890991 1443.974976 71481.023438 3084.904297 1179.573730 92736.179688 1823.635376 1893.328491 2174.261230 1596.905640 1955.609009 1857.828613 1261.836304 1223.261597 1706.946655 2161.836914 1341.565430 1351.148071 1256.502441 1527.729858 761.070984 1341.565430 1869.513062 1369.827515 1966.699463 1861.152100 1276.544800 1932.003662 2128.662842 1549.343262 1476.769287 1464.298340 1147.060669 2440.783691 1915.992676 1739.772583 1833.275757 1867.834839 2299.191162 1414.526123 1427.138550 1760.379028 997.491821 1606.770630 1143.279175 1545.890015 1549.343262 1557.461060 1912.470581 1348.521118 1589.585938 1957.448730 2373.950928 902.327820 1701.363892 1872.878540 1596.905640 2718.181641 1458.141602 1715.389893 1898.510986 1571.577026 1345.034302 1306.194580 1067.608032 2109.242676 2240.999512 2149.553711 2447.962402 1257.261597 1381.652100 3191.362061 1678.038696 1598.132080 1935.598145 2128.662842 1769.360596 1251.213501 1836.511963 1694.436523 1544.742432 1368.026245 2815.653564 1667.282104 1170.285767 1369.827515 1234.144775 1733.973389 1757.405396 1810.938232 2409.690674 1711.157837 1482.028442 1787.601318 2364.509033 1795.313232 1297.236938 1757.405396 2058.128662 1451.023682 2118.908447 1128.399170 1859.488770 1728.212646 1814.095947 1332.971191 1320.284302 2794.853027 1155.982178 1251.213501 1705.547485 1258.021729 1422.261108 1823.635376 1915.992676 3233.516602 1083.733276 1352.026001 1509.991333 981.494324 1888.174194 1812.515625 1937.400391 1162.440186 1654.028564 1551.653931 1691.681274 1790.678101 1844.652466 1523.256226 1343.297607 1466.362183 1204.148193 2834.833740 1355.549194 1443.974976 1872.878540 1423.233887 973.231079 51575.968750 2242.206787 2355.142090 1179.573730 2111.383057 1263.368530 1457.120483 1416.452026 3068.979248 1337.254517 2197.220703 1783.005981 2000.738403 1257.261597 1078.677002 2038.969116 1630.695923 3803.963379 1792.220459 1400.247681 1457.120483 1216.823364 1531.102295 1479.920288 1041.946899 1733.973389 1343.297607 1639.691040 1585.951172 1431.064697 1647.480591 1598.132080 1519.918213 1359.090820 2274.063477 1801.530762 2096.491699 1820.444458 1248.211182 1826.837524 1560.966187 1783.005981 1961.138550 1354.666626 2856.236084 1976.037964 1140.146851 2943.094727 1680.749634 2004.593506 1705.547485 2460.991211 2020.163086 1157.912109 1437.987549 1444.977783 1795.313232 1330.414307 1879.645874 1955.609009 1699.973877 2236.182617 1144.536865 1926.637085 1402.134766 1772.374756 1704.150757 1679.393066 1712.566284 1197.219849 1395.552002 907.839417 1334.681152 1796.863525 1413.565186 1544.742432 1495.879272 1443.974976 1348.521118 1665.947144 1026.019775 2586.411377 1754.441772 1576.339355 2617.318359 1755.922363 1560.966187 1202.756104 1405.924316 1589.585938 2310.680664 1757.405396 3491.221436 2679.675537 1013.032104 4323.673828 1487.325195 2348.496582 1939.205933 1299.667725 2397.198242 1767.857300 1474.676147 1796.863525 1032.126953 1453.050293 1643.576660 1521.029297 914.221436 1579.930176 1615.503052 1046.137817 1583.537231 1667.282104 1509.991333 1079.796631 1739.772583 1755.922363 1176.239624 924.785767 1606.770630 2872.005615 1409.734375 1119.294189 1487.325195 1464.298340 1905.465210 1466.362183 1806.222168 1563.311768 1688.935059 1485.202026 1568.024170 1129.011353 2318.404541 3739.026123 1786.066895 2525.203857 1491.589966 1944.642944 1679.393066 1598.132080 1278.898560 2060.166260 1787.601318 1736.868164 2152.889893 1996.898315 1496.955444 2164.085205 1213.983643 1215.401855 1830.051025 1411.647217 2010.403809 1269.535034 972.321472 2503.932617 1192.417236 1884.753662 2284.048340 1355.549194 1514.387207 1891.607300 1258.021729 1035.723267 2237.385010 1437.987549 2065.278320 2155.119629 1179.573730 1383.489380 2596.092285 1349.395630 1330.414307 1371.633545 1511.087891 1056.227417 2535.975586 1792.220459 1295.621460 2768.819580 2046.992676 1438.982056 1795.313232 2770.663086 2265.397949 1321.961914 1015.008789 1898.510986 1763.362671 1437.987549 1410.690186 1661.955322 1216.823364 1640.984253 1761.869629 1273.419800 1342.430908 1507.802856 2144.016602 1236.344604 1562.138184 1156.624756 1355.549194 1458.141602 1571.577026 
/features/features.12/conv/conv.1/conv.1.0/Conv_param_0 99.349121 64.764938 67.981178 204.800003 98.446632 46.083630 239.499084 94.169441 134.070099 60.096119 53.783291 50.839718 59.764706 71.770416 191.247055 65.482376 88.769966 267.588470 85.953735 56.006889 128.000000 71.376511 79.637474 96.118256 49.598778 28.822695 293.893799 23.339556 267.588470 72.571426 55.105083 411.544312 55.058426 71.651794 33.726143 104.708534 62.463017 46.346401 94.925545 55.766724 74.398170 57.747780 77.271538 65.980721 246.536499 76.140518 24.481928 68.954399 32.253967 48.094673 73.890907 99.273285 102.158684 261.009521 152.817856 70.678261 52.354267 240.162506 115.701065 69.321960 105.730080 49.186081 70.678261 63.252918 38.407562 51.647339 54.642017 62.283524 83.471115 76.185120 72.693123 236.881607 49.372818 80.078819 101.047394 60.375114 84.227982 54.504612 51.936104 90.123352 59.819687 49.111782 315.267883 193.092804 267.039001 61.459358 43.640270 66.317184 199.766510 965.105774 520.192017 93.090912 185.650253 74.526077 41.842987 128.569458 219.675674 114.883392 81.077309 22.422070 196.595612 221.358292 47.359066 93.291245 70.410393 63.130096 70.870842 101.283485 58.951950 165.140320 128.951904 55.292519 301.910614 77.042656 56.542610 51.039246 43.875843 1002.296753 58.685921 190.826126 72.733780 79.882065 59.929955 76.095963 76.679245 122.340546 49.712540 59.436928 70.716690 56.346619 47.428154 12.860760 172.477448 20.358171 63.624268 320.710236 70.410393 39.006599 28.148918 86.067505 177.904236 217.108521 53.517696 40.462975 130.178177 74.228310 52.312149 98.820671 48.344982 71.651794 103.541405 65.186966 62.283524 269.250519 75.785545 47.393585 98.372162 76.997040 212.150085 114.378189 60.319111 97.414230 175.148819 1166.349731 66.047737 41.655350 56.006889 85.614220 79.345940 86.525612 98.223564 50.919342 160.454041 42.694683 164.617722 227.954422 43.698925 100.890610 253.258026 66.418793 72.815231 203.836990 275.525421 49.111782 311.119629 76.634064 179.624313 39.194695 249.612289 60.770092 42.694683 50.602333 101.838684 74.101425 59.491310 68.087959 73.639862 49.523228 71.220154 51.443039 90.752266 58.265232 40.614616 224.414154 159.177475 66.828369 75.829735 54.642017 53.517696 76.408928 87.105156 38.362244 232.021408 138.201920 189.436264 94.994888 224.220688 67.522324 202.724869 66.384888 68.123627 175.859360 55.105083 145.793716 224.414154 75.259262 55.151825 91.841805 75.346466 65.680809 59.491310 57.645390 1121.707764 55.528606 272.923401 2766.978760 188.612045 54.504612 40.488171 98.297806 89.874222 198.546570 177.418823 48.489185 81.483711 121.881912 250.815811 70.986900 55.245541 59.874771 78.769234 245.373581 67.557404 146.368042 56.444443 152.817856 121.996246 35.571117 43.494316 148.034149 122.571159 64.444000 81.637161 47.532166 52.951141 259.706451 58.213070 164.617722 73.390518 244.681091 253.504868 78.816971 196.298874 45.030472 81.381729 213.368332 154.451309 68.410309 191.669861 62.523075 83.417572 58.474819 90.311111 48.780193 247.710480 154.911255 104.456223 70.334236 42.863548 82.833122 66.862724 78.247894 80.725014 41.896908 95.203514 61.459358 43.494316 57.645390 31.111961 44.906078 108.193008 95.623528 78.673927 91.390022 174.444000 73.225227 84.943176 166.301788 84.777054 67.698074 87.870270 82.049210 36.004429 279.372711 35.668678 240.162506 44.536987 57.441696 56.542610 98.297806 121.087524 94.718132 95.553268 68.808464 64.031509 67.592514 112.693237 74.059227 46.914864 313.936035 42.778946 86.583221 226.170441 72.937744 62.583252 236.666061 65.515366 59.166515 55.105083 206.261703 61.459358 45.061676 60.713352 101.998428 75.521484 57.239437 71.969009 41.232719 61.227871 41.575447 165.245239 40.665417 86.295952 86.988632 162.559998 113.085220 78.816971 72.048752 140.973434 77.919716 276.257050 48.890224 283.328979 54.780117 259.836151 72.048752 56.055172 198.395111 209.585815 644.999390 87.929680 70.909485 83.310699 27.907295 52.481033 79.833023 77.225655 49.941628 199.307281 75.785545 190.966232 99.197556 56.006889 45.856136 61.112782 78.960533 62.583252 182.140060 59.059036 222.684937 184.858566 41.708786 52.908054 94.580360 62.643547 179.252930 43.669579 51.280758 73.307777 285.192993 44.659340 70.068962 171.115784 25.947327 68.123627 74.483391 74.869316 47.671555 54.006645 54.186668 76.229774 63.376217 79.637474 70.870842 44.968189 156.873337 41.258884 50.799999 244.451126 238.620178 42.471588 87.163536 61.809887 49.865032 224.220688 41.896908 309.269928 57.543362 94.237679 54.550335 46.018402 305.995300 84.446754 272.780273 117.160362 97.414230 184.203964 53.080818 101.918495 58.898552 99.501144 158.305542 92.692802 77.826454 239.719818 275.379578 91.776993 243.535583 51.565426 67.312630 51.402370 52.908054 39.916512 111.629181 134.208466 242.626862 254.996078 64.829514 186.048645 41.180492 189.574341 29.106535 90.123352 63.780285 35.512833 186.315186 34.043980 88.769966 51.119495 34.828068 170.331375 53.385880 211.804565 96.403259 89.135025 213.718979 50.406200 274.507660 168.129288 99.883255 45.155556 55.011845 106.596718 260.096008 287.557770 44.415302 316.611084 294.392761 68.844894 49.074718 49.260605 104.877419 189.712616 38.182034 97.123230 120.526413 184.990036 238.620178 64.284729 186.048645 67.768631 263.255066 73.681587 80.375771 71.969009 55.718937 53.650166 235.168167 113.777779 59.220402 243.992493 257.011871 32.906883 216.026581 78.912621 61.170273 219.675674 114.177345 67.173553 258.544739 248.895691 55.766724 67.592514 112.790977 81.026794 108.917923 33.901981 75.829735 34.550480 56.739964 60.151711 174.795700 34.977943 205.123032 110.773422 39.552311 85.165688 66.759750 55.814590 85.054283 65.680809 62.343239 74.270706 215.311264 49.260605 47.255814 96.978371 50.562984 30.243721 89.564735 31.351976 90.248436 144.257355 48.963856 37.892773 58.845249 76.588928 368.669037 52.019199 44.598080 155.096008 49.000755 205.284927 98.595909 81.279999 48.237389 54.826305 87.456627 225.973938 62.164436 83.793816 147.697906 237.097534 73.184021 186.850571 100.578499 
/features/features.12/conv/conv.2/Conv_param_0 386.185608 282.866760 457.915497 699.653015 363.262573 377.497833 388.492920 406.082733 392.006042 252.765793 530.808167 399.840118 385.042206 499.704132 413.836121 285.976898 294.392761 427.437958 363.009064 380.814056 415.488831 274.942932 510.743256 334.313629 369.454559 399.533020 401.692657 397.396484 531.350342 365.560089 394.982544 422.233765 465.704559 444.228851 440.840668 410.894165 420.527069 262.193542 402.313995 331.332489 583.829407 332.178802 338.446320 525.446472 307.988159 444.988892 512.504456 370.243408 261.403015 331.543671 446.133789 437.872040 588.785522 430.266327 356.540100 363.516418 414.165619 598.609924 302.965637 390.534546 394.084839 287.240204 532.438049 387.913483 461.163116 487.527649 339.550903 333.670288 527.845764 324.511536 353.391296 307.079102 416.153595 366.332397 345.642517 480.768951 346.332886 317.190247 487.527649 418.160767 338.446320 304.383850 320.118164 383.339722 279.072968 339.108215 350.533691 308.719299 342.006561 508.000000 298.446350 405.449738 457.915497 342.682465 325.119995 265.404083 
/features/features.13/conv/conv.0/conv.0.0/Conv_param_0 1680.749634 1596.905640 1709.751831 2215.940430 1773.885742 1859.488770 3856.845215 1633.255859 2953.538574 1826.837524 1900.244751 1492.659912 1267.987793 3136.048340 2297.921631 2317.113525 1261.071533 1972.291992 1876.256104 1256.502441 1704.150757 2068.357910 2192.590088 1643.576660 2128.662842 135748.375000 2113.527588 1697.200684 2320.990479 3271.647705 1723.917114 1872.878540 2468.289551 1859.488770 1667.282104 2437.923828 1608.012329 1729.649170 2409.690674 1941.014893 1888.174194 2993.910889 2072.478027 1513.285767 1573.954590 1494.804565 1404.974976 2206.540771 2256.798340 1486.262817 2066.303955 1891.607300 2262.934082 1556.296143 1843.018555 2082.850830 1596.905640 1690.307007 1595.681030 2591.242920 1941.014893 1823.635376 2411.086914 2073.510742 1564.487183 1900.244751 1732.529541 2106.040527 1790.678101 2176.535645 1830.051025 2247.049561 2037.970581 1972.291992 1723.917114 2864.099121 2030.017578 3444.980225 1733.973389 1953.772827 2540.620361 2763.304199 1605.530884 3211.061768 2157.354004 1704.150757 1620.535767 1612.998413 1933.799316 2016.248047 2046.992676 2078.689209 2074.544434 1843.018555 2145.121582 2505.440186 1953.772827 1610.501587 1820.444458 1809.363525 1705.547485 2144.016602 1609.255981 1451.023682 2648.972656 1204.148193 2730.666748 1937.400391 2116.752686 2111.383057 2078.689209 1351.148071 1767.857300 1579.930176 2253.132568 1905.465210 2632.217529 1891.607300 2343.207275 1781.479492 2546.839600 1718.222900 55165.347656 2101.785889 1723.917114 2097.548340 2355.142090 1633.255859 1838.134277 2199.543457 2213.583008 2079.728027 64395.140625 2152.889893 2104.975098 2586.411377 2218.302734 2140.707764 1908.961426 1776.915405 1680.749634 2970.404053 1625.599976 1932.003662 1594.458252 1807.791504 1950.110596 5422.196777 3143.154053 1974.163208 1944.642944 3241.071533 2442.216064 1755.922363 2215.940430 2032.000000 2121.068359 2420.905273 3766.095947 2012.348145 2228.996338 2057.111328 2193.745850 1970.424194 4075.941162 1487.325195 1761.869629 2690.068604 2562.522217 1648.786011 2372.597412 1428.118042 1163.740479 2000.738403 1991.165527 2139.607178 1508.896362 1629.418945 1933.799316 1828.442871 1625.599976 2008.463379 2129.752197 1152.141724 1871.194214 2459.536621 2351.150391 2494.925781 2594.473877 1577.534546 2712.865723 1568.024170 2083.893799 1716.805298 1464.298340 2218.302734 1664.614380 1061.074951 1879.645874 4986.861816 2218.302734 1866.159668 1970.424194 583.829407 2534.431152 2698.791260 2078.689209 1606.770630 2274.063477 2090.173828 1459.164062 1624.330933 1755.922363 2140.707764 1812.515625 1215.401855 1608.012329 2112.454834 2554.656738 1450.012573 1901.981689 2589.630371 1804.655640 2205.371582 2170.858643 2258.022705 1758.890991 1243.734619 1449.002808 1630.695923 1584.743286 2987.463135 1642.279419 1370.729858 2066.303955 1844.652466 2156.236328 2127.574707 1364.437988 2266.631836 2250.695557 2199.543457 1569.206665 2468.289551 1582.333130 2087.029053 2018.203735 2412.484619 1642.279419 2014.296265 1549.343262 2331.392822 1867.834839 1789.138428 2356.475586 2050.017822 2378.020508 1806.222168 1798.416626 2998.224854 2334.007812 1946.462158 1663.283813 1976.037964 2511.488281 2016.248047 1385.331543 2659.128418 1957.448730 1812.515625 1594.458252 2261.704346 2154.004150 2078.689209 1775.399292 1814.095947 1981.683838 2447.962402 2098.606201 2727.087891 123993.625000 75407.218750 2024.093384 2419.497559 1733.973389 2576.802490 1237.815552 2572.024658 1347.647705 2004.593506 1763.362671 1977.916382 1565.664429 1684.832397 2664.235596 1783.005981 1711.157837 1828.442871 2688.330811 2145.121582 2269.103516 2415.284912 1778.434204 1733.973389 2010.403809 1908.961426 1254.986694 1898.510986 3044.283936 1741.228394 1605.530884 1686.197754 2045.986206 1946.462158 1939.205933 2390.313721 1624.330933 2557.797119 2238.588379 1616.758301 2405.512207 2719.958252 1874.565796 1429.098877 2110.312256 2170.858643 2039.968628 1974.163208 2365.853271 2033.986328 1833.275757 1571.577026 1524.372192 1648.786011 1803.091797 1713.976929 3171.902344 1514.387207 2107.106934 1715.389893 1896.780273 1886.462402 1699.973877 2032.000000 1592.018311 2097.548340 2137.409424 1600.590820 1953.772827 1823.635376 2018.203735 1844.652466 1928.422607 4450.840820 1442.973633 1966.699463 2071.446533 1547.039429 1269.535034 1888.174194 2279.044922 2167.466553 2391.687256 1528.852295 1093.414551 1736.868164 2462.447266 2270.341553 1790.678101 1763.362671 2270.341553 1905.465210 2319.696777 2496.422363 1864.487427 2037.970581 2144.016602 2084.937988 2262.934082 1633.255859 1937.400391 1741.228394 1772.374756 2294.121338 1483.084839 2119.987793 1362.651001 2083.893799 2695.295410 1883.047974 2223.042725 1926.637085 1891.607300 2063.230469 2387.570801 1637.110962 3337.238281 2197.220703 2162.960449 2261.704346 1775.399292 1699.973877 4149.088867 3689.304932 3514.810791 3011.241699 2002.664062 2223.042725 2599.335449 2161.836914 2440.783691 2261.704346 2669.362305 2135.216064 1138.275757 1739.772583 3243.597900 1526.609009 2092.275635 1688.935059 1616.758301 1879.645874 2205.371582 1242.249512 2058.128662 1731.088135 1889.889160 1891.607300 2707.570557 2645.604492 1807.791504 1810.938232 2578.398926 1661.955322 2502.427002 1459.164062 1532.229736 2255.574951 1935.598145 1459.164062 2160.714355 5062.695801 2048.000000 2130.842773 2051.028076 2711.098389 2056.094971 2719.958252 2294.121338 1355.549194 1483.084839 2572.024658 1770.866333 1888.174194 2893.974854 2034.980957 1886.462402 2037.970581 1877.949463 1900.244751 1928.422607 1871.194214 1883.047974 1881.345337 2094.381592 4369.066895 2437.923828 1903.721924 1631.974854 2335.317627 3087.192871 1416.452026 2134.121094 1669.958252 2557.797119 1131.467041 1841.387573 1515.490112 2522.143066 2127.574707 2460.991211 1374.351440 2191.435547 1923.075806 1357.317627 1651.403198 1604.292969 1648.786011 1977.916382 1896.780273 1770.866333 1680.749634 1888.174194 2391.687256 1517.700928 2419.497559 2592.857422 1961.138550 1668.619141 2201.870850 2494.925781 1679.393066 1993.072754 861.245056 1744.147583 2189.129883 1529.976440 3044.283936 1383.489380 2632.217529 3337.238281 1468.431885 1433.035767 1675.336548 1519.918213 2043.976440 1750.015137 1675.336548 2198.381348 1672.643066 1708.348145 2171.991699 2052.039551 1784.535156 2112.454834 1839.759521 1769.360596 1844.652466 2114.601562 2516.043457 2254.353271 2242.206787 1896.780273 1661.955322 127678.953125 2516.043457 2285.302490 2415.284912 2034.980957 1838.134277 1996.898315 2008.463379 1354.666626 2026.064209 62697.339844 2276.551514 1223.981201 2254.353271 2806.160400 2071.446533 1694.436523 1577.534546 2084.937988 2211.230713 1547.039429 1352.026001 1981.683838 1679.393066 1784.535156 1484.142700 1506.711060 2103.911133 2532.888672 1836.511963 1087.130615 2165.211182 1950.110596 2018.203735 2728.875977 1901.981689 2583.200439 2221.855957 1606.770630 3225.996826 1502.359619 2092.275635 
/features/features.13/conv/conv.1/conv.1.0/Conv_param_0 153.994080 48.165924 71.415703 277.287842 85.389366 214.955368 42.527142 237.747711 95.764359 39.721443 193.667908 103.459030 89.688278 27.390059 206.589355 48.853493 76.185120 64.991501 327.164795 80.475250 66.759750 61.634125 44.054199 54.826305 78.153847 2104.975098 55.339573 87.222000 50.879498 64.126236 208.076797 64.475952 88.648941 52.354267 247.239548 49.297955 45.566925 35.091202 64.539948 135.962357 53.124184 131.427994 57.239437 74.912445 36.225071 62.403072 88.468025 110.023689 113.380997 127.310814 40.563942 52.693680 114.378189 288.035431 81.279999 48.707115 127.623161 72.815231 258.287994 58.527454 237.747711 74.270706 44.813232 47.532166 62.343239 55.862541 98.446632 82.833122 184.203964 62.523075 61.343395 96.833954 75.302834 71.849724 261.797699 37.071835 206.918060 76.634064 106.248367 33.586777 62.343239 124.567047 55.576069 36.612614 68.410309 230.991119 245.605286 90.311111 311.492218 145.386246 55.245541 113.877411 91.906715 82.152878 41.442959 50.484470 112.401039 95.834930 128.505936 297.082825 69.955887 58.213070 103.459030 341.781860 118.656937 220.794571 199.460129 279.222748 50.328175 45.662922 45.535015 250.574188 85.445465 118.765297 47.118839 56.591820 271.357330 338.666656 68.374344 82.991707 59.436928 68.016739 916.637878 261.271729 93.492455 43.994587 74.483391 51.119495 41.285080 282.406067 40.064079 217.653549 690.367615 59.491310 51.977619 56.006889 71.770416 73.266479 59.382648 62.463017 46.247509 42.694683 62.045803 46.545456 66.725502 22.299040 164.721970 40.972904 62.403072 113.777779 171.454193 43.062252 82.727737 300.168488 86.410629 284.413330 190.966232 82.465439 52.354267 45.535015 201.312698 198.243896 84.666664 56.346619 44.720772 276.992554 70.182404 63.937069 67.000519 74.783211 74.483391 246.303024 298.960907 59.929955 242.626862 26.325506 202.251938 254.000000 269.529541 83.310699 103.541405 40.665417 104.372391 302.085938 350.297638 45.630878 53.827816 63.686581 38.797134 66.351021 168.346924 54.550335 35.885208 77.134048 281.489166 63.130096 78.060020 61.927620 63.068867 32.807266 73.556564 59.220402 285.192993 131.560944 33.483006 74.912445 99.046455 326.343781 76.095963 60.487442 44.813232 239.058823 290.447784 66.520714 52.481033 156.307693 55.481228 76.007011 77.686974 208.243393 223.066895 63.562073 258.159790 104.372391 366.849091 14.818596 116.322006 164.098419 39.384617 56.641113 155.652908 45.920902 95.693893 304.562073 130.898849 214.777863 78.295006 74.483391 81.585945 59.985241 82.570160 61.868698 36.715981 263.121887 73.142860 90.123352 126.137733 62.403072 83.364105 218.384552 55.339573 73.390518 122.802643 101.283485 74.228310 66.148521 60.826942 32.512001 89.874222 35.984505 50.523697 85.670616 40.665417 199.460129 49.485538 256.252228 194.101486 219.861374 260.356354 111.917381 215.311264 57.492485 48.780193 134.139252 243.535583 63.811581 50.445305 75.785545 60.096119 70.948174 2957.737061 584.485413 167.371948 189.574341 206.261703 90.942657 179.997238 149.738632 52.908054 117.054909 236.881607 135.678665 60.319111 244.911484 69.993538 41.978050 50.056969 77.686974 186.448746 50.250385 59.655045 73.932915 245.605286 40.563942 56.200520 83.310699 135.325699 198.092911 60.998123 77.088326 216.206146 39.600487 57.594330 75.477654 227.555557 58.422283 198.546570 36.530338 61.634125 63.438049 63.068867 208.744781 59.709827 53.037521 57.543362 79.152771 183.424545 214.247116 207.082809 67.981178 187.794952 105.902283 31.781036 87.163536 190.826126 322.699738 36.653889 222.304276 68.626915 69.730827 39.843136 75.259262 60.487442 235.168167 249.134094 54.186668 64.221237 78.721550 240.384476 257.138916 220.047379 91.906715 48.201630 39.770031 103.872208 59.491310 99.273285 58.369839 310.192017 149.824890 27.669786 89.874222 47.221497 113.777779 115.701065 67.627663 148.711258 120.081253 65.383614 113.479927 71.810051 64.475952 46.149040 74.697304 97.780449 198.850159 68.230850 78.769234 99.960030 90.311111 55.671234 71.929207 63.968521 54.965343 209.585815 123.619774 252.765793 47.462772 88.830605 121.767792 112.110344 58.633003 45.471329 241.276443 73.848953 327.576813 165.983414 96.689964 64.732704 42.471588 216.386017 62.283524 47.016632 42.778946 73.307777 76.498825 127.560570 57.645390 90.815643 64.000000 100.812401 258.287994 72.693123 54.780117 321.901001 50.720749 41.102402 97.633636 192.094528 111.821152 48.380951 55.245541 92.626778 256.504944 75.215729 82.780396 43.494316 88.952118 91.971710 58.213070 225.973938 45.312893 85.109947 206.589355 63.811581 78.864769 76.185120 68.518440 70.909485 108.735786 204.156982 36.245262 71.572922 53.167622 112.986969 70.486717 200.691360 67.312630 28.670195 235.168167 110.397285 68.590714 159.177475 234.109818 54.596138 73.514977 347.257690 186.048645 81.739784 66.828369 50.919342 64.475952 96.118256 47.532166 94.649200 74.143669 54.367893 158.788773 59.382648 70.870842 60.319111 190.686218 215.311264 50.445305 87.105156 58.057144 90.879105 202.251938 54.231861 44.968189 42.471588 261.929504 100.268311 82.204803 391.710846 112.986969 88.709412 72.329254 82.780396 64.894211 25.028484 258.031738 163.376877 27.835617 47.016632 81.077309 58.422283 105.216827 191.952774 50.018463 44.294277 264.459595 94.306023 132.297043 41.076439 113.183640 137.398834 30.934349 71.103333 79.200974 40.741856 127.623161 145.386246 81.791199 68.663147 62.583252 84.119019 82.570160 67.981178 70.639870 308.536194 46.712643 54.918919 104.792908 46.379459 44.937111 276.110413 72.248886 46.645622 108.373337 62.164436 70.410393 233.899277 101.520683 1706.946655 67.981178 236.450912 49.111782 68.699417 207.910477 60.207409 43.349335 232.852280 169.113129 1646.177246 80.574966 233.269958 79.833023 190.267746 96.689964 123.502373 94.442993 126.260193 96.189346 80.475250 84.227982 310.933655 297.933563 75.302834 100.890610 42.305790 254.871140 72.409798 97.487259 131.494446 32.675377 60.940956 74.017075 43.581768 49.000755 70.106735 117.797104 246.303024 182.140060 74.440758 100.578499 
/features/features.13/conv/conv.2/Conv_param_0 391.710846 190.128662 293.893799 450.382690 284.880615 177.056503 335.175262 319.136200 400.764252 224.414154 357.029510 327.989899 358.505859 461.572327 292.571442 192.806519 295.395813 356.540100 254.497070 147.614075 318.745087 246.070007 352.672546 311.678864 187.254135 268.833069 356.052032 311.492218 442.716583 385.042206 330.071075 337.567810 117.371841 291.750977 342.006561 209.585815 369.980072 283.947601 359.745514 298.446350 470.336334 266.491791 267.726196 368.147217 379.979553 344.498016 365.047028 345.413025 234.743683 282.406067 518.119507 337.567810 488.443207 286.449341 119.749542 204.477982 311.678864 501.631622 236.236145 357.029510 322.299866 269.250519 304.383850 176.815765 409.600006 443.093689 345.642517 311.865723 368.669037 294.226257 172.249008 221.358292 286.134216 317.965759 354.837646 218.936020 101.599998 273.785278 499.224579 491.674866 287.557770 189.989777 191.952774 327.576813 336.911926 359.745514 122.686790 266.491791 375.589905 317.771545 226.170441 344.498016 327.783234 262.458130 135.678665 300.341797 
/features/features.14/conv/conv.0/conv.0.0/Conv_param_0 2779.917236 1140.771973 1240.768066 1258.782837 1767.857300 2341.888672 2114.601562 1549.343262 1256.502441 1452.036255 1776.915405 1981.683838 1844.652466 2124.316406 1536.756226 1588.372559 2908.131348 1844.652466 1776.915405 1089.978027 2092.275635 1484.142700 1314.446045 1861.152100 2075.579102 4203.571777 1750.015137 1606.770630 1248.960327 1672.643066 1656.662476 2347.172119 1323.643799 1194.470703 1163.740479 1528.852295 1611.749023 1738.319092 1337.254517 1389.030762 2635.551514 1951.939941 1693.057739 1124.739502 1548.190430 1804.655640 1804.655640 1790.678101 1694.436523 1647.480591 1823.635376 1522.141968 2024.093384 1661.955322 1846.289307 1796.863525 1524.372192 1787.601318 1087.130615 2323.582275 1930.211548 1003.263245 1866.159668 2082.850830 2714.635254 1716.805298 1503.445068 1368.026245 1895.052856 1387.178711 2214.760986 1526.609009 1611.749023 1852.865479 2004.593506 1738.319092 1686.197754 1195.156860 4341.717285 1921.300049 1844.652466 2036.973022 1505.620850 1563.311768 1274.199585 1451.023682 1783.005981 1588.372559 2090.173828 2006.526489 2102.847900 1151.504150 1069.803589 940.672668 1871.194214 1426.160400 2531.347900 2317.113525 1504.532227 1786.066895 1180.912598 1352.905029 1174.911377 1022.993103 1468.431885 1300.479980 1553.971680 1787.601318 1065.967163 1705.547485 1638.400024 1264.904541 1432.049561 2311.964355 1798.416626 1287.604004 1307.015015 1343.297607 1367.127441 1171.603638 1404.974976 4382.871094 1194.470703 2208.883301 1939.205933 2251.913330 1041.425415 2196.061279 1725.346558 2371.245605 2045.986206 1642.279419 1377.080078 1678.038696 2798.612061 3952.075928 1876.256104 1312.787354 935.597107 2030.017578 1556.296143 1475.722046 4079.937256 1839.759521 2405.512207 1752.963745 1896.780273 4560.587402 1864.487427 1426.160400 2097.548340 2106.040527 1565.664429 1663.283813 1453.050293 1914.229980 1722.490112 1004.231689 1369.827515 1593.237427 2056.094971 1416.452026 1691.681274 2004.593506 852.773743 1556.296143 2455.183594 1854.516968 1668.619141 1787.601318 1699.973877 1184.947632 1750.015137 1693.057739 1898.510986 1576.339355 1877.949463 1852.865479 2006.526489 2168.596191 4231.353516 1382.570068 1442.973633 1671.299561 1404.026978 1634.538940 1654.028564 1818.853149 1541.309570 1959.291870 1495.879272 2154.004150 1877.949463 2042.973022 886.942871 2066.303955 1991.165527 2340.571533 2559.370117 1683.469238 1825.235107 1057.838379 1582.333130 864.106323 1260.307739 1961.138550 1359.090820 2004.593506 1494.804565 1355.549194 1271.863037 1704.150757 2020.163086 2061.186768 1357.317627 1961.138550 2311.964355 1477.818237 2010.403809 1551.653931 2427.967285 2304.283447 1857.828613 1719.642944 1438.982056 2395.818115 1274.980347 1876.256104 1030.593384 2100.724854 1200.673950 2200.706543 2034.980957 1329.564209 1705.547485 2351.150391 1261.071533 1917.758545 2968.285400 1910.714478 1699.973877 1274.980347 1633.255859 1803.091797 2028.038940 2044.980835 2471.220947 1551.653931 2223.042725 1968.560059 2516.043457 2331.392822 923.964478 1833.275757 1548.190430 2540.620361 1866.159668 2707.570557 1751.488159 2998.224854 1556.296143 1944.642944 2250.695557 1683.469238 3315.964844 1744.147583 1521.029297 3575.202637 1434.023438 1293.205688 1246.715454 1599.360474 1015.008789 1836.511963 1436.994507 2200.706543 1486.262817 1521.029297 1663.283813 1541.309570 2122.149902 1271.863037 1149.595581 2248.263672 2405.512207 1801.530762 1401.190552 1476.769287 1679.393066 1583.537231 1375.259766 1555.133057 1487.325195 1669.958252 1907.211792 2016.248047 2475.631104 2781.775391 2207.711426 2186.829102 1532.229736 2614.030029 2401.347900 1744.147583 120733.593750 1245.223267 1102.685791 1526.609009 1652.714844 1562.138184 1526.609009 1368.926270 1790.678101 1914.229980 1895.052856 2813.749756 776.405945 1355.549194 1891.607300 2349.822754 1888.174194 1862.818237 1961.138550 2067.330322 1708.348145 1598.132080 1831.661987 1454.065674 1029.573486 1093.414551 2062.208008 1731.088135 1507.802856 4403.741699 3233.516602 2049.008301 1939.205933 1830.051025 1783.005981 1987.361938 1704.150757 1639.691040 2169.726807 1226.145020 1871.194214 1704.150757 1704.150757 1404.026978 1502.359619 2349.822754 2275.306641 1796.863525 2456.632812 1721.065308 1630.695923 1741.228394 1442.973633 2573.615234 1603.057007 1962.988647 2225.420410 1581.130737 1527.729858 1471.547363 1778.434204 1919.527710 1640.984253 2517.565674 1368.026245 1789.138428 4533.263672 1596.905640 1739.772583 1404.026978 1371.633545 1803.091797 1537.892090 1678.038696 1605.530884 1601.822998 1404.026978 1275.762085 1738.319092 1859.488770 1852.865479 1385.331543 1751.488159 1387.178711 1728.212646 1679.393066 1767.857300 1833.275757 1895.052856 1847.928955 2231.386475 2110.312256 1323.643799 1059.454224 883.178284 2002.664062 1637.110962 1974.163208 4838.995117 1453.050293 1684.832397 1914.229980 1996.898315 1572.764893 1854.516968 1744.147583 1644.875854 3082.619141 1893.328491 1503.445068 1901.981689 1962.988647 2520.615479 1514.387207 1460.188110 1440.975098 1541.309570 1704.150757 1748.544556 9106.206055 1709.751831 1937.400391 1642.279419 1159.202271 1754.441772 2804.269531 1592.018311 2475.631104 4424.812500 1209.748779 2576.802490 1847.928955 2030.017578 1337.254517 2483.016602 2712.865723 1763.362671 1718.222900 1589.585938 1630.695923 2042.973022 3162.261475 1709.751831 1917.758545 1891.607300 1862.818237 1628.143921 1404.974976 1593.237427 1847.928955 1428.118042 6822.189941 3279.382080 1417.416870 1844.652466 1792.220459 2220.670166 1987.361938 1937.400391 1119.294189 4683.777344 1879.645874 2429.384766 2191.435547 1760.379028 1659.304565 1289.998779 1847.928955 1652.714844 2104.975098 1246.715454 2559.370117 1595.681030 1065.421387 2048.000000 1646.177246 2208.883301 1951.939941 1871.194214 2020.163086 1838.134277 1606.770630 1441.973633 1795.313232 1628.143921 1673.988770 1625.599976 1264.904541 1841.387573 1385.331543 2176.535645 1316.108765 2082.850830 1745.610718 1799.972290 1213.275757 2166.338379 1778.434204 1409.734375 1245.968872 1509.991333 1908.961426 2227.802979 2138.507812 5301.319824 1544.742432 2137.409424 2115.676758 2002.664062 1825.235107 1652.714844 1388.104126 1444.977783 1505.620850 1687.565308 1601.822998 1519.918213 1599.360474 1380.735229 1189.010254 1329.564209 1861.152100 2319.696777 1458.141602 2002.664062 1951.939941 1767.857300 2113.527588 1152.141724 1328.715210 1487.325195 1939.205933 1839.759521 1930.211548 1515.490112 2201.870850 1290.798950 2225.420410 1163.089966 82765.164062 1639.691040 2145.121582 1275.762085 3439.285889 704.867188 1671.299561 1716.805298 1946.462158 1624.330933 1924.854736 2341.888672 1426.160400 2012.348145 1624.330933 1725.346558 2080.768066 1612.998413 1063.243774 1305.375122 2768.819580 2068.357910 1178.237793 2854.277100 1839.759521 1683.469238 2067.330322 1893.328491 1572.764893 1419.350586 1395.552002 1453.050293 1604.292969 
