/features/features.0/Conv_param_0 40.489796 36.847359 28.989954 113.879822 28.884439 106.702522 34.429501 116.278389 74.516434 60.638012 87.208794 48.912174 64.882980 130.499481 44.615601 134.011612 87.569656 81.656593 55.158993 33.153004 44.709858 42.017208 109.367783 66.584160 76.769043 111.382454 110.222221 80.619682 71.576096 71.095184 119.450615 102.731392 47.449924 36.592506 24.916798 132.129028 60.638012 80.876434 74.516434 49.522621 60.870567 117.461609 48.096970 144.127121 73.524033 108.156731 67.076599 72.350998 94.899849 99.355240 159.317444 30.729914 135.080856 35.056873 263.983368 44.242508 68.413795 29.311172 24.362242 26.788185 71.900337 125.594460 159.417450 67.361275 
/features/features.2/Conv_param_0 185.366425 171.242081 101.988754 143.719299 100.455696 84.313416 160.729111 93.364708 101.743591 214.667801 57.455204 88.794403 193.413559 135.513336 117.570374 296.672882 173.346069 285.981995 88.423401 125.905800 202.999207 203.650360 139.687576 258.475311 131.513199 147.303940 178.965469 252.688553 266.057617 207.138657 124.425285 120.356400 76.399521 318.036316 149.120377 85.218788 61.879143 121.160309 147.560715 138.318085 130.566574 90.567757 133.238190 215.578949 150.267456 59.168686 201.709290 106.972198 93.296104 138.695801 140.849701 228.579651 118.558357 91.349640 160.627457 236.895523 102.731392 104.679306 136.827591 138.695801 221.405411 136.021423 132.612015 90.053902 
/features/features.5/Conv_param_0 150.982162 172.054199 78.720398 150.445496 94.126022 134.579758 217.797592 112.169609 226.137131 302.503876 138.544464 156.182037 145.115433 148.509949 188.531555 186.455215 175.260178 86.495911 127.166748 97.749039 237.560333 186.045425 164.051682 146.793060 216.313461 157.734161 148.423141 117.570374 400.239563 199.021942 127.166748 84.481705 154.754425 193.560974 116.705879 63.615231 123.397476 118.117210 212.157059 180.620193 131.309204 200.593994 128.648422 151.976059 135.658127 216.867630 195.950623 134.153198 127.485947 97.150726 128.323395 157.343246 90.310097 51.742462 140.771622 148.770950 181.783829 71.737854 122.092308 160.222076 172.404617 202.837067 214.849411 164.796890 104.164070 193.560974 285.660278 237.560333 219.491791 146.201492 116.065811 98.660454 115.854012 215.578949 185.096207 124.669609 96.048409 114.392792 119.114449 157.343246 115.959816 225.735107 206.465042 152.249405 153.260101 133.870316 213.405045 168.738876 397.110229 124.364349 143.638016 146.285721 187.973358 138.468918 166.963837 144.127121 146.877960 151.613129 103.232521 95.113106 121.276024 191.373016 327.468719 158.918655 155.607849 118.891388 193.560974 114.187050 138.242783 218.171814 132.750656 99.433044 161.034882 135.513336 74.691765 162.373398 87.268730 83.481918 148.683838 199.490967 142.589554 78.428658 126.344276 150.534683 160.932831 112.767319 135.948608 118.669159 
/features/features.7/Conv_param_0 257.427277 162.269653 136.386688 170.552048 136.753906 190.654648 240.030243 145.698227 93.090912 175.139313 173.701782 153.723969 138.318085 202.675186 157.148514 260.864929 266.057617 189.516418 170.552048 189.941666 212.690125 127.103104 175.381210 152.615387 138.167572 213.046982 196.557281 187.004425 154.566040 298.942902 135.730621 244.891037 180.363632 160.323227 234.706100 178.462402 246.316193 232.983490 135.875870 304.498810 228.374100 192.826126 159.517593 147.560715 137.942429 148.945450 254.079041 141.477432 144.701996 218.547333 121.741135 137.942429 158.225540 290.396790 232.344009 185.909225 134.224106 231.919632 215.762100 139.075577 114.806511 216.682587 230.028992 210.748550 214.124786 150.178589 157.245819 203.161606 134.937302 148.509949 111.676338 220.253250 95.113106 149.647614 170.896362 128.713638 216.129364 227.555557 158.819260 95.041916 100.535233 188.252045 233.626495 146.538956 196.862015 268.023224 183.358841 128.583298 280.145630 195.347687 204.470215 172.874069 192.387878 172.521744 176.846802 85.621040 176.846802 213.405045 157.734161 198.866089 148.770950 228.785583 142.270035 165.118332 219.491791 271.171387 247.516571 195.047623 275.884857 184.558136 129.303467 114.084457 163.313187 189.657959 155.703247 147.990677 194.004578 155.132553 211.450455 142.429611 155.227386 96.266869 140.304977 241.859055 241.169983 139.151779 197.628021 105.374275 
/features/features.10/Conv_param_0 244.891037 96.928246 134.295074 262.211670 242.089615 223.943558 217.238663 375.946716 105.813332 300.357178 227.555557 152.432175 236.234421 133.378159 251.562164 174.657501 119.338348 205.629150 284.380737 108.248932 184.424103 220.253250 147.646515 166.416779 201.070465 228.991882 170.552048 276.636169 246.794952 245.127411 223.549301 145.115433 272.042847 134.011612 206.465042 259.531921 128.844238 269.445099 281.699402 209.877686 85.621040 252.061539 130.298615 230.237534 218.735565 283.586823 211.803177 208.670502 220.444443 177.464706 78.477135 195.950623 194.301453 146.285721 201.229797 118.780167 168.626831 198.245117 214.667801 284.859222 273.213562 185.231216 309.697571 211.979965 150.445496 268.732269 57.559383 187.280243 223.352676 189.941666 163.734360 191.228912 249.461685 192.096817 180.491821 280.920349 276.636169 213.046982 304.864349 187.004425 224.141220 252.814331 238.676697 266.336639 93.502213 256.387695 162.166031 288.254242 193.413559 264.120636 209.531357 244.419632 140.927856 278.303558 277.998901 266.476379 136.680298 172.639023 195.197540 226.137131 165.333328 312.556305 361.754974 208.157379 263.026398 357.175812 205.296692 163.418274 177.217026 267.458649 330.236664 196.405258 248.000000 243.715927 225.735107 289.569000 185.096207 155.512558 256.387695 139.075577 269.588104 272.773376 217.610962 201.070465 301.069366 236.234421 161.855957 287.438599 166.635178 143.071548 250.445755 231.285980 222.764908 246.077515 121.624519 208.670502 201.549210 219.491791 270.882141 185.909225 237.560333 244.184616 128.844238 95.614456 214.849411 314.686493 196.557281 133.940933 178.462402 414.277313 241.628922 225.935944 192.826126 146.454437 120.242424 234.273056 261.401947 231.285980 155.990173 173.346069 261.806183 128.064545 107.972786 276.485565 195.047623 197.320908 272.626953 308.381287 157.832199 264.947327 226.945480 266.896484 237.338318 149.120377 165.333328 212.334442 154.660172 134.153198 297.367676 164.051682 130.903091 143.232941 196.405258 182.175034 252.940247 98.968040 269.159515 153.630981 175.018600 320.242126 153.630981 204.470215 189.233978 117.570374 245.127411 158.918655 160.932831 240.030243 193.413559 165.441040 53.128033 289.074554 75.267342 259.002563 246.555344 184.023193 229.405594 141.319977 181.783829 254.588470 176.846802 198.090485 221.020020 344.108398 169.640610 96.559692 85.678810 211.803177 239.803589 358.942749 293.247101 170.323273 195.950623 240.941177 252.940247 201.389374 174.537460 342.484161 268.023224 182.175034 140.150116 295.293030 182.436783 231.708023 212.868393 265.224030 358.942749 270.737732 251.811600 193.119385 139.151779 128.975113 116.491745 271.171387 284.380737 267.036804 115.642990 160.020157 184.961395 191.806641 264.533325 137.568802 201.389374 322.888733 244.891037 254.460922 
/features/features.12/Conv_param_0 150.623962 254.716156 354.186890 349.796143 246.794952 167.846664 290.562927 218.735565 318.036316 340.646545 354.929413 180.363632 332.180511 282.012207 204.800003 253.318710 343.642761 365.398560 131.513199 322.069763 260.998962 284.699554 300.179657 344.809235 216.867630 393.419067 377.623779 246.555344 214.849411 333.927673 340.418243 252.688553 148.596848 284.859222 274.246216 341.104095 399.295593 284.699554 228.374100 404.382172 288.910126 325.788330 277.543182 316.057251 349.315002 138.847458 223.156418 263.299133 273.507812 337.926819 312.364075 274.542694 205.296692 302.503876 268.164734 300.712860 207.816696 332.833557 324.954559 168.068832 162.373398 105.112579 315.076935 243.715927 150.356430 291.731201 201.549210 346.692139 368.580566 244.184616 220.253250 197.320908 327.046997 349.074921 153.723969 340.418243 286.789398 317.440002 183.624008 453.485718 260.731018 266.756317 284.380737 189.657959 149.207993 400.871338 336.806366 161.547073 293.755920 225.935944 265.640167 219.681656 297.890900 226.338684 298.591431 353.201660 335.915344 288.910126 339.735107 216.497864 195.347687 270.161713 306.705322 388.009155 359.960297 247.035019 336.583160 324.332062 350.278625 362.788574 410.593384 232.769943 216.497864 238.901230 218.171814 381.882721 241.169983 185.909225 306.705322 169.188538 309.886505 236.454376 280.920349 236.014877 300.712860 249.952759 325.162598 311.025116 196.557281 359.705383 246.794952 306.150696 398.043884 186.318420 101.015114 196.405258 262.482697 346.219482 296.499695 154.943253 337.926819 226.540588 181.653793 316.057251 303.045349 231.075516 250.322327 254.079041 359.705383 223.746262 260.330078 280.609955 296.499695 350.520355 267.599579 286.951416 285.821045 219.302246 187.973358 299.825256 314.491638 404.382172 247.758041 150.267456 216.129364 200.435669 334.367340 375.390991 186.318420 340.190216 171.705200 275.585449 215.762100 318.634888 303.952118 305.966278 257.036438 214.305481 331.746582 297.716309 296.846283 176.233170 283.903870 241.628922 279.991180 330.666656 237.560333 306.150696 266.057617 251.064758 378.467957 270.737732 251.188919 353.940063 240.030243 239.803589 243.715927 251.686813 357.427155 334.808167 303.770325 255.613495 396.490234 189.093079 211.450455 335.471588 330.451538 270.593506 356.173920 360.471252 207.986893 259.664612 269.588104 295.464813 256.000000 254.971893 253.318710 317.837311 120.242424 253.571640 258.081299 285.499725 281.075806 233.197433 110.799301 232.556778 351.977814 169.867554 404.382172 185.773224 367.779877 254.333496 327.257721 294.096130 248.485321 174.178329 180.363632 263.162689 274.098206 350.762421 244.655106 278.608887 242.320618 344.108398 361.240387 80.517441 264.258057 297.193695 176.723724 344.575317 250.940704 338.828552 156.278152 229.405594 267.881866 313.908539 
/features/features.14/Conv_param_0 172.756470 230.028992 136.680298 328.740448 287.601349 259.134705 254.843948 247.516571 234.489380 270.161713 186.729416 203.977509 262.211670 339.735107 104.078690 385.067474 238.452576 194.004578 319.838806 165.656876 196.557281 319.035187 142.589554 252.562897 173.820663 271.606415 153.260101 217.797592 228.991882 220.444443 136.901352 188.671616 158.720001 248.606949 205.130859 323.505737 136.459961 358.183350 205.795792 150.982162 302.684143 240.257339 238.005630 238.676697 204.800003 83.536842 179.725403 311.215698 252.186691 236.454376 175.260178 203.977509 308.194183 178.839432 227.964096 302.864624 275.585449 192.679825 220.635971 279.528900 261.671295 242.552048 261.806183 271.751740 333.489166 313.520996 190.083832 298.240753 184.961395 91.022224 288.417938 209.358612 266.756317 222.960495 215.945572 284.540070 164.263901 285.019073 245.601547 237.560333 224.935349 119.675781 258.606934 281.855713 224.736282 281.387268 206.969849 267.881866 105.025642 266.756317 112.368141 205.462784 288.745880 224.736282 281.387268 270.018066 261.133148 266.336639 170.095108 318.036316 292.908875 295.464813 129.699692 299.295227 128.258591 264.258057 302.864624 229.405594 291.229370 189.657959 299.118958 195.799530 238.005630 271.171387 299.295227 192.242233 304.681458 199.647797 207.646774 313.908539 190.941360 51.407288 174.058945 237.116714 141.319977 170.095108 180.235626 156.663788 195.950623 169.414276 320.849030 247.275558 294.266510 211.450455 202.191086 197.474335 291.062469 329.166565 202.999207 129.832306 268.874542 242.089615 292.066711 352.466339 285.821045 177.713089 201.869629 276.184875 175.381210 297.019897 338.828552 251.686813 233.841614 191.951630 207.986893 267.317902 280.300232 205.296692 278.914886 283.903870 147.218552 183.358841 117.028572 145.447876 309.132080 234.923218 230.655762 248.242432 212.334442 307.820618 131.991684 102.565430 240.030243 325.370911 131.445129 247.758041 408.282959 331.746582 267.458649 147.389435 255.356461 186.045425 288.090759 236.014877 250.075821 257.950226 118.891388 111.971779 197.474335 209.877686 293.586121 197.320908 214.849411 196.405258 168.068832 179.218063 278.608887 148.858154 283.428558 257.819275 162.373398 229.405594 138.167572 290.065094 137.867538 268.023224 216.313461 182.962540 261.133148 208.499176 267.599579 236.234421 237.782776 287.113617 222.180222 272.626953 133.308136 317.638519 254.971893 168.291580 261.536560 150.982162 250.199020 101.095543 102.565430 204.470215 278.761810 278.151154 154.943253 255.099945 204.634979 269.445099 335.250153 305.782074 192.679825 209.186157 187.695496 166.090256 266.476379 252.061539 156.182037 258.738678 264.809174 132.197815 237.338318 276.937836 226.540588 324.746796 287.764313 213.405045 194.152908 213.944397 178.839432 215.762100 129.040649 217.984543 
/features/features.17/Conv_param_0 169.754013 433.365173 331.963409 373.184418 303.045349 287.438599 371.003662 337.926819 358.183350 186.592209 389.496918 202.513550 327.257721 193.856491 185.096207 336.137665 145.531235 407.627594 358.942749 325.370911 313.714630 291.731201 372.910431 148.076965 293.416534 251.562164 248.850571 198.245117 332.397919 203.487183 469.846436 218.735565 378.186157 239.351562 228.785583 357.930939 363.828094 163.945770 297.193695 277.391602 334.147369 78.139076 315.076935 114.495941 242.089615 327.046997 195.950623 354.929413 323.711914 378.467957 325.162598 292.066711 313.134399 376.783386 346.928955 378.467957 275.585449 311.788818 160.222076 144.372940 131.923111 264.395630 200.435669 403.418579 209.358612 287.601349 238.452576 224.736282 202.191086 301.247925 343.875427 179.980148 377.063110 379.315918 205.962692 332.615601 190.941360 226.742859 163.313187 248.972549 215.945572 316.254059 362.012817 161.649902 205.629150 340.190216 305.230774 348.117889 175.988907 353.693604 320.849030 230.028992 149.207993 325.997437 317.638519 413.939697 200.752563 138.092438 263.983368 308.194183 272.188629 287.927429 217.984543 261.671295 388.305817 465.113556 357.678864 269.588104 351.734070 334.367340 482.798492 282.954865 358.942749 322.069763 252.814331 221.020020 238.901230 250.075821 352.711121 407.627594 325.162598 337.477753 290.729248 175.502426 333.927673 161.034882 336.583160 428.249573 297.367676 205.296692 332.833557 272.480682 328.953369 328.740448 265.362579 246.794952 224.537582 276.184875 344.809235 286.304382 164.370224 138.167572 264.671173 149.383530 356.674164 398.043884 162.269653 294.437103 332.615601 295.121429 124.608437 407.955017 244.655106 236.014877 274.542694 216.313461 363.828094 371.818451 297.890900 265.224030 222.374786 419.408752 151.613129 253.825089 249.706985 398.981934 158.225540 246.555344 374.284454 202.837067 302.143951 310.075714 288.254242 330.451538 257.296844 380.737640 454.296967 310.454773 346.692139 378.750183 212.868393 111.480247 290.396790 323.505737 268.023224 236.014877 375.113739 291.731201 235.140747 390.395081 232.131622 371.003662 289.569000 271.026672 209.531357 326.206818 320.040314 303.952118 247.758041 178.462402 376.504089 324.954559 243.249039 383.613281 312.748779 284.540070 271.461243 240.484848 352.221924 287.601349 213.046982 336.583160 345.512939 310.265106 301.069366 234.923218 386.532715 317.043701 261.671295 236.895523 279.991180 355.924316 230.865448 314.102661 293.586121 273.950378 411.925385 305.966278 336.806366 357.175812 256.646790 226.742859 294.437103 352.711121 232.983490 122.800774 262.754272 398.981934 131.923111 363.047882 399.609741 333.051788 413.266083 335.029022 254.716156 318.235596 211.626663 321.254913 106.078529 167.735794 394.029480 254.588470 269.588104 242.320618 143.152191 518.533936 291.396454 405.674133 285.981995 276.485565 281.543243 231.075516 354.186890 413.602600 297.716309 205.795792 377.623779 325.370911 190.368820 228.374100 199.647797 287.764313 216.682587 289.569000 343.642761 249.339218 207.138657 390.996155 199.178040 93.296104 255.742203 322.888733 124.730843 337.926819 356.173920 375.390991 194.748459 387.712982 385.359650 341.333344 356.674164 375.668640 227.351837 361.497498 366.188904 208.670502 92.279068 263.435699 377.063110 188.112595 113.574242 259.134705 202.675186 406.648529 91.878441 243.249039 312.556305 461.730896 287.764313 171.357620 253.066269 372.910431 314.297028 432.258728 353.201660 315.272491 227.759644 323.299805 159.018158 333.051788 363.828094 358.689270 163.418274 380.452423 341.792725 296.846283 358.942749 318.634888 285.339325 152.983139 369.116272 212.512131 326.626373 307.447937 315.468323 365.135864 165.441040 316.057251 209.186157 134.295074 242.783936 134.722549 275.735077 247.758041 328.740448 389.198456 330.882080 320.040314 380.737640 270.161713 349.074921 203.977509 149.295715 215.762100 169.867554 240.484848 133.448242 184.424103 375.668640 383.034698 407.627594 206.969849 365.661621 232.983490 351.490662 339.054749 352.956207 294.607880 214.305481 242.089615 257.819275 67.076599 390.695374 222.960495 481.882355 359.960297 284.699554 388.305817 348.595734 226.137131 259.664612 316.451080 355.675079 265.779175 343.642761 351.247589 208.670502 84.990631 273.507812 412.259735 302.864624 292.571442 397.110229 137.123108 214.849411 386.827118 291.396454 354.186890 383.034698 398.356079 273.066681 256.000000 241.628922 365.398560 137.867538 381.882721 348.117889 321.661804 444.749573 140.693634 187.142227 181.653793 236.454376 232.344009 273.213562 396.799988 337.926819 317.043701 383.613281 299.648376 379.315918 321.865662 375.390991 196.557281 408.611420 70.975967 269.445099 378.186157 92.145142 289.899536 246.794952 339.962524 255.484909 281.855713 176.355560 421.497101 170.781433 415.973785 317.638519 360.727264 214.305481 181.914047 418.372314 378.186157 259.531921 232.556778 356.423859 301.784912 134.153198 252.940247 281.075806 311.025116 273.802704 232.769943 311.215698 313.134399 266.616272 324.332062 201.549210 326.626373 217.052994 199.021942 259.266968 330.882080 340.646545 278.914886 215.396103 262.618408 304.134125 300.002350 343.178375 341.792725 240.484848 214.667801 162.789749 262.754272 331.313751 206.297318 279.068146 161.444366 255.099945 298.767059 308.568665 218.359421 413.602600 243.950043 270.737732 308.381287 376.225189 240.257339 339.054749 366.982666 174.898071 126.407166 229.613022 408.611420 369.116272 315.860687 234.489380 441.271942 348.595734 249.216873 339.962524 228.374100 172.170853 196.253479 277.543182 184.424103 370.732849 313.327576 274.988617 396.799988 
/features/features.19/Conv_param_0 489.782074 457.983765 361.497498 228.785583 294.950073 348.117889 465.113556 402.778748 300.890991 523.882385 390.095245 302.503876 284.699554 442.425079 282.482758 334.147369 388.009155 368.848206 459.226044 451.470215 525.236816 291.563721 473.791046 515.115601 475.565552 327.891541 415.973785 323.299805 221.986008 113.472740 353.693604 410.925568 368.046387 265.779175 408.611420 282.954865 205.962692 369.653564 412.930084 231.285980 291.396454 314.686493 345.512939 362.012817 388.009155 253.951996 316.254059 347.166107 268.164734 409.600006 431.891144 401.505127 362.788574 239.351562 387.417236 468.114288 300.534912 450.669037 385.067474 245.127411 372.090851 388.305817 338.828552 413.266083 422.900909 308.568665 396.180969 278.914886 349.555389 170.095108 383.323761 283.428558 395.563873 494.070038 182.830811 341.104095 469.846436 423.253326 160.222076 341.104095 394.029480 360.471252 395.256042 474.676636 542.053345 451.470215 318.834900 397.110229 474.233429 399.295593 320.444153 289.569000 308.756226 556.912292 527.144775 360.215607 370.462433 313.908539 221.598602 223.352676 398.356079 283.586823 442.425079 437.094666 369.116272 411.258301 339.508026 223.156418 322.478729 323.299805 387.417236 243.715927 291.229370 289.074554 456.748199 440.124786 483.718109 314.102661 298.942902 404.060455 450.669037 267.599579 476.905151 175.502426 492.632385 387.417236 369.653564 265.779175 342.715240 268.448212 481.425598 512.000000 259.134705 418.717224 389.496918 492.155029 420.798676 387.121948 509.432312 404.704376 351.247589 513.812866 334.587616 441.271942 393.114563 398.981934 443.197205 333.489166 344.575317 325.162598 240.941177 471.153992 304.134125 486.498077 246.316193 279.068146 524.694214 470.281494 506.384857 413.939697 302.323822 471.591461 365.925079 297.541901 467.252991 408.940430 334.147369 426.093964 419.408752 413.266083 325.788330 423.959930 373.733643 266.896484 399.609741 399.295593 443.584290 482.798492 417.684204 405.350372 295.808960 398.043884 408.611420 321.661804 370.732849 307.076172 248.972549 527.144775 468.114288 325.162598 342.022888 406.648529 289.569000 348.117889 451.069275 353.693604 480.060486 379.599396 426.810089 201.869629 423.959930 297.541901 403.098419 508.666992 173.109741 371.818451 479.154724 505.377106 325.162598 308.944031 461.311523 242.552048 395.872162 381.309296 471.591461 405.998413 316.057251 366.982666 520.393433 222.764908 353.447449 320.242126 307.820618 296.326721 201.549210 251.064758 335.471588 379.599396 393.114563 495.033142 315.664398 340.418243 351.734070 408.940430 360.471252 291.563721 432.258728 236.895523 333.270355 386.827118 572.286194 426.810089 422.549072 346.692139 380.737640 339.735107 252.562897 329.380035 443.972015 207.816696 591.962708 292.234741 221.212540 344.575317 295.464813 458.397125 244.891037 374.560486 401.505127 290.396790 247.275558 212.157059 387.121948 310.265106 407.300720 266.057617 351.734070 351.247589 375.946716 390.095245 315.468323 436.718842 415.633392 379.599396 346.455658 292.908875 184.961395 414.277313 276.184875 399.924408 242.552048 372.636841 489.310211 368.848206 385.067474 161.239365 324.746796 444.360443 311.406494 275.436005 414.277313 319.035187 328.315460 375.113739 316.057251 481.882355 370.732849 325.788330 249.829803 442.810822 423.253326 398.043884 460.057983 386.827118 443.972015 213.944397 448.678436 310.265106 392.810516 392.810516 362.271027 269.874603 286.304382 409.269958 347.641327 388.305817 394.029480 418.372314 352.711121 440.124786 434.477325 330.236664 378.186157 408.282959 496.000000 376.783386 310.834747 293.247101 553.875671 393.419067 565.279907 474.676636 488.369232 388.305817 248.728699 478.703125 273.802704 374.836914 323.299805 377.343231 372.636841 321.458221 432.258728 366.453094 390.095245 449.870697 442.425079 320.646454 385.945282 365.135864 381.023254 254.971893 408.940430 320.040314 463.416046 263.572388 267.177277 436.343628 365.398560 382.457825 391.297394 437.471130 410.261719 412.594635 248.000000 213.225861 419.408752 170.552048 351.977814 293.247101 328.315460 257.296844 296.672882 367.513763 342.484161 365.661621 271.606415 474.233429 345.748138 343.875427 368.848206 480.060486 518.269409 409.930603 363.047882 351.004852 392.203857 451.871887 481.425598 243.950043 396.180969 269.302216 468.978760 425.736786 477.353394 362.012817 280.454987 328.740448 437.471130 403.098419 322.683594 150.089828 396.799988 352.221924 389.496918 506.637421 389.496918 368.580566 409.930603 331.963409 183.889938 358.942749 299.825256 377.343231 408.282959 414.615509 381.882721 259.399384 329.593781 394.335419 415.973785 388.602905 400.239563 484.641235 437.094666 397.420959 459.641632 457.159302 428.972961 390.095245 321.661804 362.271027 412.259735 435.595184 365.925079 341.104095 380.167664 409.600006 476.905151 400.871338 364.873566 164.157730 443.197205 466.394867 234.923218 301.069366 352.221924 385.652252 454.703674 314.491638 390.095245 168.068832 271.461243 430.427124 150.534683 313.908539 236.674744 500.398041 468.546112 470.281494 371.003662 377.904755 259.399384 369.653564 402.778748 211.274536 445.139343 264.947327 415.293549 414.277313 228.579651 465.966980 306.335358 344.809235 297.541901 508.412415 458.811188 417.684204 377.623779 383.034698 485.104095 314.881592 359.960297 252.061539 400.555206 383.323761 397.420959 338.377075 348.595734 357.930939 547.605408 199.647797 435.221924 481.882355 455.111115 153.538086 268.874542 264.120636 174.417587 384.775757 257.950226 507.650177 394.335419 556.607117 289.403992 212.157059 445.920990 370.462433 363.307587 347.879456 381.595795 322.274109 
/features/features.21/Conv_param_0 396.490234 421.497101 456.748199 485.567871 321.051819 380.452423 360.727264 368.580566 372.636841 257.296844 519.594910 303.952118 352.711121 321.458221 136.975189 237.560333 312.941467 186.592209 399.924408 302.143951 392.203857 412.594635 367.513763 373.733643 438.983582 254.333496 301.784912 293.925934 398.356079 243.249039 419.062714 471.591461 349.555389 296.153931 434.105988 422.549072 297.890900 447.492523 290.396790 383.903259 401.505127 413.266083 177.962158 467.252991 371.003662 291.898865 334.367340 374.008850 338.377075 348.835175 386.827118 424.314117 405.350372 424.668884 357.427155 396.180969 347.403564 527.418457 332.833557 352.711121 351.247589 394.029480 328.740448 321.865662 268.732269 287.276031 209.013992 147.818390 413.602600 338.151794 320.040314 380.167664 409.930603 271.606415 379.032837 537.180298 472.029755 402.459595 299.648376 265.224030 440.124786 397.732178 276.335144 302.684143 382.457825 490.254822 403.418579 403.418579 240.484848 287.764313 330.666656 257.296844 373.733643 408.611420 371.546448 235.576996 398.043884 361.240387 352.466339 449.472565 418.717224 408.282959 356.924805 145.281464 409.600006 139.918457 414.954254 405.350372 377.343231 169.640610 362.788574 549.679626 383.323761 420.102570 311.788818 315.860687 388.900452 296.326721 415.293549 464.688019 403.098419 473.791046 307.447937 245.127411 506.132538 421.497101 374.560486 429.698822 236.014877 263.162689 298.240753 357.678864 398.668762 426.451721 279.221558 392.810516 375.113739 427.169037 425.024261 321.254913 353.201660 413.266083 405.350372 332.833557 254.460922 270.305481 215.762100 210.923584 371.818451 342.253357 267.881866 463.839264 414.954254 423.606354 395.872162 325.997437 200.911392 381.309296 332.615601 234.489380 369.922791 381.309296 395.256042 317.241730 293.586121 356.924805 355.924316 459.641632 545.839844 374.836914 320.444153 277.846832 416.314758 419.062714 422.900909 330.022095 428.249573 339.054749 273.066681 262.890259 374.560486 405.027100 267.599579 259.664612 407.300720 313.327576 502.129517 374.836914 475.565552 414.277313 436.343628 380.737640 468.546112 329.380035 333.051788 377.904755 318.634888 438.226044 243.715927 333.708282 344.108398 446.312836 434.477325 481.425598 240.484848 194.301453 340.418243 418.717224 377.063110 234.489380 293.586121 241.859055 452.274261 366.453094 525.236816 525.508545 342.715240 346.692139 398.356079 474.676636 400.555206 380.167664 321.051819 238.901230 344.575317 468.978760 231.496811 376.504089 345.983643 292.402985 446.705353 336.583160 195.347687 381.595795 234.489380 518.005127 333.051788 431.524200 488.839264 272.480682 299.118958 172.991821 223.156418 357.678864 262.347107 255.484909 402.459595 303.045349 368.046387 402.778748 305.782074 363.047882 362.012817 321.661804 309.697571 267.740631 169.754013 450.669037 532.394104 502.129517 487.900085 313.908539 227.964096 222.374786 312.172089 214.124786 301.784912 441.271942 410.925568 290.895752 368.848206 410.261719 331.963409 445.529816 293.247101 391.901245 422.549072 430.792206 484.641235 362.012817 224.736282 302.323822 328.315460 306.150696 401.822784 253.951996 515.376953 352.711121 376.225189 230.865448 172.054199 299.295227 282.012207 437.848267 353.940063 305.966278 192.387878 306.890625 426.093964 361.240387 381.882721 336.137665 376.504089 280.609955 295.464813 550.872009 340.418243 287.276031 428.610962 398.043884 322.888733 365.925079 426.451721 453.485718 331.530029 451.871887 350.278625 313.520996 219.871857 257.950226 327.891541 349.315002 306.705322 259.399384 202.030228 480.514679 389.198456 263.435699 377.063110 420.798676 205.130859 369.653564 355.675079 387.121948 241.169983 233.197433 428.249573 187.695496 316.648376 510.456268 421.497101 306.335358 357.678864 390.095245 357.427155 382.746033 274.098206 316.451080 406.323212 369.653564 349.796143 383.323761 504.123077 503.373627 369.384735 391.901245 421.497101 358.436127 332.833557 405.027100 345.278046 337.253662 437.848267 414.615509 253.066269 388.602905 410.261719 283.745239 337.702118 342.253357 330.022095 349.796143 279.375153 364.350067 352.711121 391.297394 276.786926 364.611633 328.527802 394.948669 384.484467 254.460922 376.225189 440.506500 180.363632 189.093079 404.382172 379.883331 480.969696 375.946716 205.296692 381.023254 311.406494 337.702118 266.057617 188.112595 479.154724 435.221924 408.611420 464.688019 480.060486 368.580566 368.313263 293.416534 327.046997 291.229370 282.325745 355.426178 496.000000 281.543243 314.102661 388.009155 406.648529 269.445099 421.497101 240.712799 210.748550 479.607178 364.873566 296.672882 502.129517 428.972961 325.370911 327.257721 294.778870 411.925385 259.002563 342.946655 387.712982 440.888885 412.594635 361.497498 251.437622 397.420959 455.928192 279.221558 255.228134 280.300232 298.240753 293.586121 406.974365 576.508484 511.226990 416.998352 350.520355 328.527802 319.436493 403.098419 323.918365 505.880493 366.717682 161.752869 308.194183 277.694916 432.626923 376.504089 304.134125 482.798492 307.820618 499.413971 375.946716 409.269958 424.314117 281.699402 516.424988 425.380249 432.995728 383.323761 368.313263 216.867630 309.320343 415.973785 505.377106 395.256042 316.451080 460.057983 396.799988 362.012817 299.825256 304.134125 390.095245 252.814331 237.782776 373.733643 166.963837 261.267487 406.648529 332.180511 407.627594 358.942749 374.008850 306.520203 516.162598 273.360596 325.162598 295.636780 342.946655 483.718109 409.269958 318.235596 431.891144 304.498810 346.692139 314.102661 412.259735 432.258728 256.517181 512.258179 341.104095 354.929413 339.508026 266.057617 
/features/features.24/Conv_param_0 375.390991 247.516571 271.606415 374.284454 375.390991 489.310211 314.102661 441.271942 379.599396 275.436005 430.062653 214.849411 438.226044 330.236664 479.154724 317.241730 323.094147 241.628922 368.848206 338.151794 297.193695 311.788818 227.964096 434.849304 252.562897 325.788330 294.437103 373.733643 380.737640 363.047882 225.134750 342.022888 403.739258 361.497498 367.248016 427.528625 340.875153 545.839844 350.278625 453.890961 504.123077 359.705383 379.599396 333.051788 304.134125 404.060455 428.972961 461.311523 447.887115 301.605713 394.948669 516.950623 316.254059 365.398560 227.759644 391.297394 353.693604 339.735107 447.492523 342.715240 501.385986 379.032837 355.924316 264.258057 396.180969 475.120667 324.746796 276.335144 278.151154 435.969086 319.436493 262.076355 381.309296 384.193634 298.767059 292.402985 332.615601 393.419067 394.948669 284.540070 334.808167 472.468842 462.993622 335.250153 324.125092 251.313217 387.712982 354.681549 364.350067 397.420959 472.908752 269.874603 234.706100 365.661621 325.370911 433.735260 390.996155 345.748138 431.524200 357.175812 438.604492 440.124786 379.599396 411.258301 342.022888 303.226257 356.173920 420.450317 366.188904 379.032837 335.250153 232.983490 267.317902 330.451538 465.113556 345.043488 301.964325 316.057251 322.888733 396.490234 271.026672 408.611420 378.186157 400.239563 421.497101 362.271027 367.779877 476.457794 340.875153 327.468719 367.513763 385.067474 337.029846 380.737640 280.765076 418.027985 387.121948 399.924408 502.875244 397.110229 368.046387 390.996155 332.833557 377.063110 199.804871 496.727631 316.057251 462.571960 398.981934 403.739258 478.703125 498.433746 249.706985 340.646545 388.602905 505.377106 388.305817 311.597534 392.203857 285.179108 371.818451 465.966980 349.555389 498.433746 386.532715 326.416443 232.131622 395.563873 442.040039 382.170044 279.221558 388.305817 240.712799 398.981934 357.930939 295.981354 309.697571 330.236664 478.252350 477.353394 352.221924 477.353394 436.343628 430.427124 330.451538 287.764313 449.472565 447.887115 312.748779 396.490234 430.062653 518.798767 296.153931 365.398560 343.642761 217.424652 412.594635 454.703674 362.788574 447.098602 402.778748 263.846222 418.372314 452.677368 297.019897 317.837311 458.397125 215.945572 324.125092 396.180969 391.297394 213.944397 316.254059 330.666656 346.219482 356.674164 281.543243 382.170044 438.983582 366.717682 284.062653 495.516083 273.950378 417.341003 335.029022 203.977509 414.615509 291.898865 357.427155 381.023254 331.313751 292.908875 385.945282 253.066269 436.343628 366.717682 381.023254 499.168549 177.464706 356.423859 467.252991 165.981705 220.444443 420.798676 482.339966 361.754974 291.396454 394.948669 440.888885 375.946716 308.568665 428.249573 286.951416 379.315918 463.839264 173.820663 474.676636 346.219482 282.954865 320.646454 196.253479 460.892914 338.151794 447.887115 290.230865 381.023254 358.436127 384.484467 98.050964 326.416443 266.336639 329.380035 331.530029 327.257721 361.754974 471.153992 374.836914 394.948669 366.717682 443.584290 342.484161 444.749573 282.325745 377.904755 449.472565 355.177612 195.648697 422.900909 317.440002 182.044449 418.027985 303.226257 393.419067 395.256042 279.068146 302.143951 390.395081 240.712799 397.732178 410.925568 391.297394 475.565552 398.356079 439.363312 363.828094 210.225159 457.159302 327.468719 202.837067 300.890991 440.888885 337.253662 538.033875 420.102570 396.799988 402.459595 305.782074 242.320618 301.964325 434.105988 395.256042 305.966278 435.595184 293.755920 387.417236 396.180969 225.935944 167.404083 367.513763 386.532715 362.529633 329.380035 354.929413 476.457794 358.689270 337.702118 366.188904 349.796143 372.090851 455.111115 500.891510 342.022888 317.241730 386.827118 343.642761 345.983643 383.613281 252.814331 329.593781 378.467957 311.406494 345.748138 349.315002 339.962524 345.983643 339.054749 448.282440 181.523941 436.343628 416.998352 291.062469 299.648376 522.266296 422.197845 334.808167 486.032532 229.198563 235.795731 320.040314 318.435120 355.675079 304.498810 275.585449 283.112610 300.890991 259.002563 325.997437 355.675079 421.147583 405.027100 412.930084 365.398560 283.270508 232.556778 393.419067 394.641815 345.983643 502.377838 348.356659 340.190216 264.395630 318.036316 422.900909 464.263245 386.532715 365.398560 222.960495 440.888885 241.859055 431.157898 513.293579 326.836548 319.235687 311.597534 448.282440 360.215607 422.549072 330.882080 331.530029 445.920990 445.139343 292.908875 304.134125 276.485565 400.871338 362.012817 316.254059 460.057983 414.954254 224.736282 452.274261 345.748138 488.839264 370.732849 472.029755 504.123077 369.116272 240.030243 460.475067 268.164734 325.788330 449.075165 294.607880 221.405411 398.356079 512.516663 357.678864 458.397125 476.011261 330.882080 297.716309 457.159302 323.918365 424.314117 424.668884 254.460922 344.809235 299.118958 199.334381 268.164734 434.477325 395.563873 348.595734 486.964539 414.615509 373.184418 304.134125 320.849030 394.335419 373.458832 183.491333 391.599060 410.593384 438.983582 436.343628 400.555206 278.761810 323.711914 318.834900 339.054749 533.232544 328.315460 237.782776 335.915344 338.828552 467.683228 321.458221 422.549072 320.646454 457.571167 258.870544 333.489166 405.998413 460.892914 158.720001 340.646545 519.329224 320.646454 266.756317 345.043488 470.717316 363.567657 180.107803 356.924805 381.309296 408.282959 396.490234 365.661621 264.395630 303.588776 343.410400 405.674133 284.859222 429.335602 394.029480 193.560974 356.423859 502.875244 394.641815 292.234741 442.810822 380.167664 
/features/features.26/Conv_param_0 371.003662 367.248016 409.600006 366.717682 375.946716 268.164734 310.834747 365.925079 420.798676 485.567871 384.484467 437.471130 430.427124 318.235596 447.098602 346.219482 402.459595 475.120667 424.314117 468.978760 343.875427 396.490234 543.794434 426.093964 449.472565 442.425079 317.241730 392.810516 384.193634 432.626923 327.468719 403.418579 363.828094 423.959930 484.641235 423.959930 296.499695 319.838806 424.314117 373.184418 415.973785 476.905151 318.834900 606.090698 525.508545 443.197205 467.252991 357.427155 327.046997 381.309296 537.464539 387.121948 472.029755 395.563873 403.739258 516.424988 485.567871 442.040039 428.610962 370.192413 359.960297 340.646545 471.591461 369.384735 354.929413 390.095245 396.180969 416.998352 334.367340 467.252991 386.532715 474.233429 328.103363 402.459595 220.444443 462.571960 349.555389 431.157898 364.088898 463.839264 500.644653 414.277313 468.546112 416.314758 475.120667 316.648376 511.742065 395.563873 422.549072 443.197205 410.261719 437.094666 406.323212 361.754974 289.899536 413.602600 575.528625 408.282959 519.860779 480.969696 308.007263 421.847168 365.661621 387.417236 277.391602 394.335419 415.633392 327.679993 563.711426 441.271942 449.870697 407.955017 492.632385 408.282959 342.484161 389.496918 351.004852 463.416046 468.114288 239.803589 354.434052 456.337830 432.626923 372.363647 397.732178 432.258728 435.221924 367.513763 375.668640 418.372314 393.114563 378.186157 427.169037 416.314758 421.847168 417.684204 304.316345 427.528625 353.201660 358.183350 366.453094 426.451721 305.047455 378.750183 370.462433 374.560486 484.641235 333.708282 363.307587 414.277313 361.497498 347.879456 255.099945 449.472565 299.118958 483.257843 258.870544 504.874756 310.075714 407.627594 298.065735 536.329468 396.180969 405.998413 460.057983 321.661804 296.846283 511.742065 408.282959 564.651489 282.325745 438.983582 394.641815 447.098602 385.067474 424.314117 382.746033 395.872162 335.029022 269.445099 514.072876 396.180969 352.711121 406.974365 418.027985 462.151031 491.203094 346.219482 405.350372 377.063110 462.993622 421.847168 384.775757 446.312836 451.871887 527.144775 406.648529 447.492523 455.519287 294.607880 236.234421 487.431854 405.674133 438.983582 460.475067 367.779877 332.180511 309.320343 391.599060 386.532715 349.796143 509.687897 414.954254 395.256042 460.475067 555.389832 499.413971 477.353394 442.040039 395.563873 348.356659 437.471130 372.363647 379.883331 413.939697 393.114563 411.258301 395.563873 391.901245 438.983582 438.983582 363.567657 335.693329 441.655640 331.313751 286.304382 455.519287 456.337830 406.323212 493.589905 423.959930 396.490234 469.846436 556.607117 331.313751 391.297394 484.641235 475.120667 425.380249 501.881409 463.839264 453.081177 464.688019 432.626923 410.593384 353.693604 278.456146 549.085388 558.750305 257.688477 462.151031 462.151031 267.458649 416.998352 306.890625 508.666992 493.110687 427.888794 492.155029 328.527802 442.040039 290.895752 462.151031 537.180298 326.836548 421.497101 405.674133 359.450806 290.895752 464.688019 365.925079 351.247589 543.212830 403.418579 471.153992 443.972015 437.471130 257.688477 486.964539 417.684204 429.335602 457.983765 546.721191 416.656281 399.924408 342.484161 420.450317 421.147583 361.497498 364.611633 393.114563 433.365173 376.504089 397.110229 496.970642 398.668762 398.668762 392.506958 424.314117 374.836914 478.252350 349.074921 398.668762 458.397125 462.571960 390.996155 365.925079 451.871887 440.888885 313.908539 481.425598 345.748138 469.412201 438.226044 330.236664 342.253357 460.057983 368.848206 358.942749 286.627533 374.008850 477.353394 221.598602 531.558350 316.254059 398.356079 385.945282 556.302307 278.914886 474.676636 486.032532 351.490662 352.466339 354.681549 362.788574 339.281219 532.394104 332.180511 469.846436 383.613281 476.905151 354.186890 280.454987 319.235687 333.270355 320.444153 394.948669 479.607178 422.900909 358.183350 407.627594 312.748779 451.069275 346.219482 471.153992 382.170044 412.259735 330.451538 346.219482 347.166107 301.784912 392.506958 330.451538 461.730896 328.315460 401.505127 542.632507 417.684204 418.027985 457.571167 524.423340 325.370911 454.296967 399.295593 481.425598 450.669037 409.600006 539.749207 346.928955 336.806366 293.247101 267.036804 450.669037 494.551117 412.930084 386.827118 373.733643 427.169037 403.098419 317.241730 379.032837 336.137665 382.746033 557.217773 449.075165 518.005127 410.593384 319.035187 478.252350 477.802460 350.762421 436.343628 446.705353 396.799988 494.551117 368.848206 325.579498 408.611420 350.037201 337.926819 331.530029 400.555206 543.503479 422.549072 373.184418 339.281219 459.226044 272.188629 344.809235 317.638519 346.219482 506.890228 259.002563 432.626923 346.455658 328.953369 371.818451 429.698822 428.972961 375.113739 369.922791 418.372314 493.110687 388.305817 347.641327 416.314758 411.591583 334.147369 292.402985 333.927673 447.492523 539.176208 434.849304 336.137665 443.972015 350.762421 339.962524 247.758041 434.477325 389.198456 445.139343 292.908875 446.705353 412.259735 437.848267 464.688019 523.342590 496.727631 253.571640 405.998413 393.419067 395.256042 368.046387 292.066711 410.593384 493.589905 499.905518 374.560486 370.192413 332.833557 404.704376 341.792725 437.848267 338.602661 317.638519 422.549072 375.946716 480.514679 468.978760 322.069763 325.788330 443.972015 349.074921 385.945282 447.098602 403.418579 438.226044 449.472565 516.162598 309.886505 473.791046 365.925079 332.833557 522.803894 554.177856 473.791046 362.529633 438.983582 518.269409 393.724030 264.533325 124.000000 
/features/features.28/Conv_param_0 528.241272 554.177856 512.258179 402.459595 408.282959 390.695374 410.261719 503.873016 405.027100 392.810516 295.636780 573.578796 354.929413 249.952759 413.266083 517.477356 505.377106 394.948669 399.609741 443.197205 571.963989 574.877197 385.652252 475.565552 398.043884 360.215607 359.705383 368.046387 511.484406 370.732849 368.313263 405.998413 353.447449 520.660156 368.046387 401.822784 366.453094 452.274261 493.110687 411.925385 423.606354 442.040039 403.739258 475.565552 459.226044 525.508545 431.524200 455.519287 434.105988 356.423859 550.275208 253.445114 1120.582520 543.503479 428.249573 382.457825 465.966980 434.849304 621.289307 353.940063 394.641815 407.955017 385.945282 407.300720 415.293549 491.678619 437.094666 432.258728 373.733643 500.891510 455.111115 368.313263 578.478333 413.602600 281.231445 471.591461 302.864624 417.341003 386.827118 377.343231 467.683228 423.959930 265.362579 451.069275 520.660156 427.169037 465.539886 465.113556 469.412201 513.812866 381.595795 513.034363 416.314758 460.892914 417.684204 246.316193 496.727631 353.447449 403.098419 451.871887 429.698822 340.875153 366.982666 408.282959 505.880493 474.676636 308.568665 413.266083 369.653564 408.940430 462.993622 237.782776 411.925385 408.282959 428.610962 406.648529 449.075165 447.098602 355.924316 462.151031 372.090851 398.043884 357.427155 493.110687 568.761475 492.155029 470.281494 505.377106 479.154724 390.395081 614.895874 446.312836 412.594635 313.134399 374.560486 610.461548 486.032532 319.035187 415.633392 451.069275 397.110229 433.365173 419.408752 539.749207 421.847168 462.571960 327.679993 383.323761 489.782074 368.848206 563.398804 382.170044 405.350372 369.922791 390.095245 474.233429 343.642761 412.594635 350.520355 471.591461 386.827118 454.703674 455.928192 465.966980 411.591583 682.208191 850.760498 467.683228 445.139343 481.882355 437.471130 457.159302 322.069763 412.259735 475.565552 396.490234 368.848206 432.626923 555.086365 562.151611 462.993622 509.432312 493.110687 341.333344 344.108398 417.341003 381.595795 376.225189 305.598083 520.660156 360.727264 369.653564 378.750183 408.611420 637.269775 234.489380 412.594635 411.591583 359.960297 426.093964 432.626923 339.281219 478.703125 944.937683 326.626373 392.506958 324.332062 492.155029 391.901245 383.613281 459.226044 392.203857 372.363647 473.791046 424.668884 628.983276 335.915344 283.270508 282.482758 414.954254 426.810089 626.655151 372.090851 377.623779 374.560486 453.890961 385.652252 378.186157 451.470215 468.114288 322.069763 345.043488 509.687897 581.125854 423.606354 589.557739 398.356079 382.746033 515.900452 497.945099 401.822784 605.368286 418.027985 420.798676 500.398041 408.282959 597.885803 644.957458 324.125092 306.705322 486.964539 465.113556 285.660278 672.275330 433.735260 311.597534 443.197205 462.151031 461.730896 351.247589 432.258728 502.129517 484.641235 343.642761 593.692566 414.615509 472.908752 383.903259 480.060486 447.492523 443.197205 380.452423 409.930603 754.126221 356.173920 317.043701 342.946655 484.641235 369.653564 277.998901 500.398041 439.743713 440.506500 589.557739 469.846436 442.810822 583.797729 330.451538 421.147583 463.416046 240.941177 384.484467 379.883331 336.583160 443.197205 457.159302 494.070038 375.113739 412.594635 328.953369 299.648376 464.263245 428.249573 418.717224 492.155029 443.584290 364.088898 400.239563 412.259735 469.412201 424.314117 517.477356 426.810089 323.094147 422.549072 426.810089 443.972015 384.484467 437.848267 398.043884 297.193695 468.114288 565.909729 372.090851 361.754974 336.360260 424.668884 355.675079 320.444153 372.363647 375.113739 371.003662 263.983368 389.496918 304.864349 363.307587 550.872009 1149.104126 487.900085 452.677368 402.140930 406.648529 518.269409 443.972015 260.864929 394.335419 494.551117 353.447449 541.187012 488.839264 440.888885 544.669189 520.927185 308.944031 513.034363 647.011475 460.475067 521.997925 511.742065 379.032837 381.309296 435.969086 473.791046 519.860779 457.983765 422.900909 462.993622 434.849304 463.839264 708.373779 483.718109 416.314758 439.743713 368.848206 539.749207 476.457794 402.140930 449.472565 486.498077 389.795868 416.314758 504.874756 402.140930 410.593384 513.553101 463.839264 488.839264 341.104095 346.692139 354.929413 612.670715 440.124786 408.611420 321.254913 516.424988 309.886505 431.524200 496.484863 396.799988 411.925385 331.530029 437.094666 433.735260 425.024261 399.924408 442.810822 356.924805 494.551117 381.882721 355.177612 444.749573 313.714630 475.565552 376.504089 264.395630 382.170044 398.356079 360.983643 345.043488 635.277039 412.594635 403.418579 403.739258 424.314117 428.610962 380.167664 480.514679 502.377838 357.678864 531.280334 438.604492 356.423859 402.140930 517.477356 451.069275 454.296967 317.043701 404.704376 352.221924 481.882355 456.748199 380.452423 443.972015 335.915344 453.081177 529.618347 303.952118 470.717316 472.468842 441.655640 362.788574 372.910431 495.033142 541.475464 438.604492 299.295227 516.950623 303.226257 319.035187 428.249573 400.555206 419.408752 517.213867 291.898865 508.412415 406.648529 486.498077 567.173645 434.105988 384.775757 379.032837 502.129517 449.870697 719.410767 338.602661 491.203094 462.993622 423.606354 420.450317 557.829773 381.309296 382.746033 306.335358 314.881592 372.636841 486.032532 422.197845 429.698822 371.003662 421.847168 345.043488 329.380035 715.357727 470.281494 282.954865 462.151031 426.451721 450.669037 405.027100 466.823517 507.903992 564.337769 468.978760 634.483459 468.546112 330.236664 261.671295 673.612732 528.241272 456.748199 434.105988 431.524200 
/classifier/classifier.0/Gemm_param_0 5661.953613 3599.944580 4974.938477 5182.485840 4636.809082 4583.189453 4543.161621 5563.550781 5271.103027 4644.571289 4707.620117 5188.947754 5616.107910 5593.462402 5228.060059 4878.705566 4904.580078 5172.822754 4364.484375 3405.512207 5041.230957 4910.367188 5373.190430 5159.995117 5016.920898 4805.468750 5291.208984 4325.920898 4087.952881 5447.036621 5616.107910 4118.293945 4102.056152 5457.751953 4580.666992 4573.116699 5016.920898 5176.040039 4936.579102 5221.500488 5188.947754 4580.666992 5244.531738 5623.697266 4453.222168 4794.396484 5696.832520 5099.921387 5475.705078 4836.183594 5763.900391 5179.260742 4660.174805 4811.024414 5087.452148 5081.240723 4649.760742 5623.697266 5261.107422 4660.174805 5665.808105 4583.189453 5192.184570 5137.698730 5366.261719 4325.920898 5071.951172 5504.677246 5570.998535 6553.600098 4355.349121 5608.539062 5328.471191 4130.556641 4747.901855 5631.307129 4995.841309 3745.757080 5345.582520 4702.300781 5331.884766 5563.550781 4618.796875 4186.655762 5857.193359 5923.894531 6160.675293 4159.456055 4657.566895 5936.570801 5526.608398 5153.604980 5026.009766 4777.882812 6070.803711 6695.955078 5115.594238 6000.772949 4824.969238 4195.096680 5457.751953 4945.378418 5257.784180 4939.508789 5457.751953 5001.846191 5274.443359 4621.361328 5195.425781 5234.636719 5359.351074 4380.564453 5692.935547 5404.592285 4422.461426 4942.441895 5608.539062 4629.072266 5241.229004 5373.190430 6061.960449 4957.160156 5949.300781 4924.894531 4930.729980 4995.841309 4777.882812 8687.966797 5362.804199 5277.788086 4603.469238 5493.776855 4966.033203 5195.425781 5041.230957 5166.400879 5669.667480 3402.727783 3989.967285 5121.890625 5992.132324 4872.993164 5763.900391 4895.924805 4884.432129 4689.054688 5979.218262 5090.563965 4441.340332 4652.359863 5185.714844 5552.416504 5740.049805 5411.620117 5053.474121 5261.107422 4702.300781 6088.567871 5311.469238 4218.485352 5486.534180 6039.965332 5211.691895 4350.795410 5661.953613 5163.195801 5472.104980 5422.196777 4850.274902 4833.375000 4548.126953 4339.453613 4149.088867 5159.995117 5075.043945 4422.461426 4864.448730 4489.251465 5574.729980 5623.697266 4508.706543 3755.898926 4753.325195 4939.508789 5380.137207 5221.500488 4560.587402 5128.202148 4163.617676 4890.171387 4841.810547 5112.452148 5352.458008 5362.804199 5131.363770 6717.572266 4530.795898 5044.286133 5443.474121 4861.607422 5311.469238 3885.654541 5673.532227 5237.930664 4704.958496 5047.345215 5848.961426 5404.592285 5677.402344 4530.795898 5493.776855 4312.472656 5689.044434 5271.103027 4933.652832 9222.240234 5099.921387 5261.107422 5075.043945 5099.921387 4974.938477 9283.961914 4971.966309 5861.318359 4686.414551 4907.471680 4855.934570 5287.847656 5084.344727 5331.884766 4382.871094 4392.122559 5857.193359 4853.103027 5201.919922 4636.809082 4718.294922 5394.084473 5121.890625 4723.650391 4052.128418 5032.086914 4511.149902 5159.995117 5824.403320 5673.532227 4608.566895 5373.190430 5593.462402 5267.767090 4786.125488 6079.672852 4904.580078 5464.919434 5022.976562 5188.947754 5237.930664 5582.208008 4290.243164 5065.777344 5109.313477 6234.510742 5541.326172 4319.186523 4875.847656 4927.810547 5457.751953 5454.175781 5301.319824 4971.966309 5763.900391 5907.077148 5214.957520 5287.847656 5804.094727 4138.772949 5796.011230 4867.293457 4734.397949 5447.036621 5767.894531 5824.403320 6057.548828 5325.062012 6110.919434 5277.788086 4813.806641 5681.277832 4396.762695 5118.740234 5949.300781 5771.894531 4898.806152 5147.230469 3462.176270 5450.604004 4898.806152 4328.170410 4898.806152 4833.375000 4678.511719 4936.579102 4881.567383 5882.029785 4731.706543 4816.592773 5545.018066 5335.302734 4067.972656 5949.300781 5271.103027 4310.239258 5570.998535 5970.639648 5468.509766 5696.832520 5044.286133 5443.474121 6755.740234 5593.462402 5115.594238 5692.935547 4255.149414 4802.695801 5658.104492 5228.060059 4907.471680 4971.966309 4065.985352 5812.201172 5552.416504 3856.845215 5627.499512 4364.484375 4924.894531 4565.590820 5137.698730 5608.539062 4573.116699 5144.049316 4927.810547 4921.982422 5081.240723 5429.270508 5464.919434 3606.183594 6018.128906 5685.158691 4294.670898 4913.265625 4939.508789 5439.916504 5545.018066 5362.804199 5163.195801 5800.050293 11082.652344 5355.902344 5355.902344 5582.208008 5261.107422 5604.762207 5812.201172 4850.274902 5065.777344 3889.285889 5992.132324 4040.326172 5408.104004 4575.630371 5325.062012 5013.898926 4272.624023 6733.876953 5084.344727 4634.227051 4696.993164 5261.107422 4861.607422 4100.035645 5783.927734 5390.590820 5150.416016 5816.262695 5224.778320 4968.998047 3772.924805 5882.029785 5779.911133 4930.729980 5192.184570 5125.044434 5619.899902 4686.414551 5962.085938 4668.015625 5106.179199 4134.660645 4813.806641 4998.842285 5563.550781 5224.778320 5198.670898 4921.982422 5153.604980 5408.104004 4830.569824 6291.059570 5597.224121 4024.696289 5508.320312 5661.953613 5297.945312 5261.107422 5597.224121 5106.179199 5791.977539 5172.822754 5559.834473 4573.116699 4802.695801 4745.194824 5166.400879 5224.778320 5118.740234 5724.258789 5783.927734 3817.922852 5318.256836 4496.527344 5541.326172 3839.055420 5501.039062 4694.344238 3948.326416 4413.081543 5294.575195 5308.081543 4974.938477 5619.899902 4410.743164 5530.280273 4673.257812 4639.393555 4761.482910 4681.143066 3603.061523 5376.661621 3831.985352 4465.167480 6427.082520 5567.272461 5515.621094 4598.382324 3488.295166 5574.729980 4930.729980 5820.330078 4913.265625 4629.072266 4939.508789 5415.141113 5195.425781 5439.916504 4921.982422 4819.381348 5287.847656 5844.854004 4992.844727 4192.983398 5118.740234 5254.464844 5321.657227 5501.039062 4867.293457 5408.104004 5328.471191 6295.818359 5724.258789 4945.378418 4799.926270 5099.921387 5294.575195 5281.137207 4506.265137 5053.474121 5231.346191 4942.441895 5084.344727 4647.164551 5404.592285 4689.054688 4766.937012 4750.611816 4833.375000 4580.666992 6717.572266 5890.355469 5328.471191 4913.265625 5144.049316 4945.378418 4603.469238 5331.884766 6088.567871 5700.734375 5331.884766 5185.714844 5271.103027 4898.806152 5501.039062 5796.011230 5147.230469 5681.277832 5188.947754 5352.458008 5016.920898 5600.990723 4780.627441 4406.073242 5075.043945 5062.695801 5103.048340 4467.563965 5824.403320 5755.928223 5071.951172 6026.844238 4986.861816 5013.898926 5352.458008 4816.592773 5153.604980 5062.695801 5099.921387 5087.452148 3982.331055 5635.119629 5304.698730 5461.333496 4668.015625 4560.587402 5153.604980 4933.652832 5882.029785 4904.580078 5156.797852 4702.300781 5093.679199 5537.639160 5578.466309 4957.160156 5081.240723 4242.136719 4613.676270 4963.072266 5068.862305 5454.175781 4530.795898 5195.425781 5775.899902 5287.847656 5176.040039 4739.790527 4235.660156 5468.509766 5264.435059 9661.139648 5287.847656 5053.474121 5824.403320 5185.714844 5318.256836 5224.778320 5044.286133 5047.345215 5195.425781 4392.122559 5134.529297 5619.899902 5140.872070 5390.590820 5075.043945 5328.471191 3502.976318 5390.590820 5468.509766 4611.120117 3779.778320 4954.209473 5515.621094 4791.636230 5301.319824 5720.324219 5728.198242 4197.212402 5369.723633 5185.714844 14300.810547 5537.639160 5791.977539 5041.230957 5661.953613 4995.841309 5208.430664 4013.052979 5373.190430 5559.834473 4998.842285 4811.024414 8224.379883 4670.635254 4783.374512 5106.179199 5597.224121 5957.818359 4176.152344 4186.655762 5642.760742 5153.604980 5328.471191 4312.472656 4802.695801 5604.762207 5574.729980 3828.459961 5274.443359 5156.797852 4224.909668 5287.847656 6417.171875 6088.567871 5638.937500 5696.832520 5631.307129 4450.840820 5940.808105 5068.862305 4296.888184 4533.263672 4621.361328 4878.705566 4436.605469 4623.928711 4867.293457 4808.245117 5932.339355 5156.797852 5515.621094 5373.190430 5198.670898 5271.103027 5026.009766 4668.015625 5359.351074 5325.062012 5559.834473 5497.405762 4930.729980 5251.149414 6201.991211 5254.464844 5515.621094 5635.119629 5578.466309 4734.397949 5328.471191 5464.919434 5548.714844 5570.998535 4968.998047 4750.611816 5962.085938 4977.914062 4375.958008 3128.974365 4508.706543 4629.072266 5121.890625 6044.351562 3559.911133 5349.018066 5567.272461 5144.049316 4870.141602 4989.851562 5144.049316 5468.509766 4588.242676 4726.333008 5936.570801 4808.245117 6407.291992 4670.635254 4980.893066 5195.425781 4907.471680 4858.769531 4593.306641 5600.990723 5016.920898 6538.155762 5065.777344 4513.596680 4841.810547 4764.208496 5394.084473 3442.130615 5308.081543 5593.462402 4745.194824 4229.203125 5369.723633 5166.400879 5890.355469 5059.618164 5600.990723 5001.846191 4750.611816 5616.107910 5631.307129 5593.462402 15188.087891 5376.661621 4639.393555 4927.810547 4718.294922 5508.320312 5447.036621 5099.921387 6257.948730 4296.888184 4974.938477 5873.727539 4870.141602 5716.395508 5163.195801 5144.049316 4675.883301 4525.868164 5677.402344 5342.151367 5044.286133 5940.808105 5681.277832 5318.256836 5472.104980 5156.797852 4919.073242 6088.567871 4830.569824 5140.872070 5654.260742 5791.977539 4568.096680 4543.161621 6142.488770 5616.107910 5712.472168 4805.468750 4995.841309 4939.508789 5106.179199 5128.202148 5150.416016 5156.797852 5093.679199 5537.639160 5267.767090 5274.443359 5198.670898 4710.284180 5472.104980 5732.143066 5134.529297 5475.705078 4791.636230 4838.995117 5541.326172 5010.880371 6538.155762 5251.149414 5700.734375 4501.391113 5125.044434 5493.776855 4951.262207 5530.280273 5244.531738 5013.898926 5163.195801 4791.636230 6031.211426 5267.767090 5109.313477 5192.184570 4930.729980 4951.262207 5759.911621 4518.497070 5144.049316 4910.367188 5198.670898 5205.173340 5179.260742 5244.531738 4827.768066 4523.408691 4887.300293 5563.550781 4252.975098 5708.554199 5099.921387 5685.158691 5604.762207 4968.998047 4924.894531 5411.620117 4850.274902 5661.953613 4598.382324 5716.395508 4616.235352 5342.151367 4443.711914 4203.571777 5153.604980 4694.344238 5150.416016 4850.274902 5221.500488 5616.107910 4455.605957 5314.860840 4942.441895 6084.117188 5390.590820 5508.320312 4945.378418 3907.545654 6165.238281 4321.428711 5673.532227 3599.944580 4983.875488 5450.604004 5019.946777 4799.926270 4606.016602 5791.977539 5511.968262 3993.796631 6005.102539 5747.978027 4257.325684 5608.539062 5974.926270 5767.894531 4933.652832 5689.044434 4093.985352 4960.114258 4963.072266 4686.414551 4753.325195 5010.880371 5221.500488 5450.604004 4960.114258 5673.532227 6412.228027 5661.953613 4611.120117 5342.151367 4974.938477 4205.695801 5335.302734 5029.046387 5631.307129 5176.040039 5390.590820 5362.804199 4387.491699 5522.940918 5325.062012 5137.698730 4550.613281 4611.120117 4116.257324 4613.676270 5271.103027 5563.550781 4861.607422 5301.319824 4186.655762 5019.946777 5251.149414 4580.666992 5563.550781 5047.345215 4986.861816 4406.073242 5314.860840 5038.179199 4957.160156 4394.441406 5545.018066 4606.016602 4813.806641 4641.980957 5234.636719 5314.860840 5439.916504 3772.924805 4788.879395 5907.077148 5578.466309 4884.432129 5019.946777 5261.107422 5205.173340 5515.621094 4545.642578 5422.196777 4422.461426 4626.499023 5685.158691 4783.374512 4872.993164 4595.843262 5661.953613 4971.966309 5118.740234 4844.628418 4593.306641 4933.652832 4819.381348 5475.705078 4995.841309 5308.081543 5894.526855 4427.166016 5425.731445 5744.011230 5301.319824 4540.683105 4989.851562 4508.706543 5007.865234 5013.898926 5068.862305 4348.522461 4631.648438 5179.260742 5556.123047 4805.468750 4833.375000 5153.604980 6392.528320 5172.822754 5241.229004 5475.705078 4841.810547 5422.196777 4585.714844 5291.208984 9572.250977 5970.639648 5163.195801 5156.797852 4887.300293 4227.055176 5612.320801 5311.469238 4138.772949 4611.120117 4855.934570 4255.149414 4775.141602 5068.862305 5508.320312 5631.307129 3970.931396 5791.977539 5638.937500 4884.432129 5783.927734 5771.894531 5919.681152 5163.195801 4691.697754 4942.441895 5208.430664 4729.018066 5234.636719 5415.141113 5274.443359 5425.731445 4901.691406 5578.466309 4855.934570 4438.971680 4639.393555 4647.164551 4595.843262 4769.668945 5936.570801 5422.196777 5541.326172 4583.189453 5261.107422 5137.698730 4726.333008 5619.899902 5065.777344 5681.277832 5044.286133 4966.033203 5911.272949 4858.769531 5109.313477 6215.886719 13348.953125 5689.044434 5708.554199 4180.347656 5548.714844 4844.628418 7011.854980 5450.604004 4786.125488 4847.450195 5185.714844 5099.921387 5665.808105 6044.351562 4595.843262 6031.211426 4570.604980 4723.650391 5616.107910 5311.469238 4864.448730 5873.727539 5387.101562 4881.567383 5131.363770 4530.795898 4766.937012 5071.951172 5461.333496 5454.175781 4986.861816 4791.636230 5808.145020 5526.608398 5188.947754 5096.798340 5519.278320 4983.875488 4966.033203 4907.471680 5087.452148 5261.107422 5654.260742 4207.822266 5677.402344 5708.554199 4753.325195 4489.251465 5979.218262 4044.252686 3388.873047 4893.046387 4884.432129 4138.772949 4945.378418 5650.422363 4872.993164 4548.126953 4974.938477 4712.951172 4277.015625 5631.307129 5218.227051 4974.938477 4649.760742 5234.636719 5261.107422 5712.472168 5261.107422 4348.522461 4496.527344 4745.194824 4974.938477 6300.584473 6160.675293 5631.307129 4266.054199 4707.620117 5638.937500 4718.294922 3422.315674 5865.448730 4036.407471 5331.884766 5134.529297 15456.029297 5198.670898 4481.999023 5490.152832 4112.189941 5439.916504 5182.485840 5228.060059 5121.890625 5038.179199 5029.046387 5192.184570 5247.838379 5369.723633 5338.724609 5166.400879 4777.882812 5019.946777 5112.452148 6031.211426 6243.864746 5163.195801 5331.884766 5497.405762 4916.167969 5800.050293 4255.149414 5271.103027 5890.355469 5468.509766 5882.029785 4479.586426 5068.862305 4413.081543 4974.938477 5661.953613 5254.464844 4683.777344 4742.491211 5853.074707 3860.423096 5062.695801 5022.976562 4933.652832 4995.841309 4501.391113 4281.415527 4613.676270 4797.159668 5137.698730 4634.227051 4769.668945 4681.143066 5530.280273 5056.544434 5153.604980 4167.787598 4498.958008 5121.890625 4913.265625 6884.261230 6368.073242 4916.167969 5159.995117 5638.937500 5228.060059 5779.911133 5796.011230 5497.405762 5567.272461 5700.734375 5570.998535 5224.778320 5804.094727 5894.526855 5301.319824 5992.132324 5816.262695 5035.131348 5201.919922 4910.367188 5096.798340 4998.842285 5848.961426 5284.490234 5304.698730 6183.560059 6048.744141 4797.159668 5311.469238 5411.620117 4263.868652 5422.196777 5853.074707 5589.706055 5234.636719 6215.886719 4927.810547 4980.893066 4246.465332 5137.698730 4598.382324 5118.740234 4794.396484 4634.227051 5812.201172 6128.918945 4766.937012 4553.103027 4186.655762 4523.408691 6197.373047 5828.481934 4989.851562 5001.846191 3889.285889 5159.995117 7029.621582 4575.630371 5800.050293 4901.691406 4496.527344 5349.018066 4450.840820 5237.930664 5125.044434 3369.664795 5974.926270 4881.567383 5029.046387 5131.363770 5394.084473 4563.087891 5201.919922 4921.982422 4734.397949 5084.344727 4921.982422 5308.081543 5447.036621 7237.454102 4844.628418 4248.632812 4629.072266 4548.126953 5820.330078 4636.809082 4775.141602 5623.697266 5084.344727 4446.085449 5779.911133 5447.036621 4355.349121 4580.666992 5026.009766 4310.239258 5387.101562 5208.430664 4901.691406 4939.508789 5744.011230 4769.668945 5966.359863 4312.472656 5436.363281 4631.648438 4971.966309 4431.880859 6239.184570 5099.921387 5071.951172 5429.270508 4737.092773 4457.992676 5185.714844 4830.569824 5318.256836 5387.101562 4147.021484 5570.998535 4678.511719 4147.021484 5515.621094 3807.443848 4675.883301 5294.575195 4850.274902 4963.072266 4528.330566 4112.189941 4657.566895 4427.166016 5800.050293 4750.611816 5205.173340 5708.554199 5812.201172 6044.351562 4704.958496 5418.666504 4858.769531 5376.661621 5271.103027 5182.485840 4756.041016 4986.861816 4233.505371 4913.265625 4861.607422 4960.114258 5486.534180 5294.575195 4647.164551 4780.627441 4995.841309 5767.894531 5704.641602 5099.921387 4739.790527 5041.230957 5172.822754 4670.635254 5359.351074 5096.798340 5019.946777 5205.173340 3911.218018 3982.331055 5376.661621 5182.485840 4641.980957 5394.084473 4797.159668 5182.485840 4921.982422 4704.958496 5475.705078 5068.862305 5689.044434 4895.924805 3989.967285 4686.414551 4491.673828 3538.721191 5172.822754 5035.131348 5578.466309 4699.645508 5804.094727 5335.302734 4288.033203 5182.485840 4951.262207 4227.055176 4314.708008 6239.184570 3918.583740 3084.904297 5257.784180 5497.405762 3712.342529 5362.804199 5415.141113 5907.077148 4353.071289 6324.522949 4704.958496 5804.094727 6310.138184 5490.152832 4178.249023 5047.345215 5254.464844 5237.930664 5582.208008 5294.575195 4904.580078 5439.916504 5537.639160 4578.147461 4513.596680 5205.173340 4830.569824 5214.957520 5366.261719 3896.569336 4494.099121 6372.949707 5787.949707 5376.661621 5321.657227 5112.452148 5274.443359 6427.082520 4481.999023 5394.084473 4720.971191 4960.114258 4986.861816 9610.937500 5436.363281 4948.318848 5053.474121 5497.405762 5053.474121 5093.679199 4364.484375 5342.151367 5090.563965 5836.656250 5461.333496 5277.788086 4169.875977 5411.620117 5454.175781 5362.804199 5836.656250 4707.620117 5791.977539 5156.797852 4641.980957 7728.014648 5294.575195 5218.227051 4296.888184 4634.227051 5408.104004 5311.469238 5059.618164 5131.363770 5436.363281 5274.443359 4861.607422 6467.033203 5291.208984 4980.893066 5035.131348 5205.173340 5824.403320 6133.435547 4513.596680 5115.594238 4898.806152 5247.838379 4742.491211 4548.126953 5779.911133 4623.928711 4986.861816 6075.234863 4323.673828 5677.402344 4844.628418 5128.202148 4385.180176 6035.585449 4429.521973 6039.965332 5673.532227 5075.043945 5541.326172 5001.846191 4954.209473 4986.861816 4729.018066 4593.306641 4496.527344 4813.806641 5479.310059 5638.937500 4890.171387 4535.733887 5401.084961 4838.995117 5321.657227 5362.804199 5131.363770 5304.698730 5450.604004 4747.901855 5050.407715 5059.618164 5007.865234 5287.847656 5631.307129 5118.740234 4977.914062 4833.375000 5479.310059 4968.998047 5894.526855 5530.280273 4989.851562 5812.201172 6377.833008 4568.096680 4585.714844 6115.409180 5418.666504 5065.777344 5172.822754 6600.374512 4415.422852 5472.104980 4870.141602 5099.921387 5231.346191 5050.407715 4647.164551 4895.924805 7807.759766 5401.084961 4884.432129 5254.464844 5301.319824 4992.844727 4875.847656 5345.582520 5658.104492 4472.365234 5234.636719 6053.143066 4321.428711 5673.532227 4448.461914 5026.009766 4678.511719 4723.650391 3982.331055 5740.049805 4657.566895 4489.251465 4942.441895 5328.471191 3889.285889 5147.230469 5244.531738 5179.260742 4726.333008 6750.261230 5001.846191 5661.953613 4462.772949 5447.036621 6093.024902 5106.179199 5078.140137 4498.958008 4044.252686 5953.556641 5475.705078 4274.818848 5192.184570 7168.881836 5812.201172 5816.262695 5482.919434 6314.925781 4710.284180 3967.145752 4942.441895 5205.173340 6295.818359 5065.777344 4954.209473 4850.274902 5271.103027 3803.963379 4013.052979 4875.847656 4726.333008 4974.938477 4380.564453 5234.636719 5646.588867 4691.697754 4954.209473 4822.173828 5570.998535 4726.333008 4339.453613 5486.534180 3982.331055 4328.170410 5251.149414 5261.107422 5767.894531 5504.677246 4595.843262 4201.449707 5681.277832 5394.084473 5301.319824 4503.826660 4144.956055 5159.995117 5642.760742 5287.847656 4753.325195 4968.998047 4231.353516 5115.594238 4841.810547 4178.249023 4942.441895 5274.443359 4147.021484 5519.278320 4895.924805 5345.582520 5134.529297 5068.862305 4301.329102 5873.727539 5257.784180 5767.894531 5328.471191 4644.571289 5221.500488 3940.848389 4747.901855 7320.204102 4182.448242 4764.208496 4122.373535 5439.916504 5898.704590 5188.947754 4631.648438 5224.778320 5665.808105 4939.508789 5218.227051 5376.661621 13894.945312 4791.636230 5732.143066 4301.329102 4157.378418 3967.145752 5211.691895 5570.998535 5022.976562 4921.982422 5689.044434 4933.652832 5501.039062 4813.806641 4992.844727 4560.587402 5526.608398 5940.808105 5548.714844 5689.044434 5224.778320 5068.862305 5490.152832 5461.333496 4858.769531 6701.346191 4729.018066 5390.590820 4575.630371 4396.762695 4595.843262 5244.531738 5635.119629 4802.695801 5311.469238 6061.960449 4357.629395 5541.326172 5075.043945 4777.882812 4616.235352 5828.481934 6005.102539 5928.113770 4887.300293 5450.604004 5665.808105 5685.158691 5053.474121 4772.403809 4647.164551 4288.033203 4408.406738 5274.443359 5708.554199 4855.934570 4161.536133 5274.443359 5556.123047 4884.432129 5526.608398 4980.893066 4415.422852 4686.414551 5376.661621 5501.039062 4448.461914 5205.173340 5836.656250 5205.173340 5147.230469 6133.435547 4543.161621 4634.227051 5016.920898 5600.990723 4660.174805 4227.055176 5109.313477 4753.325195 4303.553223 5056.544434 5635.119629 5208.430664 5331.884766 4893.046387 4904.580078 5461.333496 5526.608398 4901.691406 4257.325684 5578.466309 6128.918945 5359.351074 5654.260742 4255.149414 4056.077881 5169.609863 5185.714844 5349.018066 5007.865234 4339.453613 5056.544434 4916.167969 5228.060059 5234.636719 5508.320312 4954.209473 5728.198242 5567.272461 5035.131348 6432.049316 4758.760254 4369.066895 5696.832520 4968.998047 4729.018066 6706.746094 5816.262695 4867.293457 5304.698730 5090.563965 5304.698730 5623.697266 5156.797852 5304.698730 5241.229004 5137.698730 5759.911621 4989.851562 6211.247559 5366.261719 5032.086914 4696.993164 5522.940918 5032.086914 9745.986328 5600.990723 7231.166016 5415.141113 3982.331055 5383.617188 4822.173828 5331.884766 4623.928711 5271.103027 4715.621582 5125.044434 5096.798340 4791.636230 4945.378418 5962.085938 5156.797852 5556.123047 5321.657227 4783.374512 5016.920898 5022.976562 4963.072266 6206.615723 5787.949707 5041.230957 4314.708008 5578.466309 3871.196289 5349.018066 4032.496094 4742.491211 5345.582520 4734.397949 5047.345215 5362.804199 5059.618164 4056.077881 4489.251465 6039.965332 4838.995117 4691.697754 4893.046387 13906.552734 5050.407715 5163.195801 6018.128906 7181.252930 4087.952881 5600.990723 4231.353516 3860.423096 5919.681152 5397.582520 4942.441895 12062.422852 4919.073242 5198.670898 4550.613281 4824.969238 5604.762207 5267.767090 4616.235352 4629.072266 6031.211426 5084.344727 4392.122559 6827.786621 4116.257324 5373.190430 6005.102539 5840.752441 4850.274902 5228.060059 5261.107422 5696.832520 6079.672852 5728.198242 5234.636719 5511.968262 6018.128906 4246.465332 4968.998047 5642.760742 6392.528320 5016.920898 4255.149414 5205.173340 5221.500488 4989.851562 5673.532227 4802.695801 5254.464844 4644.571289 4957.160156 5099.921387 5824.403320 5179.260742 5522.940918 5716.395508 7281.777832 4870.141602 4214.213867 4766.937012 4786.125488 5457.751953 5600.990723 5677.402344 4319.186523 4707.620117 3839.055420 4977.914062 5708.554199 17680.451172 4535.733887 5026.009766 5254.464844 5475.705078 5205.173340 4786.125488 4484.413574 5736.093750 4963.072266 5156.797852 5318.256836 5578.466309 5545.018066 5277.788086 5593.462402 4248.632812 5677.402344 5987.821777 4971.966309 4389.805664 5593.462402 5244.531738 4565.590820 5297.945312 3993.796631 5056.544434 5608.539062 5751.950195 5241.229004 4747.901855 4954.209473 5237.930664 5251.149414 5447.036621 5254.464844 5281.137207 4853.103027 3797.021973 4126.460938 5125.044434 5928.113770 4508.706543 4957.160156 5677.402344 6262.657715 4096.000000 5638.937500 8120.070312 5646.588867 4799.926270 4910.367188 4707.620117 5134.529297 6097.488770 5010.880371 5658.104492 6013.780273 5134.529297 6110.919434 5156.797852 5013.898926 5224.778320 5251.149414 3933.398926 4235.660156 4108.130371 5115.594238 5254.464844 4799.926270 5022.976562 4530.795898 4312.472656 5508.320312 5940.808105 5522.940918 3377.870117 5301.319824 5638.937500 5140.872070 4417.766602 5716.395508 4872.993164 4481.999023 4657.566895 5007.865234 5318.256836 4417.766602 4341.717285 5211.691895 5482.919434 5264.435059 5071.951172 5804.094727 5281.137207 5515.621094 4180.347656 5865.448730 5147.230469 4927.810547 5044.286133 4927.810547 4149.088867 5646.588867 5241.229004 5065.777344 5775.899902 4963.072266 5755.928223 4816.592773 5450.604004 5383.617188 5166.400879 4081.938232 4951.262207 5224.778320 4455.605957 5087.452148 5291.208984 5422.196777 4570.604980 5297.945312 5198.670898 4761.482910 5134.529297 5724.258789 4791.636230 5796.011230 4694.344238 4822.173828 4434.241699 5261.107422 5422.196777 5075.043945 4417.766602 4346.251465 4369.066895 4844.628418 5623.697266 6816.603027 4438.971680 5294.575195 5247.838379 4924.894531 4745.194824 4977.914062 4731.706543 5261.107422 4858.769531 4898.806152 5156.797852 5321.657227 5029.046387 4715.621582 5832.566406 4699.645508 6248.552734 6160.675293 4933.652832 4553.103027 5234.636719 4279.214355 4520.951660 4797.159668 4986.861816 5287.847656 5121.890625 5401.084961 5185.714844 3766.095947 5704.641602 4957.160156 11984.264648 4563.087891 4460.381348 3849.709473 5208.430664 5457.751953 4887.300293 5394.084473 4841.810547 3663.323975 5661.953613 4691.697754 4462.772949 5221.500488 5665.808105 5314.860840 4916.167969 5026.009766 5530.280273 6110.919434 6397.441895 4171.965820 5530.280273 5578.466309 5369.723633 6035.585449 5192.184570 4593.306641 4805.468750 4288.033203 5454.175781 4855.934570 5940.808105 4895.924805 5464.919434 5472.104980 4968.998047 5271.103027 5436.363281 5192.184570 4864.448730 4467.563965 5035.131348 5541.326172 5010.880371 4805.468750 4998.842285 5658.104492 5700.734375 5493.776855 5541.326172 4910.367188 5820.330078 5415.141113 4794.396484 3944.583984 4259.504395 5041.230957 4064.000000 6183.560059 4745.194824 3584.440918 4394.441406 5134.529297 4255.149414 4691.697754 4387.491699 4881.567383 6272.096680 5321.657227 5383.617188 4660.174805 5677.402344 4242.136719 5454.175781 5294.575195 5619.899902 4424.812500 5832.566406 5345.582520 4712.951172 5387.101562 5783.927734 5090.563965 5700.734375 5284.490234 4870.141602 4875.847656 5728.198242 5198.670898 4742.491211 4472.365234 5084.344727 4570.604980 5214.957520 4462.772949 6239.184570 4951.262207 4861.607422 4087.952881 5654.260742 5342.151367 5038.179199 3709.033936 4995.841309 4895.924805 5096.798340 4408.406738 4237.816895 4598.382324 4936.579102 5767.894531 5928.113770 5593.462402 5022.976562 5026.009766 5056.544434 6106.436035 5454.175781 5004.854004 6133.435547 5192.184570 5574.729980 6397.441895 5284.490234 6066.378906 5125.044434 3725.636475 5247.838379 3842.600098 4936.579102 4995.841309 4613.676270 6220.532227 7398.286133 5159.995117 5261.107422 5159.995117 4833.375000 4477.176758 4797.159668 5144.049316 4802.695801 5026.009766 5244.531738 5308.081543 5415.141113 5208.430664 4819.381348 4578.147461 4089.961670 4726.333008 5779.911133 5574.729980 5593.462402 5635.119629 5308.081543 4822.173828 6690.572266 5600.990723 5214.957520 5559.834473 3871.196289 3647.270752 5970.639648 5137.698730 5032.086914 5447.036621 4811.024414 5284.490234 4867.293457 6994.178223 5537.639160 4060.035156 5267.767090 4930.729980 5732.143066 5234.636719 4983.875488 5387.101562 7972.291016 6215.886719 4486.831055 5873.727539 5231.346191 5140.872070 4786.125488 5461.333496 4639.393555 5059.618164 5179.260742 5231.346191 5751.950195 4296.888184 3937.120117 5047.345215 12893.992188 5247.838379 4441.340332 5519.278320 5349.018066 5093.679199 6039.965332 4636.809082 5026.009766 4443.711914 5013.898926 5533.957520 4389.805664 6048.744141 5144.049316 5087.452148 5182.485840 5241.229004 4919.073242 5234.636719 4758.760254 4281.415527 5241.229004 4887.300293 5597.224121 4392.122559 4283.619141 4568.096680 5271.103027 5642.760742 6018.128906 4016.926758 5882.029785 4073.946045 4977.914062 5759.911621 5387.101562 4443.711914 5211.691895 4723.650391 5425.731445 5237.930664 4780.627441 3749.131592 4528.330566 5704.641602 5062.695801 4921.982422 6522.783691 5359.351074 4707.620117 5314.860840 5552.416504 4729.018066 3993.796631 5486.534180 5450.604004 5254.464844 4769.668945 5010.880371 11739.170898 5454.175781 5408.104004 6382.724121 4660.174805 4205.695801 6314.925781 5436.363281 5147.230469 4989.851562 5318.256836 5724.258789 5824.403320 4387.491699 5429.270508 5308.081543 5589.706055 4924.894531 4913.265625 4921.982422 4753.325195 5096.798340 4321.428711 5026.009766 4343.983398 5231.346191 4308.008301 4942.441895 6211.247559 5692.935547 5631.307129 6744.791016 5314.860840 4980.893066 5519.278320 6563.937012 4827.768066 5228.060059 5118.740234 4884.432129 4808.245117 5166.400879 4833.375000 5211.691895 7005.952637 4921.982422 4799.926270 5848.961426 4933.652832 4968.998047 4186.655762 5156.797852 4847.450195 5511.968262 4907.471680 5493.776855 4737.092773 5065.777344 6867.221191 5522.940918 5882.029785 4808.245117 5284.490234 5251.149414 4424.812500 4983.875488 5979.218262 5493.776855 5552.416504 4872.993164 3989.967285 5482.919434 4750.611816 5355.902344 4498.958008 5479.310059 4044.252686 4694.344238 4715.621582 5919.681152 5501.039062 4362.197266 4895.924805 4884.432129 4024.696289 4071.953125 4565.590820 5128.202148 4739.790527 17187.552734 5308.081543 4939.508789 4998.842285 5970.639648 6119.905762 5401.084961 5284.490234 6201.991211 4971.966309 4540.683105 5447.036621 5582.208008 6432.049316 5208.430664 5767.894531 4939.508789 4067.972656 5747.978027 4606.016602 5681.277832 4986.861816 5408.104004 4629.072266 5556.123047 5570.998535 5712.472168 14757.219727 5103.048340 4893.046387 5251.149414 4660.174805 4867.293457 6178.969727 6026.844238 4802.695801 5425.731445 4881.567383 3896.569336 4872.993164 5548.714844 5304.698730 5291.208984 5919.681152 4600.924316 4696.993164 4992.844727 5084.344727 4861.607422 5277.788086 4378.259766 4328.170410 5574.729980 4626.499023 4303.553223 4341.717285 4723.650391 4159.456055 5508.320312 4715.621582 5522.940918 4890.171387 5172.822754 5578.466309 4613.676270 5267.767090 3213.541260 5131.363770 4128.507812 4399.086914 6053.143066 4772.403809 5490.152832 4919.073242 5816.262695 5783.927734 5035.131348 5415.141113 6026.844238 5996.449707 4878.705566 5359.351074 4568.096680 5383.617188 5234.636719 6512.575684 4777.882812 3817.922852 4731.706543 5828.481934 5185.714844 5422.196777 4631.648438 5669.667480 4636.809082 5740.049805 4222.766113 4553.103027 5533.957520 3835.517090 5612.320801 9706.206055 5179.260742 5490.152832 4009.187012 4378.259766 5308.081543 5422.196777 5297.945312 3982.331055 4403.741699 4657.566895 5685.158691 5198.670898 5185.714844 3569.070312 4731.706543 5533.957520 3599.944580 4252.975098 5121.890625 5218.227051 5218.227051 6314.925781 4957.160156 5056.544434 5759.911621 4122.373535 4720.971191 5857.193359 5169.609863 3692.578613 5708.554199 5159.995117 5075.043945 4696.993164 4933.652832 5394.084473 5390.590820 4387.491699 5150.416016 5582.208008 3925.977295 4910.367188 5140.872070 6093.024902 5125.044434 4786.125488 4491.673828 4898.806152 5291.208984 5759.911621 4339.453613 3779.778320 4362.197266 4387.491699 3783.214600 5907.077148 4036.407471 6178.969727 5751.950195 5234.636719 4841.810547 5658.104492 5349.018066 5176.040039 5853.074707 5359.351074 4945.378418 5247.838379 5369.723633 5631.307129 5304.698730 4875.847656 5390.590820 4766.937012 3978.523926 4491.673828 4983.875488 5873.727539 5387.101562 5454.175781 4498.958008 5308.081543 5338.724609 5411.620117 5228.060059 4780.627441 5475.705078 4890.171387 5231.346191 5096.798340 5677.402344 5486.534180 4983.875488 4255.149414 5820.330078 4745.194824 4171.965820 5432.814453 5134.529297 5898.704590 5264.435059 5408.104004 5032.086914 4629.072266 4550.613281 5468.509766 5247.838379 5237.930664 5397.582520 6348.643555 5022.976562 5137.698730 5979.218262 5732.143066 5708.554199 5321.657227 4919.073242 17020.597656 4603.469238 5244.531738 5140.872070 5201.919922 4747.901855 5131.363770 5415.141113 5383.617188 4968.998047 4691.697754 5619.899902 5974.926270 5338.724609 5291.208984 5447.036621 5979.218262 6061.960449 5635.119629 3256.287842 5026.009766 7000.060547 4455.605957 4681.143066 5257.784180 5578.466309 4707.620117 4110.159180 4565.590820 4277.015625 4942.441895 4723.650391 5281.137207 5744.011230 4180.347656 4224.909668 4299.107422 4881.567383 5689.044434 4533.263672 4916.167969 4901.691406 5450.604004 4753.325195 4710.284180 5526.608398 5486.534180 5345.582520 4910.367188 4977.914062 5349.018066 3878.411865 4802.695801 5740.049805 5582.208008 5401.084961 5314.860840 5627.499512 5013.898926 6314.925781 4399.086914 5267.767090 3439.285889 5254.464844 4954.209473 5169.609863 4822.173828 5022.976562 7005.952637 4742.491211 5800.050293 4104.079102 5281.137207 5106.179199 4516.045410 5472.104980 5408.104004 5724.258789 5294.575195 4100.035645 6248.552734 5251.149414 5791.977539 5188.947754 5188.947754 2349.822754 5422.196777 5241.229004 5257.784180 5362.804199 4884.432129 4424.812500 6151.568359 5541.326172 5450.604004 6066.378906 3337.238281 5486.534180 6579.503418 5112.452148 4167.787598 5712.472168 5010.880371 5394.084473 5635.119629 4474.770020 5144.049316 5185.714844 4525.868164 5464.919434 5589.706055 4942.441895 5314.860840 5287.847656 5373.190430 5090.563965 4621.361328 4893.046387 11600.100586 4450.840820 4951.262207 5408.104004 4884.432129 4816.592773 16621.212891 4992.844727 5047.345215 5508.320312 4870.141602 4323.673828 5585.954590 4951.262207 5325.062012 5665.808105 5147.230469 5208.430664 4699.645508 4718.294922 5665.808105 4212.081055 4750.611816 6031.211426 4797.159668 5992.132324 5436.363281 4494.099121 5677.402344 5053.474121 5125.044434 5454.175781 4813.806641 4753.325195 4783.374512 5267.767090 5650.422363 7444.608398 5335.302734 5992.132324 5836.656250 5331.884766 4813.806641 5401.084961 5957.818359 5131.363770 5032.086914 5635.119629 5294.575195 4652.359863 5747.978027 4855.934570 5182.485840 5192.184570 5195.425781 5490.152832 4696.993164 5369.723633 5237.930664 4881.567383 4538.207031 5619.899902 5218.227051 3952.075928 5281.137207 5115.594238 5029.046387 4169.875977 5234.636719 4212.081055 5297.945312 4696.993164 5231.346191 5112.452148 5454.175781 4907.471680 5029.046387 5065.777344 4580.666992 4366.774414 4989.851562 5504.677246 4901.691406 5962.085938 5545.018066 4718.294922 5945.051270 5318.256836 5218.227051 4149.088867 4924.894531 5376.661621 4142.893066 5244.531738 5638.937500 4723.650391 4548.126953 4673.257812 4791.636230 4348.522461 5804.094727 5224.778320 4489.251465 5383.617188 4718.294922 4974.938477 5401.084961 4783.374512 5454.175781 5482.919434 4611.120117 5022.976562 4720.971191 5115.594238 5277.788086 4986.861816 4963.072266 5195.425781 5597.224121 4613.676270 4085.946045 5559.834473 4816.592773 6031.211426 5992.132324 5059.618164 5804.094727 4791.636230 5604.762207 5065.777344 5567.272461 5325.062012 4108.130371 15037.166992 5501.039062 5570.998535 5902.888184 4535.733887 4734.397949 4927.810547 4543.161621 4312.472656 5387.101562 4881.567383 6169.808594 5355.902344 4285.824707 5387.101562 5118.740234 5311.469238 4385.180176 4995.841309 5093.679199 5140.872070 4983.875488 4268.242188 4668.015625 5075.043945 5231.346191 4824.969238 5552.416504 5479.310059 5627.499512 5486.534180 5325.062012 5056.544434 5704.641602 4494.099121 5221.500488 5669.667480 5828.481934 5493.776855 4159.456055 4443.711914 5612.320801 4639.393555 4989.851562 4992.844727 3462.176270 4811.024414 5093.679199 4678.511719 6512.575684 4786.125488 4966.033203 5035.131348 4417.766602 5390.590820 4963.072266 5928.113770 5685.158691 3413.893311 4715.621582 5376.661621 4237.816895 5304.698730 4737.092773 4791.636230 4995.841309 5314.860840 4805.468750 5567.272461 5979.218262 5019.946777 4691.697754 5865.448730 4971.966309 5457.751953 4910.367188 3745.757080 5128.202148 4772.403809 5436.363281 4827.768066 5486.534180 4887.300293 5654.260742 5526.608398 4731.706543 5486.534180 3929.684570 5029.046387 4720.971191 6305.357422 4971.966309 5247.838379 5001.846191 5065.777344 5461.333496 4375.958008 4654.961914 5109.313477 4963.072266 4921.982422 5118.740234 5936.570801 3019.982666 5198.670898 4590.773438 6048.744141 5677.402344 5201.919922 4453.222168 5335.302734 5436.363281 5983.517090 4942.441895 4178.249023 4314.708008 5056.544434 5552.416504 5234.636719 4808.245117 4916.167969 5570.998535 5677.402344 5869.585449 5533.957520 4257.325684 4525.868164 4720.971191 5163.195801 4758.760254 5208.430664 5035.131348 5681.277832 4422.461426 5349.018066 3797.021973 5635.119629 4921.982422 4847.450195 6548.443848 4927.810547 5816.262695 4469.963379 4508.706543 5013.898926 5716.395508 5522.940918 4794.396484 5530.280273 4359.912109 3467.946777 4613.676270 5404.592285 4696.993164 5373.190430 5627.499512 5137.698730 4294.670898 6061.960449 4588.242676 5619.899902 4977.914062 6178.969727 4893.046387 5696.832520 6733.876953 5038.179199 5084.344727 4870.141602 5661.953613 4833.375000 5047.345215 4710.284180 5582.208008 5078.140137 6432.049316 5314.860840 6013.780273 5759.911621 5545.018066 4525.868164 6334.148926 4945.378418 4681.143066 4401.413086 4259.504395 5619.899902 4930.729980 5408.104004 6442.006348 5318.256836 4887.300293 6142.488770 4595.843262 4901.691406 5759.911621 5552.416504 6377.833008 5443.474121 5545.018066 6642.515625 4942.441895 4890.171387 5454.175781 5131.363770 5208.430664 3997.633057 11316.208984 5915.474121 5257.784180 5277.788086 5359.351074 5214.957520 4657.566895 5053.474121 4455.605957 5464.919434 6044.351562 5032.086914 5172.822754 5182.485840 5053.474121 5454.175781 4788.879395 3742.388428 4980.893066 4824.969238 5387.101562 5728.198242 4742.491211 4960.114258 4756.041016 5169.609863 4933.652832 5335.302734 6281.563965 5195.425781 6382.724121 3885.654541 5390.590820 5696.832520 4783.374512 4283.619141 4570.604980 4904.580078 4850.274902 5026.009766 5314.860840 4689.054688 5234.636719 6382.724121 5331.884766 4696.993164 5159.995117 5464.919434 5530.280273 4739.790527 5408.104004 5394.084473 5429.270508 5075.043945 6013.780273 5447.036621 5325.062012 5081.240723 4420.112793 4783.374512 4575.630371 5318.256836 5029.046387 5318.256836 5201.919922 4904.580078 5274.443359 4898.806152 4224.909668 4530.795898 4550.613281 5515.621094 4069.961914 5530.280273 5708.554199 5134.529297 4670.635254 6901.386230 4998.842285 5394.084473 4227.055176 5185.714844 5029.046387 4538.207031 5366.261719 4535.733887 5218.227051 4983.875488 5759.911621 5526.608398 2745.076416 6262.657715 5090.563965 5369.723633 4565.590820 5589.706055 5638.937500 5118.740234 4334.933105 5106.179199 5251.149414 4841.810547 5376.661621 5638.937500 4689.054688 4921.982422 4611.120117 3201.181641 5038.179199 4739.790527 5712.472168 5291.208984 5013.898926 6106.436035 5188.947754 4431.880859 5338.724609 4151.158203 5763.900391 4598.382324 4330.422363 8807.483398 5345.582520 4138.772949 4013.052979 3334.564209 5816.262695 4916.167969 6013.780273 4907.471680 5172.822754 4747.901855 5118.740234 5635.119629 5096.798340 4660.174805 4715.621582 6018.128906 5022.976562 5109.313477 5134.529297 4214.213867 5112.452148 4339.453613 5355.902344 4553.103027 5791.977539 4626.499023 4678.511719 5071.951172 4794.396484 5957.818359 5318.256836 5658.104492 4893.046387 4330.422363 5408.104004 5308.081543 4924.894531 5418.666504 5291.208984 5387.101562 5685.158691 5828.481934 4176.152344 6533.023438 4739.790527 4417.766602 4096.000000 5153.604980 2998.224854 4429.521973 4841.810547 6605.612793 5429.270508 5689.044434 5504.677246 4802.695801 2936.863770 4769.668945 5267.767090 4494.099121 5890.355469 4266.054199 5619.899902 5176.040039 5362.804199 4212.081055 5163.195801 5732.143066 3952.075928 5490.152832 4963.072266 4895.924805 5949.300781 4816.592773 5708.554199 5548.714844 5261.107422 4992.844727 5291.208984 5716.395508 5137.698730 5131.363770 6502.399902 5820.330078 5176.040039 5563.550781 5103.048340 5654.260742 4533.263672 5182.485840 6178.969727 5352.458008 5397.582520 5291.208984 4861.607422 4691.697754 6291.059570 6031.211426 7011.854980 5261.107422 5087.452148 4548.126953 5218.227051 5156.797852 5284.490234 4872.993164 5156.797852 5443.474121 4830.569824 4292.456055 5570.998535 5593.462402 4675.883301 5767.894531 4691.697754 4933.652832 5128.202148 5075.043945 4644.571289 5945.051270 4171.965820 3831.985352 4603.469238 6538.155762 5526.608398 3842.600098 5836.656250 5658.104492 5059.618164 5578.466309 4836.183594 4469.963379 4312.472656 5071.951172 5053.474121 4957.160156 5619.899902 5404.592285 5755.928223 6492.255859 5221.500488 4954.209473 5608.539062 5224.778320 5224.778320 5218.227051 5380.137207 4244.299805 5026.009766 5032.086914 5345.582520 5479.310059 4963.072266 5150.416016 5387.101562 5035.131348 5537.639160 4758.760254 5362.804199 5221.500488 5873.727539 4811.024414 5902.888184 4895.924805 4718.294922 4303.553223 4668.015625 4227.055176 5159.995117 5352.458008 5118.740234 5898.704590 4657.566895 5556.123047 5669.667480 5658.104492 5677.402344 5650.422363 4683.777344 5685.158691 3276.800049 5422.196777 6119.905762 5261.107422 4462.772949 5121.890625 5482.919434 5277.788086 4731.706543 4786.125488 5530.280273 5208.430664 4201.449707 4403.741699 4907.471680 7829.794922 5205.173340 5616.107910 4689.054688 5038.179199 5172.822754 5349.018066 4227.055176 3952.075928 5567.272461 5759.911621 4394.441406 4312.472656 5205.173340 5511.968262 4503.826660 4878.705566 4977.914062 4855.934570 5493.776855 5597.224121 5646.588867 4783.374512 5804.094727 4126.460938 5447.036621 5533.957520 6417.171875 4921.982422 5708.554199 5237.930664 5318.256836 5192.184570 4986.861816 5522.940918 5635.119629 4861.607422 5244.531738 6432.049316 4453.222168 4827.768066 5247.838379 5062.695801 5214.957520 3963.367676 5716.395508 4618.796875 3526.725342 4893.046387 5397.582520 5297.945312 6281.563965 5600.990723 5325.062012 4600.924316 5638.937500 5038.179199 4424.812500 5271.103027 4465.167480 5482.919434 5010.880371 5865.448730 4621.361328 4992.844727 6178.969727 4616.235352 4328.170410 4850.274902 5418.666504 5411.620117 5380.137207 4858.769531 5411.620117 4598.382324 5099.921387 5044.286133 5342.151367 5429.270508 4378.259766 4252.975098 5779.911133 4448.461914 5661.953613 5436.363281 5646.588867 5071.951172 14653.295898 6000.772949 5567.272461 4518.497070 4606.016602 5231.346191 4930.729980 4783.374512 5090.563965 4301.329102 4764.208496 4237.816895 4933.652832 5053.474121 5016.920898 4924.894531 5447.036621 5342.151367 4359.912109 4731.706543 5198.670898 4942.441895 4613.676270 4887.300293 5796.011230 4477.176758 5134.529297 4413.081543 4044.252686 5504.677246 5526.608398 5153.604980 4797.159668 4898.806152 4957.160156 5038.179199 5109.313477 4523.408691 6084.117188 5461.333496 4112.189941 4811.024414 5338.724609 5638.937500 6174.385742 5537.639160 4720.971191 5169.609863 5019.946777 3900.221191 5134.529297 4486.831055 4838.995117 5508.320312 5038.179199 4657.566895 5574.729980 5949.300781 4508.706543 4392.122559 5787.949707 4761.482910 5631.307129 4836.183594 5231.346191 5153.604980 5736.093750 5056.544434 15959.869141 5692.935547 5032.086914 4924.894531 5638.937500 4503.826660 4644.571289 4441.340332 5099.921387 5397.582520 5084.344727 5007.865234 4270.432129 4726.333008 4715.621582 5188.947754 4957.160156 5840.752441 7359.038086 4523.408691 5071.951172 6605.612793 5545.018066 4980.893066 5081.240723 5387.101562 6005.102539 5861.318359 4670.635254 5144.049316 5902.888184 5415.141113 4761.482910 5050.407715 5635.119629 5508.320312 4498.958008 4122.373535 5504.677246 5869.585449 6070.803711 5103.048340 4824.969238 5099.921387 5681.277832 4704.958496 4855.934570 5211.691895 5115.594238 5208.430664 4758.760254 4974.938477 4919.073242 5511.968262 5131.363770 5090.563965 5019.946777 5182.485840 5865.448730 5824.403320 4583.189453 5369.723633 4753.325195 5497.405762 5366.261719 5134.529297 6402.363281 5185.714844 4506.265137 5185.714844 5783.927734 6005.102539 5415.141113 5923.894531 4945.378418 4898.806152 4618.796875 4783.374512 5093.679199 5047.345215 4983.875488 9666.750000 4699.645508 5205.173340 4957.160156 4528.330566 4930.729980 5604.762207 5623.697266 5068.862305 4707.620117 5373.190430 5062.695801 5053.474121 4827.768066 5468.509766 3896.569336 5335.302734 5886.189453 5125.044434 5604.762207 3914.897461 4312.472656 5397.582520 4606.016602 5050.407715 5195.425781 5247.838379 4729.018066 5673.532227 5007.865234 4138.772949 4822.173828 5185.714844 5779.911133 4472.365234 5665.808105 5541.326172 5176.040039 4535.733887 5720.324219 5552.416504 5515.621094 5828.481934 5274.443359 5099.921387 4689.054688 4303.553223 6000.772949 5362.804199 5383.617188 3889.285889 5134.529297 5211.691895 5231.346191 6026.844238 5472.104980 5468.509766 5808.145020 5038.179199 5099.921387 5284.490234 4498.958008 4369.066895 6497.323730 5228.060059 4486.831055 4694.344238 4995.841309 5056.544434 5004.854004 5013.898926 5689.044434 3867.598633 11673.312500 5759.911621 5342.151367 4621.361328 4951.262207 6295.818359 5328.471191 5087.452148 5979.218262 4729.018066 5397.582520 4401.413086 4844.628418 4161.536133 3889.285889 4766.937012 5457.751953 4710.284180 5267.767090 5736.093750 6137.958496 4149.088867 4758.760254 3535.714600 5118.740234 5029.046387 5397.582520 4872.993164 5432.814453 3228.499512 5007.865234 4995.841309 4850.274902 4675.883301 4120.332520 5096.798340 4824.969238 4573.116699 4675.883301 4465.167480 5359.351074 4540.683105 4870.141602 5281.137207 4626.499023 5751.950195 4595.843262 4887.300293 5311.469238 5062.695801 5828.481934 4538.207031 4933.652832 5166.400879 5004.854004 5732.143066 4110.159180 4641.980957 5311.469238 5205.173340 4540.683105 5261.107422 5349.018066 6133.435547 6295.818359 5224.778320 4593.306641 4870.141602 4747.901855 5808.145020 4611.120117 5401.084961 5541.326172 4875.847656 4558.089844 5658.104492 4503.826660 4479.586426 5335.302734 4769.668945 4450.840820 5401.084961 5692.935547 5369.723633 5106.179199 5338.724609 4966.033203 5328.471191 6412.228027 6777.746094 6239.184570 5720.324219 5001.846191 4850.274902 5112.452148 5118.740234 5530.280273 4686.414551 5597.224121 5093.679199 5065.777344 5504.677246 4747.901855 4525.868164 4853.103027 4694.344238 4980.893066 5068.862305 6248.552734 4472.365234 5685.158691 4783.374512 5436.363281 5604.762207 5366.261719 4811.024414 4343.983398 4945.378418 6358.343750 5214.957520 5886.189453 4907.471680 4913.265625 6005.102539 4951.262207 4233.505371 5422.196777 4930.729980 4734.397949 4511.149902 4623.928711 5267.767090 4590.773438 5582.208008 4231.353516 4691.697754 4783.374512 4966.033203 5287.847656 5704.641602 4893.046387 5359.351074 6257.948730 4540.683105 5325.062012 4321.428711 5383.617188 6044.351562 4244.299805 4408.406738 4867.293457 5251.149414 4753.325195 5936.570801 5700.734375 4595.843262 5038.179199 5140.872070 3637.706299 4791.636230 5251.149414 5511.968262 5078.140137 5254.464844 5578.466309 5192.184570 5812.201172 4841.810547 5153.604980 4867.293457 4686.414551 4963.072266 5345.582520 5163.195801 5062.695801 5218.227051 7047.478516 4120.332520 5004.854004 6477.098633 4446.085449 5342.151367 4780.627441 5325.062012 5359.351074 5940.808105 4710.284180 5432.814453 5570.998535 5475.705078 5287.847656 4819.381348 6000.772949 4530.795898 4824.969238 4777.882812 5342.151367 5661.953613 4462.772949 4573.116699 6022.483398 5966.359863 4777.882812 4036.407471 4822.173828 5182.485840 5050.407715 5422.196777 4942.441895 5376.661621 6947.472656 5479.310059 8492.930664 4248.632812 5264.435059 3853.274170 5791.977539 5022.976562 5582.208008 4477.176758 6119.905762 5115.594238 5570.998535 5234.636719 5665.808105 4662.785645 5661.953613 5457.751953 5992.132324 3762.690674 4436.605469 4675.883301 5763.900391 6201.991211 5218.227051 4593.306641 5390.590820 4691.697754 4731.706543 5987.821777 4841.810547 5692.935547 4616.235352 4065.985352 5271.103027 4346.251465 5559.834473 4875.847656 5208.430664 5188.947754 4710.284180 3967.145752 5026.009766 5661.953613 5665.808105 4013.052979 5408.104004 4182.448242 3302.806396 4588.242676 5251.149414 5081.240723 6487.195801 4945.378418 6267.373535 4945.378418 5125.044434 3867.598633 4540.683105 4971.966309 4895.924805 5970.639648 5439.916504 4550.613281 5949.300781 5519.278320 4441.340332 5169.609863 4780.627441 5221.500488 5359.351074 4681.143066 6070.803711 4285.824707 5890.355469 4989.851562 4114.222656 6101.958984 4498.958008 4130.556641 4455.605957 6722.998535 5689.044434 5352.458008 4486.831055 5214.957520 5277.788086 5301.319824 4312.472656 5800.050293 2059.146973 4830.569824 4847.450195 4783.374512 5308.081543 5328.471191 5182.485840 5376.661621 5744.011230 3871.196289 4811.024414 5208.430664 5053.474121 5816.262695 5342.151367 5661.953613 4867.293457 5775.899902 5515.621094 5264.435059 5600.990723 4606.016602 4540.683105 5156.797852 5574.729980 4455.605957 4580.666992 3712.342529 5439.916504 4945.378418 5696.832520 4887.300293 4729.018066 5281.137207 5732.143066 5284.490234 5681.277832 5775.899902 5408.104004 7663.970703 5041.230957 5065.777344 6137.958496 5125.044434 5099.921387 5062.695801 5623.697266 4312.472656 5244.531738 4756.041016 4989.851562 5218.227051 4777.882812 4176.152344 5065.777344 4279.214355 6137.958496 5696.832520 4362.197266 4565.590820 14915.899414 5281.137207 5096.798340 5404.592285 4558.089844 4431.880859 5159.995117 5237.930664 5589.706055 4330.422363 4683.777344 4593.306641 5221.500488 5277.788086 4662.785645 5953.556641 5247.838379 5224.778320 5696.832520 3986.145508 4824.969238 4613.676270 5261.107422 6156.118164 5062.695801 
